#version: 0.2
▁ t
n g
▁ c
▁t h
▁ n
▁ đ
▁ a
▁ s
▁ b
▁ h
▁ m
▁ l
o u
▁ v
e r
▁ k
▁c h
▁ w
▁ g
i n
▁ d
▁ p
▁th e
o n
r e
a t
n h
▁ y
▁n h
▁k h
▁t r
a n
▁y ou
▁t o
e n
▁ o
i t
i ng
i s
▁ T
▁ f
▁ ng
▁ I
e s
ô ng
o r
l l
▁ r
▁l à
n d
e d
ô i
▁ C
▁p h
a r
▁v à
c h
▁ in
a y
▁c ó
▁g i
▁o f
▁ -
o m
ê n
▁a nd
▁kh ông
a s
v e
e t
q u
a l
▁ e
ạ n
▁ N
ộ t
i ệ
o w
▁ A
l e
ờ i
o t
i ế
▁ qu
u s
▁c ủ
▁củ a
i c
ớ i
▁T h
á c
▁t ôi
▁m ột
▁b e
▁ S
▁t a
' s
i on
▁ B
▁b ạn
ư ợ
▁th at
▁ x
o ng
ấ t
▁w h
▁ M
▁ H
▁ it
▁n à
u y
▁h a
i m
▁you r
ú ng
i d
▁ re
▁d o
e .
▁ is
▁th ể
▁ on
ấ y
ạ i
g h
▁ W
ư ời
en t
e l
▁đ i
ượ c
▁n ó
u t
▁s ẽ
c t
l d
▁ch o
▁đ ó
▁ng ười
a m
ả i
▁đ ã
ề u
▁đ ược
▁f or
ì nh
ầ n
a ng
u ố
ữ ng
▁C h
▁h o
ou t
' t
er e
▁s t
▁n 't
â y
▁v ới
▁ng h
▁c on
▁ Y
o s
▁tr ong
v er
k e
▁ Đ
▁nh ư
▁nà y
▁ V
▁nh ững
it h
▁w e
s .
▁đ ể
▁a n
▁c á
▁a nh
a d
i ll
l y
▁l i
▁ch úng
o o
▁s a
gh t
▁là m
▁r a
▁w ith
i r
▁ u
a ll
▁ D
a c
▁ L
▁c ác
ư ớ
r o
iế t
â n
▁Y ou
▁a re
▁ ở
▁ph ải
▁kh i
t h
▁s h
▁c ả
e m
▁ K
▁m à
▁T ôi
t er
▁o r
▁ "
▁ha ve
▁ P
ế t
u r
i f
e ,
▁ 1
▁a s
▁h ọ
▁h e
▁c an
▁th is
▁n ot
n .
▁ G
▁g ì
i l
▁n e
ằ ng
ướ c
ế u
an t
ế n
s ,
ou ld
ầ u
s t
y .
▁và o
▁s e
▁w as
i ght
▁v ề
▁m e
▁nó i
om e
ậ t
▁I '
▁nh i
at ion
à nh
▁Th e
ư ờ
ự c
▁l ại
▁s o
us t
ặ c
. .
o re
p p
y ,
ườ ng
▁f r
ồ i
à i
▁đ ến
iệ c
a o
ù ng
▁a b
▁s ự
▁b iết
ơ n
â u
i ể
▁ j
ư ơ
c e
' re
▁a t
o p
▁s u
es t
▁ E
▁đ ộ
a in
u l
ứ c
ố ng
▁l o
▁đ ang
▁N h
iệ n
ố i
▁c ô
▁t ừ
a g
▁ (
in h
▁W h
▁g o
▁ R
an d
í nh
▁v iệc
▁k n
o l
uố n
uy ệ
a u
ậ n
▁th ế
ũ ng
▁ O
ou r
ả n
s e
▁ F
▁ ấy
▁e m
▁ us
▁đ ây
▁th ấy
▁m y
▁e x
e ll
ươ ng
à n
▁A nd
▁đi ều
à ng
▁ngh ĩ
▁b ị
▁wh at
ậ u
▁w ill
iế n
▁m uốn
▁d e
▁kn ow
a .
ar t
▁w or
▁c ũng
▁ out
▁ch ỉ
▁nà o
▁a ll
▁a l
▁c om
u ng
is t
en d
í ch
▁I t
er s
▁c ần
▁ab out
á t
es s
a b
k ing
▁m a
ă n
ă ng
▁the y
▁g et
i g
▁K h
i ên
▁ 2
a nh
in d
▁p ro
ư a
▁A nh
▁T r
▁cá ch
u m
▁l e
▁ho ặc
▁r ồi
ậ p
▁ ông
▁m ình
ọ i
▁u p
ắ t
h er
▁fr om
▁đ ầu
all y
▁n ên
▁nhi ều
i ve
u n
▁h er
ề n
e ct
▁kh ác
▁ J
▁ if
uyệ n
ê u
ơ i
á i
ò n
▁li ke
ac k
re s
▁d ụ
▁I' m
▁v ì
oo d
▁tr ên
o d
ắ n
at e
▁c a
▁th ì
ổ i
ă m
ắ c
▁b ut
ú c
▁h ơn
u ộ
▁t im
▁r ằng
on e
es .
r i
▁j ust
▁w ant
▁s p
▁V à
ặ t
▁cá i
ar d
▁sa o
iệ u
▁W e
ã y
or t
e p
r a
á ng
▁p l
ứ ng
▁N ếu
a i
▁f e
▁như ng
in k
▁nh à
uộ c
ậ y
a ,
▁I f
u re
▁the m
r ou
▁r ất
o ,
as t
▁nh ất
▁th ành
▁qu an
ỏ i
▁c òn
▁c ông
0 0
▁b y
▁on e
▁ch uyện
▁Ch úng
▁kh o
▁n ữ
▁đ ị
▁s ome
▁H e
oo k
ố t
n t
ì m
es ,
à y
▁n ếu
▁t i
ing .
▁an y
id e
ng .
▁d i
ẫ n
▁không ?
e c
▁c ậu
iể u
á nh
ư ng
▁cả m
▁h im
▁gi ờ
á n
▁p e
▁t iế
▁m ore
▁s ố
▁th ứ
▁n ước
ộ i
ấ n
ụ c
us e
a p
ú p
ả o
ạ o
▁ne ed
▁h ay
er .
ọ n
▁th ere
▁m ay
▁t in
â m
▁ U
ò ng
▁sa u
▁th ực
▁ch ính
▁wh o
ô n
ỗ i
▁tr ước
▁wh en
▁độ ng
▁l ên
▁t ìm
i e
op le
h ,
os t
▁in t
m ent
▁gi úp
▁n ăm
▁t ự
▁đ ồ
ư ở
ừ ng
▁t ới
▁qu y
á o
i p
ê m
h ing
▁b ằng
▁Th is
▁họ c
▁th ời
e ar
▁d id
re at
v en
▁m an
.. .
▁c l
▁B ạn
▁e ver
▁th ink
▁dụ ng
▁Kh ông
á ch
ấ p
u d
▁pe ople
ú t
▁c ơ
▁ im
▁o th
▁l u
▁đ âu
os e
▁B ut
ưở ng
o c
▁the o
▁đị nh
▁you 're
f f
▁w ould
i ch
▁h as
▁h iện
▁C ó
▁r ight
i a
iệ t
▁it 's
a ch
▁h el
ic k
▁Nh ưng
▁se e
▁nh ận
▁D o
á p
▁It 's
▁a i
am e
▁ ý
uố c
▁a g
ed .
in e
p t
▁m ọi
▁Wh at
ay .
ượ ng
▁ma ke
b le
ấ u
▁th u
▁c ứ
▁qu á
▁be c
a use
▁t ốt
▁h is
▁g ot
▁nh ân
▁N g
▁sh e
a ct
▁th ường
ou s
i z
p l
ọ ng
ạ t
it y
▁ our
▁hel p
▁c ùng
ạ nh
▁c uộc
i es
▁s ống
▁h ow
▁p r
▁th ích
▁w ere
s el
▁b ack
om et
▁m u
uy ên
▁đó .
a re
▁b ắt
▁n o
ợ p
ay ,
▁m á
▁th ật
▁I n
▁t ại
▁t u
m .
▁c ould
▁you .
▁oth er
▁the ir
▁ha d
▁l ớ
▁m ới
b er
a k
▁th ing
▁ 3
▁o ver
▁b ản
▁ha i
▁h ợp
▁ ăn
▁ en
ow n
h e
r y
▁sh ould
▁b u
ố c
▁đ ề
▁c o
▁S o
ả ng
▁of f
p er
▁ng ày
i al
▁be en
▁ Q
ic e
▁h ãy
▁a d
▁b ao
▁th an
▁S t
▁gi a
ả m
▁qu a
▁b r
' ll
▁h ình
▁P h
▁int o
ử a
▁it .
▁h ere
▁N ó
ó c
▁n ow
▁gi an
i v
ở i
▁d ùng
▁ever y
▁tr ở
it t
▁h ành
▁wor k
▁go ing
ac e
uố ng
▁này .
▁tim e
ặ p
▁Th at
▁ng o
▁v ậy
ắ ng
▁m ặt
▁b l
ẳ ng
▁s ay
▁đ ấy
▁h àng
n a
▁con t
▁gi ữ
▁- -
▁s omet
▁ch ưa
a v
▁x em
ì n
▁a c
▁ch ứ
▁l ý
res s
▁nh au
▁g ood
▁ta ke
▁fe el
▁C ô
o g
▁b ộ
▁d is
▁a ct
▁E m
▁tiế p
ạ ng
s o
▁The y
▁b ảo
▁p art
sel f
i le
o b
▁s inh
▁u n
o .
▁v ẫn
▁n ăng
▁lo ại
▁the se
▁t e
▁ph ần
▁s ử
▁gi ới
▁k ết
ệ nh
▁th o
▁đ ối
▁s c
▁p re
ag e
as s
er y
ả nh
▁th ông
an s
▁wh ich
▁the n
▁l ần
▁y ear
▁t ình
▁t ính
a ve
▁t w
▁ Ô
▁w ay
▁nhi ên
▁th ay
ot her
▁rồi .
is h
▁y êu
ou nd
▁b et
▁t ạo
on d
▁M ột
▁re s
▁al so
ab le
▁tr ình
▁ '
▁l ook
t ing
ả y
▁to àn
▁a pp
ồ n
▁đ ổi
▁th ôi
iệ m
▁t ay
ẩ n
▁t ập
' ve
ạ ch
i ld
ạ c
▁ph át
▁t ất
▁b ất
ou nt
▁p er
▁b à
▁th ức
▁C on
al k
nd er
▁b ỏ
ị ch
▁on ly
▁th ân
▁g ặp
ing ,
w ay
er ,
▁b ên
▁đó ,
ic al
▁g r
▁t âm
▁n ơi
▁tr ường
ion s
▁nh ìn
▁com p
▁l úc
ir st
ou gh
▁w at
i ều
▁đồ ng
ể n
f ore
it e
or m
▁t ell
▁v ấn
▁bec ause
f er
▁a r
rou nd
▁h ệ
▁e ven
ul t
▁tr ọng
e ep
▁má y
▁đ ường
▁v ị
▁f ind
ig n
f ter
▁im p
▁Đ ó
▁t ế
▁tôi .
▁wh ere
▁g ọi
ừ a
an c
á m
▁Ô ng
▁ngh e
▁v ery
▁G i
▁h ỏi
os s
▁a m
▁và i
▁c all
v ing
▁d own
▁li f
▁v ụ
▁T a
▁h ội
i re
▁qu ả
▁lớ n
iể m
▁s ĩ
▁somet hing
▁h ết
▁ne w
▁h iểu
ẩ m
▁c âu
▁đ ưa
▁v iên
▁ch ết
▁đ ều
re e
ed ,
or d
▁v ậ
▁này ,
r u
en s
▁in c
ur n
u e
▁p ers
ư ới
▁H ãy
▁h ắn
▁ph í
▁tr ị
el y
▁ha pp
ợ i
▁in ter
▁re m
▁m o
▁l ời
▁l et
▁m e.
▁u nder
▁1 9
as e
í t
▁ X
▁t ên
▁s m
ơ n.
▁ngo ài
ầ m
▁g on
▁x u
en c
▁f l
▁Th ere
▁đ úng
▁d ự
▁do es
a il
▁đ o
ion .
d u
▁f irst
▁re ally
▁kh u
▁ 5
▁tr y
▁kh ỏi
▁ch ất
▁Đ ây
▁mu ch
▁l ượng
▁m ất
c k
▁đi ể
▁be fore
▁ch uy
▁c ố
▁W ell
▁m ẹ
▁tw o
▁ ảnh
▁2 0
iể n
▁to o
f t
uố i
ar y
▁us e
▁từ ng
▁b o
▁d if
ot h
▁H ow
ọ c
▁ch ọn
▁b ởi
▁gi ải
é p
▁b ố
▁c ome
é t
▁h iệu
g e
á u
▁đi .
▁ph áp
▁ 4
▁v ật
▁th uốc
▁c ao
▁pers on
▁v i
▁t ác
▁Kh i
▁b ệnh
ướ ng
in t
▁l iệu
▁ph òng
▁nh ỏ
▁điể m
▁l ong
▁ch ị
itt le
▁th iết
am p
▁S he
en ce
e a
od y
▁ti êu
▁gon na
▁kh iến
▁kh ó
ắ p
▁ch iế
▁fr i
▁h ơn.
▁b é
at ed
▁ à
▁sa id
ation s
i an
▁I' ll
ar k
▁C ậu
▁li ên
ắ m
i .
▁st art
▁C ác
▁fri end
▁c ầu
▁Well ,
▁ch ủ
▁ng ay
▁d ay
ad e
▁l ấy
w n
ó ng
▁l ực
▁l ittle
▁m ỗi
▁ch ứng
▁ho àn
u b
▁ag ain
rou gh
g et
ễ n
iệ p
▁a fter
▁r o
▁d r
▁re l
▁t ưởng
ic t
e w
▁bạn .
▁b iệt
i gh
▁tr ẻ
u ally
▁t ổ
▁com m
ou ght
at h
▁th êm
▁g h
▁you ,
▁your self
▁V ậy
▁c r
▁ne ver
▁h and
▁th rough
ấ m
▁w r
▁su re
▁k inh
▁re c
▁gi á
▁k eep
▁H ọ
x t
▁t iên
is s
▁cứ u
▁g ây
f ul
▁m ost
ồ ng
▁đây .
▁m in
▁ti ền
at her
c ess
▁p o
▁that 's
ạ m
▁ch ắc
an ,
▁in f
▁ch u
w e
▁H o
▁sao ?
th ing
▁wor ld
i ,
an k
▁a round
u ll
▁quy ết
n e
ộ ng
▁th ương
▁m ight
▁ho á
▁s át
▁s y
oo l
▁tr ung
an ce
▁we ll
▁s áng
▁m ạnh
▁xu ất
▁se c
ve l
▁nh ớ
▁b ình
▁ch iến
▁at t
▁nữ a.
▁That 's
▁k ill
▁nghĩ a
oc k
▁N ow
b e
▁ch ú
▁You 're
▁đ ặt
p e
▁chuy ển
i ly
▁be l
▁th ống
▁A s
▁1 0
on .
it ion
▁st ill
▁s ản
▁thing s
▁ph ương
▁ch ơi
▁t alk
▁ ít
▁gi ống
▁quy ền
▁Q uốc
▁x ảy
▁c ar
▁th ị
▁ph ụ
▁ch ang
▁I' ve
▁gi ết
▁đấy .
▁t y
▁lu ôn
▁ph ẩm
er m
▁F or
) .
▁x e
uyệ t
ow er
ạ y
p h
▁ta .
▁gi ảm
▁mình .
▁p ut
▁d ưới
▁g uy
▁l ẽ
▁v u
▁th ose
▁s ách
an .
▁g ần
re d
▁s k
▁ ứng
▁dif fer
▁her e.
▁gi ve
▁d es
▁đâu .
▁đ ánh
▁b ác
▁kho ảng
▁tr ả
▁Wh en
▁d ẫn
▁d ễ
▁t ăng
▁c le
i b
▁nữ a
v ed
or n
▁ch ế
▁m ang
▁s ức
i ous
▁b ài
▁be ing
▁th ought
en .
▁Nh ững
▁tiế ng
▁Tr ung
▁thôi .
▁c ây
ation .
ẹ p
▁s er
▁t ương
▁tr a
▁b áo
▁đ iện
▁x ác
▁k ỳ
es e
▁k iểm
▁đ ủ
▁đ ại
on s
▁con s
à o
▁l ập
▁c ấp
ữ a
▁d a
▁đ ơn
▁de c
i ble
ằ m
▁l ot
▁à ?
▁man y
▁đ ặc
e ver
▁h u
en ,
▁tr í
a ke
v es
▁g ái
▁Đ iều
ứ a
▁v ừa
▁ho ạt
▁sh ow
▁o wn
▁su pp
▁phí a
uy ền
▁f o
▁đ ất
▁ch ẳng
▁as k
▁g reat
▁bet ter
u al
er t
▁mà u
▁k ế
▁A m
at ing
▁d ân
▁in st
▁l ỗi
▁b iến
ar n
▁t ài
▁wh y
▁rồi ,
▁Ch in
ư u
▁M ỹ
▁do ing
▁th áng
au ght
h ip
ầ y
▁su ch
▁A l
v ent
▁ch í
▁Đ ể
▁v ô
▁Tr ong
▁t ớ
▁đ au
▁chứ ?
ậ m
p ect
▁O h,
▁chiế c
▁d ù
l es
▁khác .
▁x uống
or s
▁s ur
▁re al
▁ad d
▁h ướng
▁c uối
▁ end
▁ch ân
i et
▁ 6
▁v ệ
▁ch ỗ
is e
▁đ áng
e k
▁s l
▁lo ve
ea h,
▁it s
▁as s
▁giữ a
▁ca re
ad y
▁t ư
a w
▁h igh
▁kh ả
▁t ối
▁nó .
i ent
▁m ed
ô m
▁ uống
▁c ổ
▁tr ang
à m
▁r õ
▁o p
▁m at
▁m ục
▁m ắt
▁ac c
▁in s
▁V ì
. "
▁ch ild
▁M y
or y
▁l ast
▁ch út
id ent
▁được .
▁A n
' d
▁cả nh
iế m
▁tr ò
▁Đ ừng
▁tr anh
▁m ở
▁ ,
way s
▁ ổ
▁B e
▁qu ốc
▁g u
▁ng ủ
le ,
▁k ẻ
i x
▁ /
▁we 're
▁I s
▁N o,
▁f am
▁th ư
▁v ẻ
▁t uyệt
▁c ửa
▁h ạn
▁c ount
▁t ục
▁th ử
▁s uy
▁m ade
on ,
▁nh anh
▁differ ent
▁g en
▁ng uyên
00 0
▁k ind
le ct
▁anh .
▁bel ie
▁st r
w ard
em ber
▁o ld
▁đ ời
▁f in
t .
▁t ượng
▁imp ort
▁thu ật
▁di ễn
▁A ll
▁vậ y.
▁t iến
ul ar
▁happ en
▁th er
▁qu ay
▁tôi ,
ng ,
▁re g
▁p ol
▁v iết
▁e l
u p
▁s ame
ự a
▁Wh y
ra ct
o y
▁n ay
▁gi ác
▁t óc
▁Y eah,
▁m ust
▁You r
▁Q u
▁in v
▁wat er
▁e ach
a it
▁L et
▁ph ân
or .
▁ –
▁t inh
▁he ad
▁ ide
▁th ần
▁w om
▁in d
▁ch ức
▁fe w
▁k ể
▁b est
▁kh í
▁pro ble
▁d ài
ver s
▁g ắng
▁ch áu
▁ngh iệp
▁it ,
k es
▁d ịch
j ect
at ive
ar m
▁chị u
▁v ực
g g
y s
▁T o
▁d uy
r l
▁him .
▁th ú
▁mà y
▁He 's
uy ết
▁n ight
▁min ut
ó n
iz e
ter n
▁lif e
o id
▁ph ép
▁year s
▁pr ot
▁ph út
▁b ig
ff ect
▁gì ?
▁tu ần
▁S h
▁he 's
▁M r
▁ngh i
▁s ợ
▁Không ,
at es
▁l âu
▁mà .
▁an other
▁that .
▁U n
▁mu a
▁x in
▁s et
▁b re
▁c àng
▁đ ẹp
st and
▁p res
▁al ways
▁them .
▁pl ay
▁h ộ
t y
▁tr ai
al th
▁c ực
▁import ant
▁s ch
ion ,
ố n
▁ ơn
▁g l
▁ngh iệm
r ow
▁t ử
▁m e,
if ic
o h
ó m
a ir
▁wh ile
ol og
▁x úc
▁ra .
▁h um
ươ i
à u
▁n um
▁m ức
▁l ã
▁vu i
▁r i
▁ng u
▁b ọn
▁đ ừng
▁Ch o
▁S ao
▁S au
▁đ ình
▁t urn
oo king
▁m et
▁f ood
▁ 7
d er
e e
ề m
▁d ành
or k
▁th am
re n
▁ph ục
▁ph ản
▁tu ổi
) ,
l ud
ot t
▁Ch ỉ
▁gi rl
▁pro du
▁act ually
▁tr iển
▁f ound
▁Ng ười
▁r un
▁m inh
▁w o
▁" T
▁s it
▁th uộc
▁sp ec
ế p
▁m on
▁l ist
▁ấy .
ư ỡ
▁s im
▁nhiên ,
▁vậ y,
▁we ek
▁h ard
▁b a
▁lại .
▁ ent
as h
▁o b
▁you ?
▁some one
▁ 8
▁a w
iế u
▁t ích
▁e y
aught er
▁know ,
▁le ft
▁m ối
m ,
▁b àn
al king
ly ,
▁us ed
it y.
et .
▁O n
▁en ough
▁J ust
▁me an
▁re p
▁nào .
▁c our
al .
o ve
▁đị a
▁k id
▁C l
▁qu est
▁ex per
▁s ign
▁F r
▁l òng
▁m ù
▁qu ân
▁Ch ú
▁n ằm
▁with out
▁tr iệu
▁qu anh
we en
▁x ử
▁l ợi
▁c ụ
▁sm all
e ad
▁t reat
▁th ree
id er
▁k é
▁p oss
ã i
▁d ấu
ê ng
▁tim e.
▁s w
▁p ain
▁u nt
▁pl an
ar l
▁get ting
▁pl ace
▁k iếm
▁e as
i es.
▁v ùng
▁there 's
▁b iểu
▁v ăn
▁không ,
ct or
▁ch ó
▁tr ánh
▁gi ả
in .
i ed
▁b us
st em
▁bet ween
▁to ld
▁20 1
▁b as
▁to get
▁com pl
▁toget her
▁ex amp
ly .
▁n am
▁M ar
▁b ước
▁tho ại
le .
▁c at
▁under stand
er ic
▁b án
▁tr ợ
▁ng ài
▁x a
▁ 9
ẫ u
▁họ .
▁m ind
▁h our
▁ha ir
▁đi ,
ẵ n
▁ng à
▁le ad
ll ow
▁ther e.
▁k iến
▁inc lud
▁they 're
er g
r ic
▁N ot
ẩ y
▁m ấy
▁đây ,
▁đ ứa
▁tr uyền
▁con f
▁you 'll
▁for m
▁f act
▁gi ao
▁st ud
a z
it ed
▁op en
ur ing
▁this .
▁ex t
▁now .
▁gi áo
▁be g
▁be h
▁m ạng
ồ m
▁b oth
ce pt
▁belie ve
on e.
▁M ay
▁kho ẻ
in king
▁you 've
▁L ook
▁l ooking
▁ph á
u c
▁th ủ
▁k ích
ing s
▁B r
i er
ec k
▁We 're
▁lu ật
▁N gh
in ce
▁h y
on t
▁H ắn
▁a way
re t
è o
▁d ầu
" .
us h
▁n ổi
▁ta o
▁unt il
▁ex p
▁le arn
▁fam ily
▁he alth
▁There 's
b ody
▁re st
▁ne xt
▁2 00
▁nh ập
▁st ay
▁a v
▁tr ạng
▁v ọng
i a.
▁b ody
▁kh á
▁inter est
n er
▁dis c
▁ra ,
ation ,
▁nh é
in es
▁mo ve
▁m one
▁h ả
om m
ạ p
▁le ave
▁sec ond
▁m en
▁h ơi
▁proble m
▁s ẵn
▁b ad
▁đ ạo
all y,
▁đ ôi
▁c ười
▁ áo
le as
▁any thing
▁L àm
▁nhau .
▁3 0
▁c al
ro p
ượ t
▁d anh
▁ âm
▁cả .
▁ch a
▁sy stem
▁st op
▁đ àn
▁ch ống
▁má u
▁tr ái
▁vậy ?
▁po int
▁ áp
▁o k
e g
▁de f
▁Am eric
▁re ad
▁y ếu
▁d et
▁ph ố
▁wor d
ct ion
▁try ing
▁h ỗ
iế ng
▁us ing
▁m ặc
ent s
▁up .
▁ch ắn
▁nh iệm
▁không .
▁l at
▁v ết
▁c re
▁th anh
▁h ưởng
al s
▁người .
▁li ght
▁đ êm
ặ ng
▁Đ ược
▁đ ứng
ĩ nh
▁p os
▁call ed
▁v òng
▁g ồm
▁( L
▁ch uyên
le ep
▁lớ p
▁h ôm
▁bu ổi
▁b ây
uố t
▁li k
▁b an
▁m i
▁to p
▁gr ow
e f
▁ab le
t en
▁1 5
▁s ạch
▁he ar
▁ ích
▁T uy
ac e.
▁kh ăn
▁de p
▁out .
▁ho ạch
l ic
▁A r
ic e.
▁t ội
▁j ob
▁C an
▁su b
▁c ân
▁b ay
▁l ess
er c
▁sch ool
▁S ome
▁m ar
▁s ở
▁ph ủ
▁so c
▁T ớ
▁th ẳng
▁độ i
▁tr ưởng
▁x ét
▁x ã
ou se
ation al
▁" I
h .
▁B ec
▁ro om
▁ch ạy
▁m om
▁ng ồi
▁l ịch
▁w ait
▁Th ế
▁me et
▁th úc
▁Mr .
▁đ ọc
▁ch ia
vel op
▁ma king
▁Chin a
▁p ower
▁s ắp
▁A re
er n
▁ án
▁Now ,
▁ch i
▁ngh iên
▁Gi ờ
▁t iết
ro l
▁e ar
▁ch ung
i a,
▁gì .
▁p at
▁bu ild
▁ng uy
▁O k
▁là ,
▁I' d
▁tr ông
▁t alking
▁c ung
▁độ c
▁fo llow
▁tr ời
▁c ame
▁tr ans
s ?
▁nh óm
ủ ng
▁al re
▁ng ăn
▁num ber
▁ngu ồn
n ing
▁S o,
a x
▁đ ảm
▁d ist
c on
d d
▁c ạnh
▁bạn ,
aughter )
▁ngh ệ
▁m ật
▁e ffect
i ally
▁N ew
▁(L aughter)
▁f un
it s
il it
▁n ame
▁đ á
▁lo c
ent .
▁want ed
▁res p
▁to à
▁ri êng
▁bl ood
e y
▁d ạng
▁h ome
ã n
▁ Z
▁He y,
ỉ nh
▁đ ầy
▁p ass
▁Th ese
▁to d
▁h om
are d
▁so l
ar ch
▁re t
▁N o
▁co ll
ab ly
o ver
ã o
▁se em
r am
▁nh ắc
ou n
▁đ ấu
▁thế .
▁s âu
▁f ather
▁Ph ải
c es
▁lu ận
▁all ow
▁c ut
ure .
ử i
▁l ựa
▁kh ách
▁m us
▁st and
▁nào ,
p le
▁x o
▁re as
▁do ctor
▁t ệ
▁v ời
▁N am
▁chu ẩn
t ,
▁t est
▁mon th
ion al
▁li ve
▁t ức
▁dụ c
▁hơn ,
▁l ar
▁Bec ause
▁1 2
▁S p
ar .
▁k iểu
▁ph im
▁V í
▁G et
▁ es
▁us .
▁l ạc
▁gh i
▁c ol
▁h ồi
▁examp le,
in e.
▁d one
el f
▁D id
▁v ũ
▁d ung
▁ho ld
re ct
is ter
▁v is
▁k ì
▁khác ,
▁th ằng
▁ch ờ
▁chang e
▁b it
▁c ur
▁hum an
▁sk in
l ed
er s.
ir d
▁ké o
▁đ u
▁ i
▁nh ạc
▁exper i
▁inf orm
▁de ad
▁T ất
ic ally
▁h ại
ưỡ ng
▁l ệ
▁do .
▁gen er
▁who le
▁sp e
i es,
▁br ing
▁t uy
i el
r y,
i ke
▁k ỹ
▁đo án
▁c ent
out h
▁not hing
▁m ô
▁C ái
▁V iệc
▁n at
▁c ộng
▁ph i
▁S e
▁so át
ie w
▁nhi ễ
▁rel ations
ữ u
▁it ?
▁m od
▁x ấu
▁alre ady
▁de velop
▁that ,
▁qu ần
▁G od
n ess
▁d ữ
▁Th en
▁he art
r y.
▁s leep
▁on ,
▁her .
ag e.
ắ n.
▁th ậm
▁h ữu
▁ch e
▁qu en
▁dự ng
▁ph ạm
▁ch ương
ặ n
▁Wh ere
▁đo ạn
w h
▁h ạt
▁tr ực
▁O r
ú i
▁x ây
, 000
in ess
▁Wh o
▁rem ember
▁đó ng
▁c ử
c c
il ity
▁per f
in c
▁hả ?
▁ha ving
▁bec ome
▁t ố
▁k iện
▁M ẹ
ert ain
▁t í
▁ph ù
▁s ư
▁l ưu
▁c ắt
▁b ức
▁le g
b r
▁le ast
p s
▁ch àng
an y
▁poss ible
▁b ab
▁wr ong
▁ch ấp
▁w ent
▁" C
f ort
▁ta king
▁f ight
▁sa f
ind ow
▁re f
▁mình ,
▁b óng
▁lo ài
▁chưa ?
▁T ại
▁me ?
g an
▁c reat
▁ex pl
ỏ ng
▁pr om
it ive
g er
▁e v
▁O ne
▁wor king
▁A t
▁a ir
▁v ide
▁k ia
▁kho a
ar s
l and
▁m iss
▁sa i
▁s ang
▁d iện
▁bre ak
▁of ten
▁every thing
▁s àng
al f
ver n
i k
▁b ăng
▁tr ải
▁B ây
▁pro g
▁h ồ
▁me ans
s u
▁l ắng
▁nữ a,
▁C òn
ch n
▁Tr y
▁cle an
▁nói ,
▁lif e.
▁con c
▁s al
▁l ắm
▁nh ẹ
us s
▁n ền
en se
▁relations hip
▁m ái
am in
▁f re
▁b ook
▁k ý
▁nào ?
▁t àu
▁x uyên
▁do g
▁right ?
▁too k
▁B à
▁go vern
i o
▁r ộng
▁c ải
▁đ ạt
et her
le ase
os ed
▁r ối
ẩ u
▁th ưa
▁wat ch
▁c ăn
▁m ong
ut ion
▁em .
s w
▁r u
▁th inking
▁M ake
▁r àng
con om
▁m ón
▁p ay
▁inc re
▁C ome
▁x ung
ver y
▁ho a
n ,
▁c as
▁p ast
▁gi ấy
▁sh o
ment .
▁f ull
▁sa w
▁com ing
▁pro b
▁r is
l ess
r is
▁st re
▁E x
▁S c
▁pro f
▁ho à
▁pre t
▁here ,
▁ Ý
ment s
▁again st
▁mat ter
ó i
▁o il
▁U se
▁compl et
▁th ất
it ies
▁qu ên
▁chứ a
▁tr ùng
im e
▁el se
ắ m.
▁đ ông
▁le vel
▁th uyết
▁kh ô
▁produ ct
n ect
▁J oh
▁comm un
▁ Ở
em ent
al e
▁an t
▁or der
▁chúng .
▁nhất .
▁s uốt
▁beg in
▁prot ect
it ch
or ,
▁ng ữ
▁R e
at e.
▁p ur
ever ,
▁b ánh
▁pro v
▁cont rol
▁ma kes
▁dụ ,
▁part ic
▁đ ô
et ,
ic s
o v
▁ngh ị
▁right ,
▁ca use
ổ ng
l ing
▁m èo
▁d ị
▁đấy ,
▁what 's
▁nhiễ m
ur al
▁đ ỡ
▁m other
▁ngo ại
or th
▁l ạnh
▁f our
▁n ội
▁e at
▁1 8
▁ngà y.
▁s or
▁s ide
▁A i
▁cá nh
▁g ửi
oc us
▁tim e,
▁b iển
▁br ain
▁ide a
▁comp ut
a h
▁th i
as ter
are nt
▁m ill
▁ta ,
▁se en
▁d uring
▁supp ort
e x
▁ch ar
▁im m
ri b
▁p ress
▁we b
▁p ub
▁gi ản
u ff
▁nh iệt
▁G o
▁l á
▁d ây
▁M ày
▁d ay.
▁đ ợi
ive .
▁X in
▁on ce
k en
▁M ọi
▁thể .
▁c am
▁tho át
▁May be
▁e conom
▁ổ n
▁lã nh
▁l aw
▁Let 's
▁o pt
▁w alk
▁ng ươi
▁lại ,
in ,
▁Ho a
▁th iếu
▁Ta ke
it al
ượ u
▁m ark
t on
▁sy m
▁h ur
iế p
▁o pp
▁1 00
▁te chn
▁P l
it y,
ow n.
▁again .
▁t re
c ed
iz ed
▁ar t
er s,
im es
▁cons ider
▁re qu
▁( C
▁s ound
▁p ot
▁m ôi
▁n ối
▁she 's
y ?
ion s.
▁cá o
▁h iểm
▁l au
u res
▁Ok ay,
▁Nó i
▁s ince
ut h
r at
ou ch
end ing
▁v al
▁Th ật
um p
u ck
▁an sw
m an
▁ ánh
▁tốt .
▁ch eck
▁ca us
▁They 're
▁g rou
▁v ợ
▁( T
▁friend s
▁do anh
▁t em
▁th iện
iệ n.
▁cle ar
▁k ỷ
▁B l
▁kho ản
▁qu ý
▁l ai
▁d àng
▁Nh ư
▁v ượt
▁b ụ
▁đ ế
▁ar m
id e.
▁im ag
▁sit u
▁s ớ
▁f ree
▁feel ing
▁c or
▁me an,
▁What 's
▁h ầu
▁c ăng
▁ngh ỉ
▁L e
▁h út
▁m ũ
er r
▁j o
▁tr ì
▁r ượu
▁ch ăm
▁back .
▁that ?
▁E very
▁f ore
▁v iện
▁r ời
et s
▁prob ably
▁h ạ
at t
▁th ở
▁qu ản
▁P r
s e.
▁d em
▁s úng
▁l ộ
ent ion
▁đ em
▁nhi êu
▁av oid
▁d el
▁Y es,
▁may be
▁con d
▁b ữa
▁nh ờ
▁l uyện
▁p ri
▁is ,
▁de al
▁on .
▁s ắc
an na
▁ ed
▁c ell
s p
▁ng ôi
á y
▁n ạn
▁She 's
▁tổ ng
t a
▁v í
▁pl ant
▁ad v
n am
iel d
ru ct
▁f ace
re am
i um
▁h alf
▁ph ys
▁h ôn
▁5 0
▁ $
▁h ot
▁f ive
▁f ut
▁f ar
o x
▁thế ?
ẹ n
▁l ang
pp ed
▁b ắn
▁B ố
ay ?
▁nghi êm
▁c ertain
▁p op
▁qu ick
m in
▁kn ew
ra w
▁tr ain
▁act iv
▁T ao
id d
▁th ái
▁t ấn
▁cô .
▁f il
le x
▁Chú a
▁b è
▁di rect
▁h ạnh
▁l ắm.
re en
▁bu ồn
▁b ott
▁m ess
▁m em
i ver
an n
▁b ro
▁tr ừ
▁làm .
▁c ũ
▁Un ited
ò i
▁s ing
▁said ,
▁lik ely
▁b uộc
▁pol it
▁x anh
▁he ard
▁med ic
▁nh ỉ
▁anh ,
▁người ,
▁đ ỏ
h o
▁tr ách
▁nhà .
▁this ,
▁reas on
▁b reat
▁ca p
▁s elf
▁re du
▁v ai
▁cont in
ọ ng.
▁co i
▁d am
▁f ocus
n es
▁c à
▁kho á
▁m iệ
▁I nd
a ut
f ic
▁n ão
y l
▁ex act
▁out s
ure ,
▁c ơn
▁mone y
ó t
enc e.
▁con nect
t ain
▁to o.
▁on e.
y ing
▁ch ữ
▁x ong
▁r ửa
al ,
▁m ain
▁now ,
▁res ult
ight .
▁đ ổ
it ing
▁H ave
▁st ep
▁inst ead
▁child ren
e in
▁s óc
a pp
▁đ ẩy
▁with in
▁spe ak
▁h ist
▁tim es
▁de ep
▁str ong
" ,
c ent
ụ p
▁st or
▁t erm
▁ông .
▁b uy
▁h ouse
▁V ới
▁kh ám
▁T ìm
▁e lect
▁m ắc
▁f all
▁f ac
▁D r
u g
▁tr ust
▁te ach
▁ng ờ
â ng,
▁ne g
▁m orn
▁D e
▁he ll
▁ris k
▁k ê
▁nó ng
▁pl ac
on e,
ith er
▁Ch áu
▁w ar
▁you ng
▁ty p
ă n.
▁m ẫu
▁bus iness
▁w ay.
▁pret ty
ang e
õ i
▁d ạy
▁t iểu
▁n i
▁or gan
▁f ig
▁ne ar
▁pro cess
▁guy s
ấ c
▁h ề
▁d at
▁H ar
▁P e
ec ially
S .
▁e qu
▁trước .
0 .
▁l ạ
▁soc ial
▁b í
▁ph ê
▁A fter
▁comm on
▁e ng
▁n u
▁là nh
▁giờ ,
▁mà n
▁cl os
▁dr ink
▁s ir
anc e.
ar ing
▁in .
▁th iên
fic ult
▁wh ether
▁sh ort
▁app ro
▁v ận
▁thế ,
▁l ost
en n
▁S ự
▁tổ n
▁D ùng
▁" W
▁vide o
▁s ơ
è n
▁h ậu
▁ex pect
▁need s
▁start ed
▁b ar
▁my self
▁list en
▁Ngh e
▁ ô
▁d own.
▁t ồn
▁đ e
▁W ith
▁K eep
ist s
▁hộ p
l o
▁com es
▁th ấp
▁n ỗi
▁su c
▁dif ficult
▁b ang
▁wom en
▁K ỳ
i at
m ost
ic e,
r on
▁x ếp
▁em ot
▁bà o
er ing
h ing.
▁chết .
▁a ng
▁includ e
t e
el .
▁c uốn
s h
▁gì ,
▁cont ain
ic es
▁bo y
▁minut es
▁c ập
▁th ough
▁ph úc
ent ly
▁v ir
▁nó ,
▁cl ass
▁p leas
▁kh ẩu
▁st at
▁d ần
▁gi à
▁c ard
ậ n.
▁m ã
▁g ã
▁y ên
▁e vent
▁a p
▁l ệnh
▁p ick
▁Ch ắc
▁Đ ại
0 ,
▁n ửa
▁here ?
▁con .
▁R em
il i
▁bo x
ộ c
▁quest ion
▁A pp
ure d
▁t ôn
▁up ,
▁des ign
▁ch ữa
▁cl ose
▁re d
▁Đ i
▁G r
▁đâu ?
▁kh ủng
if e
l ish
▁b od
▁Americ an
▁C o
▁inter n
▁p ap
▁sớ m
▁c ư
▁know .
▁es p
ra z
▁Joh n
in e,
in s
▁N à
▁app ear
ir on
av i
s e,
▁le av
c le
u nd
er v
▁man .
▁govern ment
▁" S
ou ble
ù a
▁grou p
▁B ọn
in al
▁s ổ
ri ed
▁c op
as k
▁inf ect
▁đây ?
▁ex erc
i êu
▁ ước
is m
▁chỉ nh
c om
▁m ơ
▁pre vent
▁ =
it .
▁b en
▁we 've
ot e
▁" N
▁D ù
▁biết .
ad .
▁be aut
▁You 'll
▁co ver
▁say ing
▁ser v
w ork
▁se x
▁br other
▁r ăng
▁nu ôi
▁se ver
at .
▁" A
▁s ay,
ru g
▁w ond
▁to án
▁P ro
▁p ict
▁con st
▁are a
pt om
▁d ưỡng
▁d ry
▁st ore
▁al ong
▁p arent
▁mới .
▁b ại
▁ins ide
▁H ere
▁biết ,
ire d
▁prog ram
▁m ời
▁ex c
▁pub lic
▁Ch a
▁ Á
▁t ạp
▁th ận
▁de v
▁am ount
▁v e
er al
▁o cc
act er
â ng
▁đ a
▁ta i
▁nhé .
▁J o
▁day s
▁cre ate
▁d ừng
▁an im
i e.
ề n.
▁pro per
▁inv est
▁đ ột
▁l and
▁B ởi
▁đi ên
▁st e
th er
▁l ông
▁h on
▁E ven
▁Th ank
▁happen ed
▁em ail
ap s
▁Đ úng
ọ t
▁p ract
▁W ill
▁per cent
▁inform ation
▁esp ecially
▁go .
ic .
▁hu ỷ
▁U S
▁ Ừ
▁nh ật
ng th
▁l ow
▁beh ind
▁t ụ
▁n ặng
▁re ach
re w
▁kh ai
▁dự a
l ine
ớ t
▁Ng o
▁te am
▁Th ực
▁w anna
▁ng ôn
▁kill ed
▁n orm
▁k ính
▁V âng,
▁thị t
▁v ar
▁person al
i vers
▁p ar
▁cậu .
▁con vers
▁t ắc
▁M ặc
▁st uff
▁t on
▁R ồi
▁gi ây
▁s ent
▁g ave
▁us ually
▁s ẻ
et h
▁N ên
▁t ouch
▁h ấp
▁ho pe
▁How ever,
re nt
▁oth ers
▁spec ial
▁Phải ,
▁people .
▁tho ải
▁h ẹn
▁them ,
▁sym ptom
▁R o
▁t ù
▁want s
as .
▁mù i
▁s ens
▁c ou
▁k em
▁g am
▁th ảo
▁B ắc
▁c ốc
▁r ather
i e,
? "
▁ph ot
▁t ỏ
▁t ải
▁th ụ
▁h ous
▁19 9
▁Đ ông
▁l ab
▁đầu .
▁right .
ĩ a
▁Đ ức
th ing.
▁c ir
▁tu ỳ
▁tr ắng
▁cont act
▁1 1
or row
▁nhau ,
▁t ận
▁de ath
▁know n
▁đ ích
▁ch âu
▁ok ay?
▁m ạch
pp ing
b b
▁ z
n ow
is .
▁lo ạn
▁acc ount
▁n ay,
▁Y ork
▁ask ed
▁ent ire
▁world .
▁đu ổi
▁f av
▁In st
▁wom an
▁mom ent
e ng
▁d u
▁fr ont
▁there ,
▁b i
▁sl ow
▁tí n
▁t ĩnh
▁hand s
▁bl ack
r oss
▁th ai
▁s we
us ,
▁tr ao
▁C ar
▁ph ổ
▁Chin ese
▁L à
▁al most
▁th ắng
▁sa ve
▁partic ular
▁ +
wh ere
▁ch iều
▁Ch r
ch .
▁sống .
▁mù a
▁p ull
▁m ag
▁l í
▁h át
ag es
▁beh avi
▁t úi
▁Th ay
ri es
▁An y
▁get s
▁A d
▁hom e.
▁H ai
▁nước .
▁tr u
o k
▁s ửa
ter .
anc e,
▁A f
▁th ả
▁b ổ
▁you 'd
uyệ n.
▁en erg
▁d ối
▁tr ộ
▁b om
▁ph one
ent ial
▁ret urn
▁ est
▁kh ắc
▁any one
▁resp ons
, "
it amin
ứ t
▁ ạ
▁lên .
▁d õi
▁d rug
▁On ce
▁2 5
▁got ta
▁imp ro
▁t ầm
▁" H
▁lang u
▁sim p
▁ch im
▁ch ồng
in ed
▁nh u
▁l a
▁than k
▁inv ol
▁qu ite
▁count ry
▁t ấm
t s
▁ ống
▁exact ly
ó p
▁C ông
▁đ ăng
▁đ ám
▁s ort
▁v o
▁g óc
▁E n
▁U .
▁ne cess
▁G ood
▁ph ong
m m
▁c ost
▁m il
ười )
▁" M
' .
▁đ ảo
▁m ừng
if y
▁say s
▁V iệt
▁w indow
▁T ây
▁We 'll
iv id
▁s ix
▁gi ỏi
▁co ld
▁every one
▁te xt
able .
▁t iện
▁th ập
▁k í
▁to ward
el s
▁sh ot
▁c ường
▁được ,
▁L u
▁nói .
i qu
▁c ool
at or
▁P et
▁rep ort
▁J ack
b ers
▁b ầu
▁com fort
▁b ed
▁hour s
▁d ay,
▁ng ược
▁G e
▁let 's
▁miệ ng
ight ,
▁h ứng
▁ch ạm
▁h ắn.
▁B a
▁mill ion
▁sever al
r al
▁ ẩn
▁is .
▁Ch ính
▁w ish
id ed
▁is su
▁V iet
▁him ,
▁r ob
▁W as
▁tr ọng.
▁ng ắn
us .
▁so on
▁In tern
▁d ri
▁well .
▁spec ific
▁ À
▁n ay.
▁d est
▁l ái
▁C omm
ation s.
▁học .
itt ing
è m
▁w arm
il t
▁nhiều .
▁year s.
er 's
▁kh ởi
el ,
▁T ừ
▁t ắm
▁b urn
▁t ả
▁ab s
ut e
c ri
e v
▁họ ,
ro om
▁kh ắp
▁thể ,
▁l im
▁ch ảy
▁ch ặn
▁re ady
▁we 'll
▁" B
▁c ận
▁t ỉnh
▁c ầm
▁d ang
▁gi ấc
▁prof ess
▁nh ắn
g ar
i ate
u .
▁B ar
▁f at
▁rem ain
▁th ăm
▁th ừa
▁b ột
re m
▁M ình
▁st ory
▁You 've
▁met h
▁Look ,
ort un
▁B y
▁sp r
▁ni ềm
if ul
▁l y
▁f ire
▁chuy ến
▁d òng
▁kh áng
▁this ?
▁Viet nam
▁lar ge
▁T ell
▁L o
▁The o
ra ph
▁way s
▁d ream
▁đâu ,
▁like ,
ri end
▁cl oth
▁well ,
c l
▁t ây
iet y
▁ha ng
▁Ch ị
▁Nh iều
▁ty pe
v ious
▁( 1
▁t ốc
▁out ,
j or
▁th ù
re ad
is ion
▁att ack
▁l inh
▁gi ận
▁A b
▁A v
▁look s
▁o per
▁cl ick
▁Nà y,
▁t ái
▁nh ảy
▁tr ận
▁rem ove
h ?
▁r ơi
am m
▁aw ay.
▁c ase
▁ng ừng
▁giờ .
▁s ong
▁nhất ,
▁work .
▁ ơi
▁h uống
s y
▁m ot
▁su n
▁outs ide
▁rec ord
▁Fr ank
▁nhỉ ?
▁s end
▁f ail
▁( A
ra id
▁e ff
▁T w
▁off ic
▁d ark
▁to m
ir m
▁pres ent
▁pos itive
▁techn olog
▁to .
▁chu ột
▁p ow
▁qu ái
ic ,
ir r
▁v ẽ
og n
▁ey es
▁mi ễn
▁en v
▁wat er.
▁a f
is on
ị p
▁s on
▁ac ross
▁thôi ,
t o
▁do ,
▁l ỗ
er ed
▁d ính
▁S u
id es
um b
on es
▁th ing.
▁b ill
▁k ey
▁ch ance
▁ph óng
uố n.
y d
▁n ice
▁Ch uyện
▁tho ả
▁r ad
▁ey e
▁tr ứng
▁g ame
▁lỗi ,
▁ch ụp
▁tr ụ
▁này ?
▁go es
▁ấy ,
▁ ấm
▁ma ch
▁trước ,
▁ind ivid
▁c ứng
▁h uy
▁kh uy
an e
▁giới .
▁comp an
▁C ứ
▁1 7
and s
▁g round
▁T ổng
▁độ ng.
▁n on
▁d rop
▁wh ite
▁Ng ài
▁m ềm
▁l ửa
gg est
i ence
▁rằng ,
▁sp end
▁w in
▁nà ng
▁ser ious
▁tuy ến
▁st ress
▁thu ận
▁long er
▁n iệm
▁w ay,
ot s
▁bas ed
▁nat ural
▁ph án
▁yourself .
▁fo ot
▁m uốn.
▁F l
▁a ffect
▁W est
▁G ive
enc e,
▁ta ken
▁l ao
▁P ut
▁su ff
▁incre as
a f
▁m ilit
▁gi ven
▁e ither
im m
▁imm ed
▁ng ón
▁Tr ánh
▁together .
▁hur t
ẳ n
▁m ist
▁g un
▁p ost
▁gu ess
▁loc al
▁rồi ?
pl oy
▁en j
▁vi êm
▁s qu
ou s.
▁tr ốn
un ch
▁học ,
▁experi ence
▁w all
uố ng.
▁sing le
▁ob ject
▁đ áp
▁kh ối
▁for g
sel ves
▁St ates
▁U. S.
▁st ate
▁part ner
▁tr ăm
▁su ggest
▁E l
▁n ổ
▁và ng
ent al
el t
▁we ight
▁s ữa
▁S ẽ
▁Tr ước
▁4 0
▁C ách
▁med ical
p or
▁hỗ n
▁s our
▁C ảm
▁af raid
▁C om
▁th ưởng
▁C ol
▁ ill
▁v iew
▁gi àu
▁re se
▁includ ing
▁t ồi
▁l ine
▁com b
anc es
as ,
▁S omet
b ook
▁ ident
▁k im
▁cou ple
▁s ense
▁to w
▁Nh ìn
ep t
▁individ ual
▁l ose
ag e,
▁know s
▁2 4
ive ,
▁perf ect
▁c ấu
ter s
▁Ừ ,
u es
▁x ương
▁se lect
▁fin ish
▁We 've
▁gi ai
▁Và o
▁mo v
▁beaut iful
▁pro ject
▁mũ i
i od
▁t end
at ure
▁ma i
rou ght
idd le
▁l ối
▁B ác
▁l ĩnh
▁Ngo ài
▁st ra
▁t ẩy
▁đ en
▁m ass
▁d ậy
ad ,
▁chứ .
▁tế ,
▁19 8
f ull
v iew
▁m át
▁m uối
oo g
▁1 6
▁(C ười)
o int
▁f ur
▁supp osed
▁h it
▁C ũng
▁Ch ẳng
all y.
m ore
▁ng ạc
▁u r
all eng
▁dis e
▁thường .
▁t ường
▁ng ại
▁ch ậm
is ,
▁as king
▁thân .
enc es
▁rese arch
▁app ly
▁inf l
▁opp ortun
b o
▁t ỉ
▁all .
▁polit ical
▁h ài
▁ngà y,
▁ ép
▁g ốc
a 's
▁pre p
▁reg ular
it or
▁sh are
▁Wh ile
▁wor th
ate g
▁pat ient
▁d iệt
e. ..
ur ity
▁th ơ
▁su ng
and .
▁redu ce
▁neg ative
g n
▁cir c
▁b ạo
▁S outh
ud d
▁đo àn
a im
▁b ạc
▁li ving
▁eas y
y m
▁t err
▁hết .
▁wr ite
▁g ắn
▁S am
▁do ạ
f riend
o on
▁l ầm
▁M ỗi
▁t ầ
▁T V
▁ho àng
▁n út
▁L iên
▁h ung
▁do ll
▁Ch ọn
▁su per
p .
▁so ft
▁bott om
▁H is
▁Con s
s on
ant s
▁R ất
▁việc .
▁s ân
un k
▁ Ồ
▁f ile
▁L úc
l er
▁t ộc
▁th ách
▁E ng
▁env iron
ắ ng.
▁ng ân
▁ph ức
▁are .
▁ac cept
▁per iod
▁complet ely
y 's
▁nh ấp
▁fl o
▁night .
▁n't .
▁sm o
▁t ắt
at ic
a king
at ely
▁ph ận
▁ Â
▁v itamin
▁nh ằm
▁1 4
▁re ce
▁Ng ay
▁B ộ
▁Pe ople
▁h ứa
▁ [
▁Nh ật
▁F ind
▁meth od
id ence
▁simp ly
▁enj oy
er ial
▁r út
▁ho ạ
▁tell ing
▁cur rent
le v
▁d ai
▁res pect
▁fig ure
▁suc cess
▁ng ành
▁pl ace.
enc y
▁khu ẩn
▁answ er
▁ma jor
▁bec om
▁ac cess
▁ben ef
▁th ẻ
▁l ay
▁f ast
ment ,
▁en c
▁t iệc
▁s iêu
▁b ày
▁happ y
▁t ỷ
▁đ ự
▁l ũ
▁P ol
▁b rought
▁l ưng
▁f ing
▁se arch
p r
▁ Ấ
▁c orn
▁ch alleng
▁cour se
▁sir .
▁n ắm
▁đ òi
ore d
▁pri v
▁b ật
▁ch óng
▁( t
▁O K
▁ear ly
▁b ur
▁C al
▁L ike
▁Chr ist
▁l os
▁tr ại
▁ext ra
▁sh all
▁thu ỷ
h aps
v es.
▁c up
▁gi ường
i -
▁s n
▁m iếng
▁c ult
▁se ll
▁att ention
▁ch ối
ap e
▁av ail
▁l ược
▁for get
ing ?
▁what ever
▁phys ical
▁b ag
▁(T iếng
▁to t
▁1 3
▁nhân .
▁Ng ày
▁somet hing.
▁ ẩm
▁tr uy
▁re act
▁perf orm
▁h ương
▁f ield
▁j ud
▁r ắc
ch es
▁đó ?
▁J am
▁năm .
z e
▁n et
▁fut ure
▁l it
▁qu a.
id e,
ir th
▁kid s
▁t ờ
▁h us
il ar
▁expl ain
▁v ỡ
▁có .
▁n iên
ar th
ard .
▁people ,
▁l ower
▁ ăn.
▁m ụ
▁quá .
▁lớ n.
▁wond er
▁c oun
ou l
at e,
▁ta kes
▁À ,
u ,
i ot
▁ ấn
▁tr ied
▁M ost
▁cho ose
▁Av oid
▁r out
▁S ử
▁P er
▁follow ing
▁ ủng
▁m ẽ
▁ch ặt
ad d
▁pol ic
▁n o,
▁n orth
▁r ul
▁fav or
▁ch uyện.
▁p lease
▁nh ấn
▁gi ving
a ul
is ed
▁ng ực
▁sp ace
▁đế n.
▁tr ầm
▁m ôn
▁Th ôi
▁me as
▁Đ ã
▁econom ic
▁b all
ter ,
▁E u
ag n
▁U h,
▁sec ret
a ult
p ort
▁saf e
▁ph ẫu
▁fe ar
▁h ẳn
▁l ẫn
▁tom orrow
▁tr à
▁T ên
▁st ick
end ed
▁cond ition
▁kh uyên
▁off .
▁somet imes
▁good .
▁tầ ng
▁t á
▁G oog
u a
▁m ult
▁d ương
▁lên ,
ie ce
▁gh ét
▁t uyên
▁M ac
▁đi !
▁O f
▁energ y
▁Đ ưa
▁thu ê
▁Ấ n
ie ve
▁any more
▁Ge or
▁sao ,
ar y.
▁thật .
b or
▁n é
ag ed
▁health y
▁N e
▁M ich
op h
▁m ur
▁th ao
▁gi ãn
▁c ẩn
ou d
b y
er ve
▁y et
▁it self
▁E d
▁ex ist
▁phút .
▁det erm
▁c ity
▁N ăm
▁qu al
▁Đ ộ
▁need ed
▁tới .
▁prot ein
lo ad
▁m ê
▁incre ase
▁M iss
▁O ur
▁fe ed
▁him ?
▁sho ot
▁l ễ
ra p
▁Ng ươi
▁cười )
▁C ố
ant .
▁build ing
▁us ,
▁sau .
▁add ition
▁mat erial
c e.
er ?
ar r
▁run ning
▁effect ive
▁a uth
▁b le
▁t ay.
▁s at
iv es
▁add ress
▁cour se,
▁ho p
s. ..
▁f ill
▁seem s
▁mark et
▁chiế m
▁n âng
at ch
▁ch em
▁tr ouble
▁H ay
▁tod ay
a ?
at s
is c
▁j our
▁fact ,
▁stre ngth
▁c y
▁A dd
id .
▁th reat
▁gian .
▁th ous
▁ng ốc
▁hus b
▁we ar
ệ t
▁th ẩm
▁đ ào
▁v ict
▁ch ào
▁T ập
▁i P
▁th í
▁s ister
um e
▁ông ,
▁conc ern
p ris
▁a ut
ow s
▁sim ple
▁ơi ,
▁milit ary
▁ ess
▁d ig
▁d in
▁ra u
▁pos ition
▁phi ền
▁comput er
▁Ồ ,
et ic
ro ll
▁can c
▁kh ích
▁T u
▁khi ển
ne y
▁minut es.
▁appro ach
▁n ợ
▁b iện
▁h i
el y.
▁sm ell
▁bố n
▁rec ogn
▁"T h
sy ch
▁st o
▁lif e,
▁b ảng
▁em ,
▁month s
▁J ap
▁feel ings
om er
▁treat ment
▁th ói
▁w ife
if f
▁cent ur
▁bab y
t ed
▁l an
▁S ec
▁year s,
▁p ack
▁tr ad
▁H er
ro g
g e.
k y
ậ y,
▁d raw
iz ation
▁19 7
▁lu ck
▁r id
▁S ar
ion s,
am .
▁Đ ối
ie f
ò ng.
th ough
▁P res
▁ag o.
▁comp any
▁tr úc
ac y
▁rel ax
▁dat a
▁k ia.
▁kh ứ
▁cả n
▁h ã
▁f ix
▁f ish
▁gi ày
▁col or
▁symptom s
▁immed iat
▁c ưới
▁đ ốt
▁b irth
▁bl ock
▁gl ob
▁đự ng
▁đ ùa
▁ch ả
▁L ist
▁" D
▁Do es
▁Ho ặc
é o
▁c amp
ưở ng.
▁Cl ick
p os
▁quest ions
et t
▁go al
▁di e
▁tod ay.
▁dang er
▁k ẹ
▁M an
▁ed uc
▁tr ue
le ment
▁impro ve
n y
▁t án
▁n ông
▁p iece
▁Nh ấp
▁him self
▁c ỡ
res h
▁sur v
▁M a
▁tiế c
ì a
▁tr ồng
▁cl aim
▁sk ill
▁a ff
▁thing s.
▁Nh à
▁Af ric
▁t an
erm an
▁c ài
▁s us
ro du
b it
▁gr and
▁v ốn
er a
iz ing
▁As k
▁s ốt
▁n ut
▁s il
▁C ả
▁bec ame
▁nhỏ .
▁R ep
▁đầu ,
un e
uộ n
pt ion
▁ther ap
▁grow th
▁th ird
▁Th ứ
od e
▁thường ,
▁ph ó
▁W indow
c oh
▁l iệt
▁sur f
▁khuy ến
▁g óp
▁ab ove
▁tem per
A N
▁b ề
▁v ải
▁M in
▁Đ ặt
▁so ld
c ing
▁tr ack
▁re pl
▁ap art
coh ol
▁off er
▁rec omm
▁t ạm
▁B ill
▁m ãi
▁ob s
▁gi ọng
▁mo ving
r ict
▁do or
▁D av
▁sh ip
▁" t
um ent
▁Ph áp
e al
▁b ắc
▁s ăn
▁b ả
▁m ic
▁l ính
▁ta b
ul ation
▁nhà ,
▁help .
▁p ort
▁tr ave
▁f ell
▁M c
▁st ri
▁sao .
f orm
▁kh ổ
▁Đ ến
▁wor ry
▁dr ive
▁turn ed
▁prov ide
▁đ èn
▁gi ám
▁G en
▁nước ,
p ar
▁th ầy
▁X em
▁c ú
▁g ấp
▁u ng
ist ic
▁any thing.
▁cr it
▁h uyết
▁Kh o
i am
▁b ath
▁di v
▁gh ế
▁ổ ng
▁toà n.
▁avail able
k h
▁S m
▁thích .
▁disc uss
▁parent s
▁look ed
▁đ ĩa
▁exp ress
▁c raz
im ate
▁car b
▁hist or
c z
▁b al
▁ngoài .
▁tôi ?
▁nh óc
▁W ould
ent le
▁E arth
▁es c
▁co ff
▁aw are
s ter
re st
▁L ần
▁work s
▁"T he
▁xo á
▁ng ay.
▁qu án
▁vào .
▁again ,
▁n ỗ
▁a ch
▁Đ ôi
▁6 0
▁g one
▁there ?
▁commun ic
ị t
▁v ỏ
▁do ?
if ied
▁m iddle
ir t
▁ar g
▁coll ect
1 ,
d om
▁th iệu
▁m óng
▁ph iếu
▁p sych
▁A g
▁ta p
▁gr ad
f or
u ally,
▁B ản
pp er
ù i
▁k ịch
▁it em
▁not ice
▁was h
▁count ries
ou b
▁p et
ed d
▁C ap
▁an n
▁fe et
▁bé o
pp l
▁su ất
▁play ing
z z
▁c ook
▁M any
res s.
▁Inst ead
d ay
▁đ ậu
▁s ick
▁for ward
▁de g
▁khu ôn
▁Rem ember
▁pap er
▁"C h
▁press ure
▁b iên
▁down ,
▁eff ort
▁Th ử
▁M e
▁P ar
▁her ,
á n.
▁n inh
▁h ò
at ,
▁nh àng
ướ p
▁some body
he ad
▁pres ident
▁occ ur
▁S et
▁Tr ái
c ome
▁T om
▁ho sp
▁web s
▁Goog le
x y
▁l ate
▁to ol
▁ng uyện
▁li ves
▁R uss
▁em ploy
▁hu nd
▁situ ation
▁stra ight
▁e gg
ast ic
▁hund red
▁k m
▁G u
▁F ace
▁th ang
▁h or
▁ne igh
▁al one
▁ad min
▁disc over
2 ,
▁t ách
▁th a
▁r ich
od es
▁more .
ud e
▁tính .
▁b inh
▁mà ,
▁pict ure
▁t áo
in a
▁St art
ord ing
▁stud y
▁hy d
▁sor ry
▁ ưu
ic king
un t
ủ i
▁b ò
▁W or
▁fr u
▁help s
▁det ail
▁u h,
▁( V
▁problem s
g est
▁Th ink
▁x ứng
▁dụ ng.
▁gi ấu
▁s ếp
el y,
. 000
▁b ank
ar ,
ver .
▁exerc is
N A
▁C am
▁đ ằng
▁b ird
▁mất .
▁Dr .
▁m ắn
▁S ee
ber t
▁M on
▁hu h?
▁word s
▁in ,
▁vi ol
ol ut
ist .
▁wait ing
▁s óng
▁l ương
▁ng àn
▁F irst
▁sp read
▁th ải
▁m ại
▁tr i
ớ p
in ation
re c
im ent
▁mới ,
▁c it
▁h ảo
▁ph iên
▁B en
▁T ốt
hip ,
▁poss ib
ô n.
▁on es
▁now ?
m a
▁qu a,
og raph
▁sim ilar
▁or ig
▁su mm
▁cùng ,
▁norm al
▁kh ảo
or ies
th e
▁1 ,
▁ ice
▁c ỏ
▁c ust
▁v ill
▁v ol
▁p u
▁before .
▁m outh
▁k e
▁ng ựa
▁up s
▁ag o,
▁a ud
▁an x
▁rem ind
▁dest ro
full y
E D
▁m ảnh
it ion.
▁f und
▁M art
▁ngh ề
▁hợp .
▁work ed
▁Was hing
on y
▁sec urity
p en
il .
▁auth or
o ld
p ut
u e.
▁m ix
▁tế .
▁h ùng
▁h ào
▁ng on
▁A ng
▁H y
▁lo ck
▁comp et
▁am ong
▁hous e.
▁Pres ident
▁T e
am a
▁better .
▁ ác
▁đ ạn
▁h iển
ou s,
▁to wn
▁ho ảng
oo f
▁sc ient
▁world ,
▁resp ond
▁(A ppl
▁b ớt
em pt
▁P art
▁work ,
▁lần .
▁comfort able
▁who 's
▁năm ,
▁mus ic
▁h ải
▁al cohol
2 0
▁l ọc
▁f ly
▁N orth
▁định .
▁de b
her e.
▁tin .
▁mone y.
▁t àn
▁k êu
oc i
▁hình .
▁week s
▁n ắng
▁m ì
▁cr oss
▁(Appl ause
' ,
es s.
▁A ct
▁j u
▁part y
▁nhiên .
▁are as
i j
▁ch ấm
id ing
▁sp ot
▁đúng .
▁S ch
▁" L
▁rep res
▁t ar
▁th ảm
▁b ông
▁ch áy
▁lo g
▁bụ ng
ch ,
▁chiế u
▁Cons ider
▁f elt
▁gi ặt
9 ,
▁th ước
▁" c
▁sĩ .
▁ ám
▁b ẩn
es ter
▁hội .
▁Mỹ .
▁requ ire
▁A lex
▁eas ier
▁lat er
▁ch ai
▁Ch âu
▁see ing
▁ext rem
▁rob ot
▁b acter
ra ft
itt en
▁anim al
▁ng ang
▁r ock
▁x uống.
▁lo ved
▁el se.
a id
▁do ct
▁happ ens
▁biệt .
▁swe et
▁g ợi
▁d ạ
at er
▁giới ,
▁19 6
c ul
w ood
▁d ao
▁f resh
▁dep ress
▁Face book
2 .
▁n ấu
▁b ơ
▁tr ống
ow ,
▁pol ice
▁behavi or
" ?
▁t ốn
▁th row
▁h ồn
▁d ọn
8 ,
▁t ask
▁dis app
▁tiên ,
▁cons um
▁food s
▁đ ập
▁p ush
▁e ating
▁ag re
▁(Applause )
w are
it ions
ol ution
▁động ,
ưỡ i
▁on to
▁W al
▁or d
▁pre fer
▁quả .
l es.
r ation
v ere
▁f air
▁ph ối
ap t
▁net work
▁ph a
▁em erg
▁rồi !
▁ti ềm
▁s ót
▁be .
▁( c
▁car ry
▁contin ue
▁husb and
▁b ow
▁qu à
▁em b
▁bu ilt
▁lắm ,
ụ ng
it ut
▁B ình
▁Ch à
▁" b
▁str ateg
▁ ư
▁v ers
▁on e,
▁P aul
▁m is
r ain
▁pre gn
▁dead .
▁convers ation
▁c ong
▁Ch arl
▁Tr ên
▁ti êm
▁ngủ .
▁s ợi
▁W ait
▁làm ,
▁O l
▁fl u
▁qu ang
▁on line
▁đó n
▁họ p
▁not .
▁high er
o ll
▁c e
▁K inh
▁def in
▁possible .
▁ irr
▁F in
▁ng ừa
▁x âm
ườ n
▁tốt ,
▁imag ine
▁đ ức
▁g reen
▁" P
▁wr iting
ful .
k .
▁in j
▁B ất
am ,
▁cat ch
▁s áu
▁g ain
▁d aughter
▁o w
it ,
▁H ôm
▁am az
▁day s.
▁sur pris
nes s.
▁ho ang
▁we ap
▁đổi .
▁China 's
▁bod y.
l in
▁ch à
b all
▁b ơi
▁f u
▁Th ông
▁we ak
▁" O
▁h ổ
▁B u
▁G l
▁ind ust
▁w ound
▁d y
▁thứ .
▁back ,
▁pre d
▁tuần .
▁hon est
c e,
le y
▁L a
▁se ven
▁me ant
▁O b
▁sub ject
▁fur ther
▁mur der
▁ne ck
▁se e,
▁Jap an
c rib
h i
i ber
▁th uyền
▁di ed
6 ,
▁man ag
▁fl ow
▁chang es
▁b ếp
▁m ọc
▁K im
5 ,
▁J e
▁l ừa
▁v er
▁Th ái
▁1 .
▁mặt .
▁thương .
g .
▁ta ble
ent ,
▁li ều
▁K ing
▁ab ility
▁l ưới
▁C âu
▁tay )
▁first .
▁room .
▁glob al
r ing
▁C a
▁H ầu
▁att ract
▁đe o
i or
▁M or
▁V o
▁cô ,
▁di et
▁lớn ,
▁langu age
▁t er
▁in n
▁Th u
▁he at
▁about .
▁kh óc
▁qu ảng
▁" Y
▁friend .
▁ve get
h ood
▁d a.
▁d ue
▁interest ed
i ec
es tern
▁ai .
▁"T ôi
▁God ,
▁vir us
▁dise as
▁all ,
▁sau ,
ip le
ru pt
5 0
k e.
▁g ỡ
▁tr òn
▁M à
▁M al
ai re
▁dai ly
▁s ông
▁b orn
▁d ày
▁d ress
ent y
▁con ,
▁hist ory
b er.
▁tr ấn
an ian
▁B an
ướ t
▁oth er.
▁ag e
▁ad m
▁dec ided
▁t en
▁ch ép
▁S w
im in
▁U nder
▁then ,
c .
▁g entle
▁proble m.
▁lead ers
▁vict im
r os
is hing
▁sh ut
ard s
▁sống ,
▁b ận
en ing
▁for ce
▁anymore .
▁ 0
▁x à
▁start ing
▁keep ing
S A
l es,
▁he av
▁2 ,
▁nhé ?
▁exerc ise
▁l ặp
iv il
▁meet ing
▁Window s
▁n ướng
▁g à
▁D an
ak es
▁v ĩ
iv ed
▁po or
▁chút .
i ans
m i
▁st ru
▁al one.
ak e.
▁learn ed
x im
▁v ac
▁r ub
ed u
▁S im
▁go ,
s ure
▁ph ạt
▁e ight
▁se par
▁eas ily
led ge
▁gener al
▁p ath
▁Ch eck
ard ,
▁b ó
▁h à
▁p ill
▁Con t
▁chem ical
▁S y
▁sk in.
▁mụ n
as on
▁B ắt
▁V ậy,
▁Intern et
r ay
▁d om
▁Đ ầu
▁ca pt
▁int ell
▁pre c
▁fo ld
▁ind ic
▁c ướp
▁h ate
▁ta x
▁O pen
▁công .
▁much .
▁C uộc
▁real ize
▁gl ass
▁toward s
g e,
▁ 's
▁a x
al y
▁V ề
▁chúng ,
▁res our
▁Mỹ ,
▁Mich a
r om
▁h one
▁f ace.
▁I m
id ,
▁over .
▁year .
▁d ám
▁K iểm
▁Wh ich
▁sign ific
▁lau gh
▁Wor ld
at ed.
en e
3 ,
b ur
▁v ững
▁up on
▁main tain
▁o ng
▁nhân ,
▁part n
▁"W h
5 .
▁S ince
▁family .
7 ,
▁ ...
▁s itting
▁D on
▁St e
▁nhỏ ,
▁breat h
k ,
s c
▁đ iệp
ig g
▁att empt
▁coll e
▁fre qu
▁quick ly
▁Eu ro
▁H ội
▁go ld
ces s.
▁mess age
▁t ủ
▁h àm
▁m ệt
▁d ad
ed om
▁h arm
▁ch ừng
▁2 .
▁bu ll
▁Ph i
▁un c
▁person .
▁hu ấn
▁examp le
▁tar get
▁M ấy
▁trọng ,
ẩ n.
▁ ic
▁w alking
▁st ar
▁ex am
▁man ,
▁un ivers
▁yêu .
▁Gi ữ
▁h iện.
▁l ink
▁k èm
▁so d
▁việc ,
▁set ting
▁watch ing
▁leav ing
▁g ối
ant ,
▁Nh ớ
▁they 'll
▁2 1
▁sor ry,
▁tụ i
▁re fer
▁" Đ
▁val ue
▁profess ional
- 1
i res
▁n ở
▁là ng
▁so ,
▁them selves
▁h ư
▁h ít
▁y ell
▁f em
ver t
▁did .
ines s.
p ir
▁p in
▁cao .
▁pot ential
▁destro y
▁ ing
▁th iểu
▁h ãi
▁d inh
▁R es
▁wat er,
▁grow ing
▁non -
▁environ ment
z cz
▁đ ài
▁do c
▁thấy .
▁put ting
▁n ational
es ?
▁S or
▁con v
iể n.
▁( v
▁sp o
▁other s.
▁mạnh .
f l
▁c ột
▁th ờ
at ter
▁job .
ộ p
▁M ở
▁lã ng
▁9 0
▁bụ i
▁c ờ
▁s ize
▁gi ves
▁M ary
▁part s
ili pp
▁r ác
▁t úc
▁c ưng
▁m ad
ar c
if t
▁ư ?
re l
▁B ảo
▁trị .
▁19 4
▁cal m
▁l ò
▁ho st
b od
▁ et
▁đ ống
ar ily
▁Th ose
▁M ed
▁sm art
▁ké m
▁T iếp
▁Th ưa
▁every body
▁Fr om
s ue
▁g ương
▁ng ọn
▁" m
▁nh ịp
as s.
rop ri
▁product s
le ar
▁lã o
▁bas ic
▁direct ly
▁admin ist
▁đ ảng
ow .
▁re v
▁mod el
▁n úi
▁tr ữ
▁su gar
▁new s
▁dr inking
▁8 0
g ing
▁ch án
▁nh ầm
ar y,
▁Ph ilipp
a us
ầ m.
▁ ức
▁c ry
▁ti ền.
▁inter act
▁set t
▁jo in
▁through out
▁girl s
▁caus ed
min a
a ff
▁thì a
▁mar ri
D .
▁St at
l ight
r ate
ã ng
▁t ast
▁b ắp
▁gi ó
▁st ruct
▁want .
ea king
▁beg an
▁ ảo
et er
ation s,
▁inst all
▁ent er
▁kí n
▁Euro pe
▁c ặp
ens ive
▁night ,
▁week .
▁ạ .
e b
▁ .
▁ 't
▁c ục
▁kh ung
▁we aring
▁Nh ân
▁đ ốc
▁1 /
▁tu ý
▁en em
▁bl ue
▁d ate
▁st om
ac king
▁đề .
▁dec is
▁ear th
▁đ iệu
▁I r
▁r ừng
▁me !
▁creat ed
▁ph ỏng
S E
▁tr uth
▁it !
▁R a
▁thì ,
▁ob vious
▁experi enc
▁pur ch
▁intern ational
▁qu iet
▁x e.
▁L ond
▁phải .
▁thought s
▁mean ing
▁g ra
▁d ặ
▁d ường
▁L iệu
▁' c
▁typ es
iệ m.
ượ ng.
▁J an
▁plac es
▁repres ent
▁m ộ
it e.
▁nghĩ ,
▁sp ent
▁à .
▁fil m
▁Â u
▁k iss
▁w if
▁C uối
▁A c
▁re leas
▁su dd
▁R om
▁Quốc ,
▁acc om
▁On ly
▁Tw o
▁đ ương
▁to ,
▁P lease
ab ility
▁chú a
▁s ánh
▁d án
▁S ir
▁D NA
▁are ,
▁R ight
▁chết ,
▁mo ist
▁vu a
▁c red
▁S er
▁interest ing
▁ev idence
▁c ãi
▁b and
al ing
▁re pe
able ,
▁power ful
▁dị u
▁offic ial
▁favor ite
y ond
▁b ãi
▁l ỏng
▁d one.
▁f arm
ce ed
▁sp ir
▁lý .
▁fin ally
▁comp lex
▁hand le
▁car .
▁irr it
▁đ ỉnh
▁k ept
▁B ằng
ip e
▁tuổi ,
d o
▁B o
▁G mina
iv odes
▁show s
▁nam e.
▁hom e,
▁Vo ivodes
▁gi ành
▁P omer
ag ing
▁any w
▁ac id
▁trường .
▁acc ident
▁r ound
▁C ould
▁app rec
▁mẹ .
e at
as c
▁D ep
▁chủ ng
▁ex cept
▁friend s.
▁fore ign
ri ble
▁doing ?
▁sign s
▁ngài .
▁pat tern
▁sol ution
▁C ount
▁Đ ảm
▁can .
▁j ump
est .
▁know ?
▁J im
▁feel s
▁Ô i,
▁chang ed
▁ơn ,
▁b ờ
▁h ôi
▁l ad
▁l ục
▁k i
nes s,
' em
g ed
▁c aught
▁th r
▁tr ick
▁M ark
▁quy ển
▁đường .
▁imp act
▁vời .
l ock
▁T in
▁ng ơi
▁H el
▁" G
▁" K
▁thiết .
▁vis it
▁$ 1
▁st up
▁but ton
▁bé .
▁cap ital
▁contin u
mi )
▁stom ach
▁s am
▁p iec
▁về .
▁will ing
▁à ,
▁yourself ,
▁fin anc
▁dep end
▁trộ m
▁gi ft
▁eng ine
▁enc our
▁b át
▁C ơ
▁Ch ào
▁R os
▁bl ow
▁sl ight
▁Voivodes hip,
▁Pomer anian
▁d oub
▁se ed
▁gian ,
av ing
▁Gi áo
▁hold ing
▁h è
▁in it
▁M ặt
▁" s
▁R ec
▁ý .
▁pract ice
▁opportun ity
▁C ộng
▁L ord
▁dec ide
▁learn ing
▁morn ing.
▁t ur
▁t ặng
▁n ail
▁ng ũ
▁B ob
op e
▁k ỉ
▁T ED
▁di e.
▁int rodu
▁5 00
▁trộ n
w ord
in o
▁tr ip
en ed
▁T ự
▁có ,
▁cá m
▁morn ing
f act
▁h ỏng
▁k iên
▁to r
▁W r
ab lish
▁Ng a
▁comm and
▁đẹp .
▁pleas e.
b ing
▁t ung
▁h iệp
▁you !
▁S an
ea h.
▁tuổi .
▁h ồng
ay s
il ,
▁cần .
▁pe ace
▁' T
▁minut e
rib ut
l t
▁b ọ
in ary
▁T alk
▁inc red
▁ass oci
ex ic
▁th iệp
▁b ám
▁d ro
▁A nt
▁pr im
▁around .
▁particular ly
▁c ất
▁b ồn
▁tr ích
▁how ever,
▁sc reen
▁per haps
▁rec ent
▁fre edom
▁Ch ủ
oc r
▁cùng .
▁sáng .
▁t ướng
▁c ivil
▁m ention
▁y og
▁cả ,
▁K ết
ist ,
pl es
▁lot s
▁head .
olog ical
▁pop ular
▁Lo ại
▁signific ant
▁t ay,
▁k ĩ
▁x inh
iz z
▁sinh .
▁ro ll
▁m ỡ
▁w ood
▁act ive
▁Gi ống
▁ide as
iqu e
▁g re
▁f ine
▁be yond
▁un less
j ust
▁t ươi
ic a
▁cor rect
▁m aster
▁Ch u
▁hel d
▁off ice
▁technolog y
▁priv ate
▁g ỗ
▁C ent
▁M exic
▁st y
▁R ich
▁H en
▁for .
▁li e
▁( M
▁year ,
▁đất .
▁mind .
ho ld
▁m ood
▁T ối
▁ta ?
▁ag o
▁necess ary
ẫ y
▁t ick
▁ch ậu
▁d áng
▁o xy
▁C r
▁let ter
▁Be fore
▁fun ction
▁cell s
▁ ign
▁sp ee
▁pr os
▁ow n.
▁m ember
▁lo ạt
▁wr it
▁Ho àng
▁op in
▁đời .
4 ,
▁m ồ
▁l ồ
▁T y
▁C ong
▁L ấy
▁tóc .
▁sub st
▁bill ion
▁l oss
▁ad ult
▁ar r
▁wrong .
▁trave l
▁neigh bor
ạ ng.
▁p an
▁f it
▁r an
▁theo .
▁Br it
▁spe ed
▁myself .
▁w arn
▁S l
▁nói :
▁ai ?
▁level s
▁lit er
l ict
▁Đ ất
▁call ing
▁trẻ .
▁stand ing
a ur
▁s àn
▁ch ải
le br
ain s
▁what ?
▁Qu an
▁dài .
ren ch
▁infl u
ọ n.
▁t ree
▁b ội
▁nh ẫn
▁gi a.
▁M at
▁Ph ần
▁vị .
▁s ay.
▁Th ậm
▁sh ap
▁issu es
▁jour n
r ad
▁thấy ,
▁stud ents
▁Eng lish
k s
v es,
▁ch ick
▁C arl
▁N ob
ain .
▁c ởi
▁m ỏi
▁r ủi
▁Th êm
ac e,
▁L au
▁" E
▁go d
ri ef
▁some where
▁cậu ,
▁ro le
▁dr ag
▁xo ay
▁stru gg
▁sudd en
▁m ãn
▁g as
▁e ast
▁L uc
▁val u
▁b att
se qu
▁sound s
▁n ã
▁s and
▁N ước
oo per
▁begin ning
it z
▁Th ì
▁ngh iện
ul ate
▁g ar
an a
▁T urn
il ity.
▁us ?
▁di re
▁19 5
▁caus es
▁ Ả
▁d en
▁nh ạy
▁B iết
▁can d
▁( b
▁her ?
▁en sure
▁tho a
▁train ing
▁m or
▁sc re
▁né m
▁b ase
▁and ,
▁Quốc .
b s
▁ Ổ
re g
▁be at
▁char acter
is e,
or s.
▁ph òng.
▁Ch iến
▁nhiều ,
▁ăn ,
▁app ropri
▁dam n
▁ton ight.
▁iP h
▁đ ớ
▁kh ái
▁C ám
▁qu ỷ
▁W ar
▁K now
▁thu ế
▁dec ision
▁(V ỗ
g round
▁ âu
is e.
▁sự .
▁im age
▁differ ence
▁complet e
▁g ard
al d
▁đó i
▁G erman
▁sc ared
▁hair .
▁det ect
▁opt ion
▁mem bers
▁design ed
▁Somet imes
m an.
▁m ental
▁ch ìa
▁ph ấn
▁ngh èo
▁P leas
▁O ther
▁guy .
▁Un ivers
▁school .
▁th ùng
▁A cc
ic le
▁hợp ,
itt ed
▁hàng .
▁becom es
▁so ap
▁find ing
▁X ác
▁tiên .
▁system .
▁tod ay,
▁tre o
▁temper ature
▁ *
▁th ợ
▁h ạng
▁l át
▁ro ot
▁sát .
▁dam age
▁recomm end
7 .
▁n ấm
▁a ver
▁J es
▁tho ảng
▁thuốc .
▁mi ền
▁Pl ace
▁respons ib
▁e arl
▁M om
▁K ore
iể m.
▁dis pl
▁tính ,
▁Can ad
▁cloth es
▁coun ter
e el
▁H iện
▁are a.
▁rem o
▁conf lict
▁the n.
▁L an
▁lực .
▁bel ong
n ch
ộ n
▁C ảnh
▁D ec
ro id
▁ar ch
▁hu ge
▁chí n
▁del iver
▁leav es
▁th ăng
▁h ối
▁m ực
▁kh ốn
al m
▁qu ỹ
▁Washing ton
▁s an
al ent
▁ra p
▁fin al
▁term s
▁invol ved
▁t ịch
▁m ỏ
▁L ưu
▁he 'll
▁thật ,
▁cầu .
▁corn er
▁pu pp
6 .
it ies.
▁e p
▁hai ,
▁cre am
▁đ âm
▁h iểm.
▁l ed
▁l ack
▁k il
▁w ake
▁kh ổng
is ing
▁But ,
▁xem .
▁tâm .
▁sur round
▁together ,
▁lat er.
▁mar ried
▁determ ine
▁cl ub
▁pr inc
▁hour s.
▁Se lect
▁est ablish
8 .
9 .
b ol
t t
▁with .
▁fin e.
▁produ ce
▁c m
▁k iệm
▁y et.
▁re ve
▁D el
▁biệt ,
▁sour ce
' m
c o
i ous.
▁t óm
▁K ể
▁" V
▁đây !
▁any body
▁help ing
▁3 00
▁cr is
▁7 0
▁compl ic
▁cho ice
▁E ast
▁al tern
▁lỗi .
k i
▁t ô
▁tôi !
▁x ịt
▁cl ot
▁pr ison
▁kill ing
▁ide a.
olog y
▁girl .
▁allow ed
▁commun ity
▁hosp ital
▁H u
▁is land
os ter
▁P ark
▁mo ved
▁stor y.
▁meas ure
▁k ing
▁not ,
▁As s
▁effect s
i er.
▁an c
▁sw itch
▁emot ional
▁cust om
3 .
g es
▁l ẻ
▁v ườn
▁f ault
ed ?
▁F o
▁thân ,
▁turn s
▁c u
▁n uc
at o
it es
▁I I
▁H ơn
▁cao ,
▁rel ig
▁Al though
▁Mr s.
▁cour t
▁tot al
▁ ố
▁s ide.
re n.
▁Th ời
▁sp eaking
▁every thing.
▁gl ad
▁fut ure.
▁App ly
▁Here 's
▁compan ies
p ose
▁m ệnh
ar ian
▁in vent
▁B ên
el come
▁anh ?
▁immediat ely
▁ce lebr
c ious
i us
l et
▁c anh
▁nh ãn
▁tại .
▁good ,
▁read ing
▁đêm .
▁thous ands
▁coff ee
s ing
ad es
if orn
▁her o
▁ca i
ep end
▁Ph ương
▁yêu ,
▁talk ed
▁nam ed
▁cit iz
▁N ever
▁H ình
▁ha m
▁sa ved
ain ,
▁about ?
▁tu ân
▁ Ă
▁t ill
▁s ứ
▁kh át
is h,
▁L ear
▁sh own
▁they 've
rou d
▁right s
▁sc ience
oss ible
▁ref lect
▁opp os
▁ach ieve
▁P re
▁R ob
ep h
▁ro ad
▁Cl aire
▁sal t
▁th ề
▁h iến
▁l ặng
▁w ind
▁T ình
▁f ed
▁so .
▁Tr ông
▁tin ,
▁cas e,
▁boy friend
▁serv ice
▁invest ig
▁Ang el
▁t ảng
▁s ạn
in se
▁gi án
ers on
ful ,
cri be
m on
▁s ôi
▁l ây
iế c
▁H ọc
▁D et
▁mà y.
▁đến ,
▁O ff
▁think s
▁te a
▁mus c
▁pri or
▁s ắt
▁k ịp
▁ch air
▁have .
▁R ach
▁enough .
▁Geor ge
▁veget ab
B I
r ated
▁b ối
▁g ói
▁d uyệt
▁to o,
▁ph ổi
▁x ơ
▁OK ,
SE AN
▁t ạ
▁s ơn
▁tr ễ
▁M ore
▁" h
▁no body
▁cực .
b ack
g in
▁b ể
▁g ọn
▁ta m
▁H ouse
▁ho ại
▁V iết
ro c
▁chang ing
▁love .
▁ru ột
▁t ough
▁c ott
▁h ar
▁" n
▁ar rest
▁cr im
▁mắt .
▁bab y.
I D
▁ex h
▁Bl ack
▁Cap tain
crib ed
1 .
▁đ ệ
▁p aid
ce ll
▁Ho ld
▁Cho ose
▁Cal iforn
▁trad ition
▁p ound
ar a
il ing
du ct
▁hand ,
▁hand .
▁Jam es
m iss
▁ch ấn
on st
▁f aster
▁Th uốc
▁re lease
▁c ự
▁m è
▁p roud
or y.
▁qu e
▁M ike
os e.
▁R ed
▁ass ist
ù m
▁n erv
▁h ằng
▁p un
▁C ổ
▁H ell
▁di agn
▁ag g
▁lik e.
▁s on.
▁h ầm
▁p air
▁nh ắm
us ed
▁x ạ
▁ti red
▁sau :
c ol
▁th ượng
▁l ôi
▁l ung
▁d ứt
▁p age
▁kh ớp
ll y
▁P at
▁J ul
▁pl astic
▁kind s
▁bre ast
▁Fr anc
- x
3 0
4 .
▁t it
▁T od
▁J os
▁cont ract
ru ction
▁bel ow
▁num bers
ilit ies
▁Instead ,
ủ a
▁C A
▁3 .
▁hội ,
▁ok ay.
▁tru ly
▁intell ig
ẳ ng.
▁m óc
▁w ild
▁tr ade
▁C or
▁B et
▁wor ried
▁amaz ing
b um
▁th èm
▁đ ạp
▁s en
▁in se
▁S zcz
▁li ved
▁thành .
▁cam era
▁mach ine
▁Ă n
i en
▁Th ành
▁sh op
▁cr ush
▁father .
▁activ ity
▁sus pect
▁ ôm
▁t ight
▁h iếm
▁Th ằng
▁x ả
▁( 2
res s,
▁rec over
▁prom ise
▁v inh
ec ut
iv ing
▁sol ut
▁lar ger
▁kì a.
▁ant ib
ụ t
▁c ắp
▁m ạo
▁f irm
ic ient
▁ha bit
▁st ock
▁tim es.
▁sp ort
▁here !
▁sm ile
▁cổ ng
▁count ry.
▁Ol iver
▁Szcz ec
g o
ư a.
▁th ắt
▁f ab
▁tối .
▁conf ident
▁develop ment
! "
A .
l ike
▁t ank
▁c ạo
▁s ỹ
in ct
at ory
▁là :
▁được ?
▁min im
▁caus ing
▁ess ential
▁t iss
▁s ưng
▁m ount
ch ing
▁wh ose
▁we ird
▁D i
▁tiế ng.
▁lat er,
v ed.
▁r ate
▁M o
▁" F
▁imp ress
red ient
▁dist ract
▁sex ual
▁ch ìm
▁tr ut
▁is sue
▁bỏ ng
▁rel ated
▁wr ote
▁nữa ?
▁cons ist
▁increas ing
▁prep ared
es s,
▁Ch ờ
▁ngh e.
▁see k
▁inst ruct
▁typ ically
▁aut om
▁recogn ize
▁Dav id
▁b ọc
▁m id
at ely,
▁tr ial
▁A SEAN
▁M ad
▁cảm .
▁Q ue
▁app lic
▁4 5
▁trời .
▁activ ities
▁organ iz
▁item s
▁ing redient
u ght
▁d ọc
▁li qu
ur ch
▁St ay
▁sc al
anc ed
▁cent er
▁stre et
▁danger ous
▁b ra
▁cô n
▁dist rict
▁certain ly
▁vo ice
▁mot iv
▁vill age
▁tr ần
▁e le
oo p
ap h
▁imp ossible
▁med ia
▁pass word
▁lai .
▁anim als
▁Lu ôn
▁bow l
e es
ý t
▁v an
▁g ội
▁to oth
ke ,
▁Đ ảng
▁Nh ấn
▁ser ve
▁inst ance,
▁acc ording
▁fight ing
▁ óc
▁c ast
▁b or
▁D ương
▁phí m
▁att ent
▁bom b
i est
ậ c
▁ch ẩn
▁con cept
▁not e
▁ex cess
um m
ear ch
▁str ang
▁sor ry.
▁breat hing
▁webs ite
▁c ow
▁n ôn
er o
▁B ur
▁L ou
th ing,
▁( s
▁wor st
▁wr itten
▁An n
▁máu .
▁mod ern
▁qual ity
▁mic ro
▁c ấm
▁kh iếp
▁to ả
ot .
ượ n
▁phải ,
▁muốn ,
▁le o
▁J u
▁sp l
▁them ?
▁think ,
▁thing ,
▁tell s
▁mi xt
▁En ter
ợ t
▁ta ught
id s
▁W in
▁sự ,
▁' C
▁down load
▁đình .
bo ard
Í t
▁th ick
it ely
▁f ool
ar ter
▁S ố
▁đi ển
am b
▁V ấn
▁G ot
▁U ống
▁develop ed
▁full y
ron ic
▁lim it
▁s oul
▁A ust
▁happen ing
▁pain .
▁stud ent
▁nhé ,
▁soc iet
▁ er
▁t ật
▁kh en
▁" th
▁one 's
▁tới ,
▁br ush
▁chứ ,
▁Qu á
▁Jo e
▁doll ar
▁doct or.
ẫ n.
▁b ù
▁có c
▁D a
▁( G
ig er
▁but t
▁pl enty
▁ar ri
▁consider ed
▁lộ n
▁stor ies
▁mil es
▁Tu ỳ
▁"Y ou
e z
▁s outh
▁h orm
▁m ười
▁p ark
om en
▁he 'd
sel ves.
▁An other
v al
▁ Ít
▁th ỏ
▁b ia
▁r ồ
▁gi am
▁M os
▁Ch ưa
▁F BI
▁thing s,
▁start s
▁chân .
ẫ m
▁th ánh
▁ch anh
it ude
▁r at
▁D es
▁al ive.
▁viên .
▁girl friend
▁respons ible
▁polic y
▁t ens
▁c ốt
▁th ổ
▁b á
▁tr ưng
▁tuy ển
▁prog ress
▁surf ace
- c
▁c ắm
▁B er
▁H ồi
▁re ward
▁đó !
▁như ,
il s
▁kho ảnh
▁mus cle
▁nat ur
kh ông
l us
ẩ m.
▁th áo
▁th iệt
▁d ò
▁r ẻ
▁M ax
os .
▁O ver
▁all erg
▁app oint
▁vis ual
▁partic ip
▁mult iple
▁n ur
▁tr ượt
▁li kes
▁pr ice
▁chu ỗi
▁law y
▁var iety
▁financ ial
id ge
▁li es
▁dis ord
▁act ion
▁trị ,
▁bo ys
▁big ger
▁đu ôi
h am
▁k ick
▁d aught
as ed
▁e arn
▁B ỏ
▁st uck
▁know ledge
▁bl ind
▁said .
▁din ner
▁c ab
▁c ắn
▁tr ưa
▁Th ường
▁S her
ain t
▁tw ice
▁App le
▁fru it
n ed
u k
u e,
ú a
an o
▁ph ái
▁N ational
▁app l
anc y
▁nghiệp .
▁tot ally
▁Pleas e,
▁th ro
▁m ob
▁v ân
▁ch ọn.
on n
▁kh ẳng
▁tr ào
▁Th en,
▁F rench
▁inter view
▁phố .
▁leg al
▁List en,
▁m ath
▁so il
▁bà .
▁great er
▁const ant
▁ble ed
▁Micha el
▁tr ú
ic es.
▁M ic
▁cr ack
▁chang e.
▁kẹ t
▁inj ur
y !
▁b ound
▁d ạo
at ed,
▁nh ở
▁ng ã
os ,
y. ..
▁R eg
▁gener ally
▁benef it
rog en
b an
c r
p ic
▁b ậc
▁y es,
▁o ce
▁r ễ
▁C all
▁ra ise
▁pro ced
▁bệnh .
▁long .
▁reg ard
▁doll ars
w ell
▁a head
▁d ouble
ant ic
▁phút ,
▁plan et
▁Ex c
▁opt ions
▁Pl ay
▁abs olut
A T
a ith
f ord
i ền
ấ m.
▁v é
▁tr ig
▁r ange
▁u nd
▁u lt
▁" l
▁em p
▁no .
▁hiểu .
▁sleep .
▁ant i-
▁accom pl
▁le ngth
▁man age
▁pers pect
▁child ren.
▁aw ay,
▁thoại .
▁cal o
▁Ổ ng
▁ ướt
▁đ ẳng
▁y eah,
▁nh uộ
▁tr ôi
▁se e.
▁ngoài ,
▁bo ard
▁Be ij
▁ok ay,
▁bro ken
▁morn ing,
▁slight ly
▁h ide
▁m ạng.
▁ng ọt
▁H iệp
▁J er
▁định ,
▁pr int
▁pre vious
▁gr ab
▁happen ed.
▁arm s
▁m ask
▁m uộn
▁ch úc
▁ng ươ
▁" R
▁( m
▁chuyện ,
▁talk .
▁cây .
▁left .
▁understand ing
▁Per haps
▁bacter ia
% .
▁b ền
▁h ô
▁l ượt
▁ch est
▁you ...
▁W atch
ent ially
▁Đ ồng
em ent.
▁me at
▁pro ve
▁pro cess.
▁Americ a
or s,
▁L ý
▁And ,
▁show ed
▁old er
▁reg ional
▁xo a
▁tức .
y n
▁th in
▁n ô
▁b ôi
▁h un
▁for ?
▁se vere
▁was ,
▁br ight
▁person 's
ict ion
▁cháu .
▁sch edu
▁ri ê
▁move ment
▁ter rible
e ed
▁l ưỡi
▁v ọng.
▁sa ving
▁D am
and er
▁O h
▁wor se
ub lic
▁conf irm
▁second s
▁nat ure
▁develop ing
fort un
▁spr ay
▁ 0.
▁k ia,
▁w edd
in ing
▁d ẹp
▁nh ận.
▁S k
▁H igh
▁st ates
ir ty
▁( N
▁lý ,
▁Where 's
▁apprec iate
l ine.
▁m ét
▁g an
▁r ắn
▁in h
▁em pt
end er
▁gon e.
▁vi ễn
▁thống .
▁food .
▁Every thing
o e
▁s ad
▁r om
ke y
▁me al
▁go als
▁viên ,
▁friend s,
▁high ly
▁thuật .
▁near ly
▁doc ument
a !
ẹ t
▁kh ẩn
▁x ưa
▁sp ending
▁hỏi .
▁ổ n.
▁allow s
▁Szczec in.
▁m ạc
▁nh ựa
▁( or
ate ver
▁care ful
▁Some one
▁plant s
▁fab ric
▁c ode
▁m ò
ic ed
▁công ,
▁any where
▁bo y.
▁show ing
u fact
z en
▁l ắp
▁d ĩ
▁T ap
▁M us
▁not hing.
▁đồ n
▁ảnh .
▁sáng ,
▁bus iness.
▁ạ ?
▁heav y
xim ately
N G
▁b ord
▁m al
▁M uốn
gh an
▁n't ,
▁ra re
▁cl im
ian .
▁As ia
▁đu a
▁conc ent
▁equ al
▁rul es
▁canc er
▁associ ated
è ,
▁ ơn.
▁th ác
▁C ân
iế n.
▁B raz
▁D is
▁G reat
ul f
▁hai .
▁chơi .
▁dài ,
▁ey es.
▁situ ation.
▁dem and
▁adv ant
▁emot ions
▁window .
▁m ờ
▁v .
on se
om b
us hing
▁we 'd
ust ain
▁( ch
art ment
▁thích ,
ak ed
▁cont roll
▁Not hing
▁Ind ia
▁administ r
▁dặ m
R I
▁T iến
▁H ành
▁" đ
est ic
ip s
ile ,
▁thức .
▁something ,
▁gu ard
▁nghiệp ,
▁result s
▁ap olog
▁b oss
▁ch ốt
▁p en
▁tr uyện
▁su it
oc rat
▁đấy !
▁tớ .
▁ind epend
▁small er
▁listen ing
▁los ing
o le
▁đ ụng
▁b ed.
▁l ót
▁T im
▁f ol
▁Th iên
▁ho ả
▁sh ar
▁up ?
▁ag ree
▁hỏi ,
▁quả ,
▁đúng ,
▁đế m
▁fing er
▁thous and
i ous,
ồ n.
ụ i
ch an
▁B iển
▁V ẫn
▁he al
um .
▁hand s.
ines s,
▁men u
▁ru le
o ?
é n
▁tr àn
▁ph one.
▁H ỏi
ver ,
iv ity
▁trường ,
▁hoá .
▁bro ad
▁ax it
▁ic on
f ield
o ff
ấ n.
▁n ốt
▁n ét
▁b ought
▁V i
ac es
▁E ll
▁3 ,
▁un s
▁sc en
▁medic ation
▁nuc lear
▁m ông
▁nghĩ .
▁He 'll
▁help ed
▁gh ép
▁orig inal
i ation
s. "
▁khi êu
▁vào ,
▁2 2
▁tháng .
▁phys ic
n er.
u ch
▁n one
▁n ồng
▁v ine
▁d ư
or b
▁gi ấm
▁S al
▁Ch ris
▁se a
▁al bum
▁Tr ời
▁thu a
▁our selves
▁other w
▁fam il
▁sol ve
▁mil k
▁carb on
apt op
▁journ al
C .
I V
e ?
l or
▁ &
▁t ước
▁Đ áng
▁se ction
▁Nh ận
▁lu ôn.
▁dis h
▁' .
▁flo or
▁wonder ful
ả n.
▁ iron
▁n ụ
▁B ab
▁pr in
▁school ,
▁kil omet
p ,
▁v ot
▁r ough
as s,
▁M ag
▁đã .
▁comm it
▁exp os
▁stand ard
▁c ru
▁v ặt
▁trong .
em on
▁Wh atever
▁res ist
▁sĩ ,
▁big gest
▁ok ay
▁becom ing
▁absolut ely
▁b út
▁kh án
▁ngh ìn
▁man ufact
▁vị ,
▁lời .
▁po ll
▁loc ation
▁saf e.
▁bro ke
▁tow el
v est
w here.
▁ id
▁t ưởng.
▁m ưu
▁e ith
▁st im
▁này !
▁D .
▁cl ient
▁mặt ,
▁let ting
▁ass um
▁fun n
▁creat ing
▁dem ocr
▁ups et
▁extrem ely
▁ ut
▁B ro
▁B ệnh
▁u ý
▁lo ad
▁( n
▁J imm
▁hoá ,
▁form er
▁cal cul
▁Af ghan
arr ass
▁Chu ẩn
u ate
ừ ng.
▁ng ục
▁M il
▁was te
▁out ?
▁pl ans
▁rel ative
▁ser ies
▁lar gest
▁proper t
▁slow ly
▁drug s
▁ident ify
▁challeng e
▁tomorrow .
▁deg re
: 00
b re
ẹ o
▁l ử
▁w it
▁g e
▁g el
▁là n
▁cá t
em b
▁In c
▁hết ,
▁dise ase
ặ ng.
▁m l
▁v ương
▁for t
▁pl an.
▁friend ,
▁resp onse
▁requ ires
s o,
▁T ex
▁I d
▁gi ảng
▁S n
▁S ant
el m
▁bu ôn
▁say ?
▁tiếp .
▁un p
▁call s
▁belie ved
▁chịu .
▁To à
▁cal or
▁cam er
▁medic ations
▁appro ximately
▁brother .
▁Will iam
▁defin itely
▁Lear n
▁cott on
s k
▁c ồn
▁m ut
▁v ay
▁g ather
▁d âm
is m.
▁Th ủ
▁S en
▁O ut
▁happ en.
▁first ,
▁day s,
▁deal ing
▁terr or
▁craz y
▁t un
▁n av
▁b other
it e,
ar i
▁M ục
▁" ch
▁here 's
▁min e.
▁minut es,
▁pass ed
m ail
p ite
▁n ine
▁h ors
▁l ỡ
▁Th om
▁M ont
▁V ict
▁" g
▁Wh ite
▁off ,
▁ad just
▁St op
▁prom pt
▁Le ave
▁cond itions
▁(t iếng
▁aver age
i ven
s !
▁c ity.
▁n ạp
▁s ụp
▁m out
om e.
et e
▁M er
▁R ay
▁help ful
▁lần ,
▁family ,
▁emb arrass
o a
▁to x
▁C le
▁A D
▁Th am
▁cho ice.
▁Ch ar
ướ ng.
▁( S
▁spec ies
▁cas es
▁clear ly
▁Co ll
▁spir it
- 2
▁m ạn
▁g ãy
at ors
an ch
▁f aith
▁r ing
ul a
▁att ach
▁trai .
▁lead ing
▁point .
▁bott le
▁var ious
▁tru e.
▁Gen eral
▁stup id
s en
▁t ear
▁th ổi
▁m g
in es.
▁kh ăn.
▁li ền
▁( nh
▁đị ch
▁person ,
▁đau .
▁add ed
▁mar ry
▁saf et
▁t our
▁l ine.
▁w ire
▁d ã
▁r ũ
▁r ide
▁L at
▁pro p
ish ed
▁4 00
▁vật .
▁Sh ould
▁problem s.
▁pop ulation
m ar
u el
▁l aptop
▁p ig
▁ng ầm
▁C ùng
▁x a.
▁do or.
am ine
▁con sequ
▁world 's
▁des ire
▁ngài ,
▁mone y,
▁soc iety
▁step s
▁infect ion
▁stuff .
▁ton ight
▁trig ger
▁n ose
▁b ão
▁P ac
▁al ive
▁Do ing
▁bu ck
▁thần .
▁agg ress
l a
ằ n
▁c ooking
▁re b
▁re ject
ist an
▁cổ .
▁quest ion.
▁inform ation.
▁cas e.
▁Every one
▁sto pped
▁b ay.
▁m ưa
▁m ỏng
▁ch ôn
▁ti a
▁nhanh .
▁khí a
▁đình ,
▁elect ric
▁mov ie
▁musc les
r as
ê nh
ỗ ng
▁b ong
▁b ạch
▁f le
▁A h,
▁x ích
▁sh ape
ur b
▁bố .
▁reas ons
▁prom ot
▁dev ice
▁appropri ate
▁n âu
▁l ines
▁B el
▁st er
▁st ret
▁Đ ặc
▁point s
▁miss ing
▁lạnh .
▁Ab out
▁addition al
▁Sir ,
▁nhuộ m
o om
▁h ers
▁m ồi
▁ch ở
▁w estern
▁g ently
▁d ược
▁tr uck
▁S ay
▁it 'll
▁E ach
ab or
▁keep s
oun ter
▁cop y
▁iPh one
d ay.
▁ °
▁h òn
▁l ô
▁d ut
▁gi a,
▁ha ll
▁dụng ,
▁thu ần
▁repl ac
▁Wr ite
▁m irr
▁l ying
▁v ú
▁k itch
▁your s.
▁Gi ải
▁pháp .
▁room ,
▁trans fer
▁leg s
▁occ as
▁Ro bert
▁death .
▁Univers ity
▁n ạ
▁n át
▁đ ố
▁s ó
▁l ady
as p
▁A ir
▁M ill
▁st ain
▁Đ ội
▁G al
▁hàng ,
▁They 'll
▁dec l
▁tử .
▁sw ell
▁mem ory
▁gam e.
▁Pet er
▁c ooper
▁n ắp
▁s iz
▁I ra
's .
▁The ir
▁( th
▁say s,
▁act ual
▁sc rew
▁sợ .
▁exper iment
▁grou ps
▁possib ly
▁pred ict
i pp
▁th ấm
▁m au
▁ta ng
▁D ân
▁G ia
▁Tr ường
▁happ y.
▁Ar m
in st
▁Th ần
▁đi ?
▁u nh
em ents
▁P an
▁ca ff
▁cut ting
▁Who 's
▁clean ing
▁lau nch
▁increas ed
▁Act ually,
▁ ưa
▁B ig
▁was .
▁bản ,
▁hắn ,
▁real ized
▁bas ically
▁chung ,
cri ption
▁cult ure
▁CA :
▁ á
▁t ông
▁b ì
▁b rief
▁w id
▁li ves.
▁P ay
▁al though
▁liệu .
▁great est
▁mom ent.
▁heart .
p an
▁t ống
▁s úc
▁s ustain
▁nh o
▁L aw
▁as leep
iv al
▁mạnh ,
ib ly
▁fam ili
▁tuần ,
▁event ually
▁nhu ận
▁pow er.
▁rad io
▁camp a
I I
▁b ã
▁v òi
▁re view
▁W all
▁W il
▁D uring
▁ai ,
▁bộ .
▁đường ,
▁lực ,
▁phương .
▁count ri
▁book s
▁US B
▁Somet hing
▁kẹ o
▁antib iot
▁Beij ing
O S
▁of .
ic s.
▁x í
▁ha ck
▁đã ,
▁se ct
▁chính .
▁cont ent
▁clot hing
▁n ồi
▁m ine
▁m en.
▁d on
ag on
▁St re
▁te eth
▁relationship .
▁pict ures
▁l ồng
▁T iên
▁ng ập
▁P o
ide o
▁hình ,
▁am b
▁use ful
▁sách .
▁che ap
▁suff er
▁aff ord
e xt
s "
▁c od
▁b ốc
▁b unch
▁l ờ
re y
▁ta o.
▁u h
▁u pper
▁L ại
▁se at
▁pr ay
▁sc rat
▁guy s.
▁đủ .
▁Be ing
▁neg ot
▁Co i
cri pt
▁bath room
▁displ ay
f ast
▁to a
▁C our
▁Th ough
▁M aster
▁L ong
▁G ọi
ag es.
▁nên ,
▁J ud
▁cl in
▁St ud
▁br own
▁belie f
▁bring ing
▁sens itive
▁Fo llow
▁mixt ure
i ers
ậ y.
▁t àng
▁t uyết
▁c ậy
▁m ỉ
▁Th ượng
▁S ing
▁know ing
oc king
▁off ice.
▁thương ,
▁xuống ,
▁turn ing
ash .
▁follow ed
▁hon or
▁squ are
▁Sar a
▁s ite
▁l ọ
▁v ờ
▁w ide
▁Ch úc
▁" d
▁kho an
▁think .
▁ngo ái
▁fl av
▁child .
▁bad .
▁Nob ody
t le
▁b ảy
▁l oud
▁ng âm
▁D ar
▁br and
▁dr ain
▁rec ently
▁dep ending
▁mother .
▁rece ive
▁sudden ly
▁Ira q
6 0
▁ ir
▁th ẳng.
▁l ùng
▁kh ử
▁r ồng
▁C O
▁M áy
▁H IV
▁K ẻ
▁K at
▁cảm ,
▁ass ign
▁mat ch
▁đá y
▁dục .
ho ặc
▁xong .
▁intern et
▁Thank s
▁Set ting
▁hundred s
▁ju ice
▁Ste ve
▁yell ow
▁hers elf
g ,
m it
▁T er
▁do ing.
▁R õ
▁ấy ?
um an
▁nữ .
▁trùng .
▁pub lish
▁connect ion
▁circ um
▁smo oth
▁đớ n
▁n êu
▁w on
▁gi ọt
as ing
▁about ,
▁2 000
▁cách .
▁bl og
▁act ions
▁gái .
▁supp ly
▁sur g
▁fun ny
▁nhỉ .
▁plac e,
▁phot ograph
▁soft ware
e ared
g ent
h ông
� �
▁n ation
▁l unch
▁ch ọc
▁tr ục
▁S ea
▁B ước
▁con duct
▁F ore
▁us es
▁It 'll
▁techn iqu
▁dri ving
▁educ ation
▁a im
▁m ale
▁B ài
▁for ces
▁đồ ng.
▁say ing,
▁dec re
▁system s
▁month s.
▁dem onst
▁fem ale
▁eith er.
a e
n ing.
▁th ấu
▁ch ạ
▁d ance
▁( P
▁ý ,
ile .
▁sinh ,
▁fl at
oth ers
▁đất ,
▁add ing
▁requ est
▁cred it
b ox
s )
▁t ê
▁p age.
▁kh ôn
ow d
▁H ải
▁V ài
ive ly
▁im pl
▁St ate
▁Ne xt
▁esc ap
▁Chà ,
▁Philipp ines
▁b ud
▁g rew
▁C ut
▁N o.
▁x e,
▁L an.
▁me chan
▁ma i.
▁trên .
▁tin y
▁bộ ,
▁Qu ân
▁word s,
▁trans form
▁tem por
▁clos er
pr ise
▁separ ate
▁Brit ish
▁l on
▁v ong
▁g a
on s.
▁tr ăng
it ect
it ies,
▁qu ê
▁is ?
▁over all
▁cont r
▁cons cious
▁hạn .
▁benef its
▁centur y
▁administr ative
b al
▁th ám
▁C re
et s.
▁ngh iệm.
▁L os
▁Ph il
▁te lev
▁Ngh iên
▁hy p
▁"I 'm
▁khô .
▁include :
▁b ực
▁b óp
▁h ước
▁l ạm
▁v ội
is m,
▁T ạo
▁r âu
▁E r
▁ex ch
▁but ter
▁tự .
▁people 's
▁trời ,
▁vir t
▁serv ices
▁ ả
▁m er
▁m ons
in es,
▁C .
▁ph e
▁D em
▁D ành
if ying
▁E at
▁cơ .
▁end .
▁Sh ow
▁ba king
▁pain t
▁system ,
▁instruct ions
▁th re
▁b ẫy
▁y ester
▁kh ấu
is es
▁C D
▁A p
▁su ic
▁quá ,
▁fam ous
▁pay ing
▁Ind ian
▁"Wh at
▁wif e.
▁đ àm
▁b are
ad em
▁mà ng
▁" p
ol ve
▁Kh u
▁St ar
▁bl ank
▁They 've
▁trẻ ,
▁gh é
▁great .
▁end ed
▁play ed
▁khoẻ .
▁sho es
▁pur pos
▁jo int
▁connect ed
▁phúc .
▁pick ed
▁sat is
▁immediat ely.
▁resour ces
o ft
r ont
y al
▁t ám
▁on ?
▁Đ ị
▁khi ,
▁su ck
▁ad op
▁Ph òng
▁hành .
▁bre aking
▁hard er
▁sal es
▁rece ived
w ay,
▁th ô
▁h ét
▁C ause
▁Al ways
▁Is ra
▁sw ear
▁lat e.
▁econom y
idd en
▁finish ed
▁success ful
▁jud g
▁crit ical
▁colle ge
g en
▁d ũng
▁T ime
▁r ã
▁C ast
ic s,
▁S out
▁M ua
▁st em
▁mo le
▁produ ction
▁plan ning
▁Americ ans
▁relationship s
▁control .
▁requ ired
▁appear s
▁lab or
▁Car ol
▁Lond on
▁ err
▁c oc
▁kh uyết
▁I .
ar ies
▁gi ật
ir l
▁F ather
▁lúc .
▁Look s
▁comput er.
▁kê nh
▁event s
▁mag n
▁(1 9
▁deg ree
▁sod a
▁đ à
▁b udd
▁ch ăn
▁g õ
▁f ash
▁r ise
▁D ann
▁sh ad
▁G h
il es
▁ma p
▁In s
▁sur ve
▁ang ry
▁inse ct
c er
e o
n o
▁b ond
▁wh om
▁H aving
▁so on.
ore .
▁Nh ờ
and a
ell ,
▁wor se.
▁2 3
▁má y.
▁comp ass
▁po ison
▁ngủ ,
▁tục .
▁walk ed
▁skill s
▁bal ance
▁discover ed
▁piec es
▁scre en.
l f
▁m ẻ
▁p ool
▁ng ự
▁N ơi
▁H iểu
▁sh ower
▁( h
ub e
air s
▁stat ement
▁bod y,
▁vers ion
▁princ ip
w w
ễ u
ệ n
▁c art
▁m ỹ
▁nh ạt
▁ng ẫu
▁I ,
▁C ẩn
▁( đ
▁( hoặc
ab et
ie ?
▁chút ,
▁contain s
▁giây .
▁List en
▁Japan ese
▁spee ch
▁trut h.
▁c ớ
▁v ul
▁B or
▁H am
▁Đ ánh
au d
ig n.
▁br ows
▁nam e,
▁thơ m
▁inn ov
▁b ồi
▁v ess
▁r ang
▁r ào
ar row
▁S at
▁st age
ol f
are n
▁chu a
▁food ,
▁kid .
▁cas es,
iver se
▁phot o
▁recomm ended
▁Par is
▁colle ag
▁'c ause
▁encour age
▁th or
▁s in
▁l as
▁ch âm
▁in ch
▁D ou
▁Nh ập
▁go ?
▁need .
▁back ground
▁going ?
▁look .
▁19 1
▁ass ume
▁đẹp ,
▁cal ories
▁Count y,
▁b atter
▁kh ỉ
it ution
▁S and
▁re -
▁ra in
ac y.
▁what ,
ri al
▁did ,
ish .
▁hạn ,
▁Comm un
r ong
▁ 0,
▁c uộn
▁d iệu
▁M ã
▁nó ?
▁u ỷ
▁se ason
▁j ail
▁ma nh
▁đổi ,
▁tiền ,
▁des k
▁el imin
▁Mar c
▁gam es
▁affect ed
▁anc ient
▁mè o.
▁vine gar
▁p ock
▁T ụi
▁C ần
▁H àn
im es,
▁L ee
ist s,
▁"I t
▁seem ed
g l
g y
v i
ợ n
▁c ương
▁s ending
▁v ang
at ing.
▁to ng
it ation
▁e lev
▁H as
▁Ch ic
▁an al
▁ne ur
▁U m,
▁other s,
▁comm erc
▁week s.
▁hair ,
▁Ngh ĩ
▁job ,
▁mist ake
▁crit ic
f ess
▁c ành
▁th ỉnh
▁ch ance.
at es.
▁tr ừng
▁T ay
▁ng ưỡng
ore s
▁And roid
▁trên ,
▁quan .
▁got ten
▁3 5
▁te en
▁4 .
▁around ,
▁15 0
oun c
▁Russ ian
b on
▁đ am
▁v iện.
▁to il
▁C ub
ic ial
▁M el
▁Y eah.
▁V ir
▁go ing.
▁un f
▁un com
▁tw o,
▁19 3
▁col on
▁cũ .
▁current ly
▁coun sel
▁doub t
e qu
k a
▁ eth
▁n ộp
▁ch amp
▁T ur
▁T ương
▁ph il
ar ant
▁N ick
▁kho ai
▁quy ến
▁other ,
▁again ?
▁pur pose
▁char ge
▁sym bol
▁Rem ove
▁box .
▁Nà o,
▁Rồi ,
▁luck y
▁emerg ency
m an,
t op
▁th âm
▁g all
it al.
▁x ỉ
▁we ather
▁ra bb
▁sh ock
▁as pect
▁R ead
▁com ing.
un te
▁over ,
▁des erve
▁rest aur
▁cent ral
▁fore st
▁sour ces
▁Je ff
▁anyw ay.
▁l ùi
or y,
▁C amp
▁qu ận
ic i
▁H à
▁Ch and
ag er
▁bà ,
hip .
▁Cong ress
▁wit ness
v iet
z ,
▁h ở
at ures
▁H ous
▁D own
▁You T
.. ..
▁j ack
est ,
▁ac qu
▁un ique
▁mẹ ,
▁inst itut
▁tranh .
▁open ing
▁point ,
▁ích .
▁dục ,
sp ap
▁teach er
▁fing ers
m en,
▁s ides
▁k ẹp
▁S ky
▁H ợp
▁sa i.
all ow
▁D u
▁( 3
▁R ửa
▁Tr ừ
▁le an
ific ation
▁infect ion.
▁ve h
▁natur ally
r it
▁đ ắt
▁w ar.
▁M other
▁ho le
▁ho ok
▁cá p
th ur
▁more ,
▁tại ,
▁before ,
▁4 ,
▁sy n
▁xác .
▁nhanh ,
▁quest ions.
▁individual s
A R
▁v ây
at or.
▁li br
▁P ak
ant s.
▁nữ ,
▁So viet
▁fl ight
▁treat ed
▁bus y
▁sleep ing
▁fig ured
▁cover ed
▁Acc ording
▁liqu id
c ast
▁t iệt
▁b iển.
▁g ánh
▁tr ạm
▁M i
▁W ork
▁L i
▁fr ust
▁F ire
▁J ob
▁dis s
▁tâm ,
▁vật ,
▁ins ide.
▁different .
▁wom an.
▁stay ing
▁interest s
ilit y,
▁hous e,
h yd
m en
v an
y c
▁ ồn
▁t iệm
▁w et
▁f an
▁qu ét
▁for ced
▁we alth
▁L ind
ườ m
▁R am
▁hay .
▁hiện ,
ous ly
▁call .
▁long ,
▁cầu ,
▁real ity
▁understand .
▁cười .
▁terr itor
▁vac c
▁gard en
▁rap id
▁altern ative
▁đ áo
▁h ẹp
or ing
▁A ug
▁be ,
▁S .
▁S uy
▁B oy
▁ra nh
▁j eal
▁my ster
▁số .
▁ag ent
▁điể m.
▁week end
▁kid s.
▁quanh .
▁forg ive
i o.
m ond
▁ch ances
▁d ust
▁H ill
▁L ast
▁when ever
▁Nhưng ,
▁something ?
▁fl ower
▁ins ur
▁old .
▁num ber.
▁thúc .
▁trans port
▁inn oc
▁neighbor hood
▁nh a
▁A .
▁B re
os e,
▁" f
▁com e.
ri an
▁U sing
▁ngo an
▁' M
▁new spap
▁str ange
▁hour .
▁leave .
over n
▁skin ,
▁break fast
▁mag ic
▁lay er
▁Sec ret
▁Mart in
▁b ùng
▁m ốc
▁l âm
at ically
▁kh ay
▁tr iển.
▁T ới
ic ate
▁W ay
ly ing
▁( 4
▁us ual
▁cl imate
▁act ing
▁fl ash
▁trí .
▁enough ,
▁chó .
▁mind ,
▁ru ồi
▁emot ion
▁tool s
▁ke o
▁Europe an
▁Chic ag
▁uncom fort
y r
ế m
▁a he
▁tr ap
▁tr ưởng.
▁r ot
et ch
▁re ally,
el ess
▁2 7
▁part y.
▁sc ale
▁dr am
▁cons ult
▁đỡ .
▁hor se
▁anx iety
- 3
i h
k now
▁g ấu
▁y et,
it a
▁S inh
▁W alk
▁was hing
▁us e.
▁U p
▁Có ,
▁gr own
▁bo ost
▁conf idence
▁situ ations
▁fil es
▁Ngo ại
▁lab el
▁nut ri
▁arch itect
▁thor ough
ể n.
▁in ject
▁D ĩ
est s
ol es
▁J on
▁J ac
▁X ô
▁dr unk
▁cr owd
▁Chin a,
▁At l
▁cap able
▁Đúng ,
▁th ạch
▁đ ai
▁h ưu
▁o l
▁o we
▁ng ợi
▁x óm
▁K en
▁G ần
se ng
▁Anh ,
▁thực .
▁hum ans
▁ref orm
▁necess ary.
▁c ort
▁m ộng
▁v a
▁v ỗ
▁S il
▁S av
▁nó ng.
▁D ef
and ,
and on
▁will .
▁tw o.
▁sát ,
▁des cribed
gg ed
▁miss ed
▁char act
▁though .
▁Lu ật
▁smo king
▁disapp ear
▁fed eral
▁cự u
5 00
a ven
▁t ị
▁b ón
▁Th ree
▁B ell
▁H ol
id es,
▁ra ?
▁P ri
▁Nh a
um ,
▁want ,
▁sp ace.
▁Ph át
▁dis p
▁vu ông
▁reg ion
▁khí .
▁minut e.
▁Ar t
▁buy ing
▁patient s
▁hop ing
▁Under stand
bod y.
▁dire ction
▁nerv ous
▁ngươ i.
▁circum st
8 0
p et
▁c ưỡng
▁đ ậm
er ate
▁T H
▁f ant
om in
le y,
iế m.
▁H aw
▁V er
▁so re
art .
▁mình ?
▁kho ác
▁đâu !
▁tra ff
▁form s
▁miss ion
▁rối .
▁Christ m
▁v. v
▁famili ar
▁campa ign
e e.
i os
i ant
▁m ượn
▁kh ôi
▁r oof
▁be ar
▁B ost
▁M ang
▁D V
▁tim .
▁te le
▁bé ,
▁thought ,
▁supp ose
▁stud ies
▁vis ion
▁forg ot
▁itself .
i as
▁k iệt
it ud
▁r h
ic es,
▁Đ ường
▁sh ared
▁G reen
ul s
▁( D
▁back ?
▁toàn ,
▁nơi .
▁rec ip
▁care .
▁acc ur
▁proble m,
▁includ es
▁xấu .
▁struct ure
▁tradition al
b ar
r ight
ũ i
▁in ner
▁N a
▁K ev
▁It al
▁per man
▁cr ime
▁mắt ,
▁men u.
land ,
▁mill ions
▁tem pt
▁behavi or.
▁Ob ama
▁purch ase
z .
▁t ò
▁tr ật
▁Th ầy
▁B ang
▁V an
▁xem ,
▁look ,
▁ins ul
▁important .
▁máu ,
▁hear ing
▁fac ing
▁Har v
▁react ion
▁bả n.
▁crim inal
c op
▁đ ồi
▁g ác
▁the o,
▁ng ắm
▁S un
▁ngh e,
▁V ương
▁( B
▁ex ecut
▁but ...
▁bl ame
▁ảnh ,
▁rel ieve
▁ứng .
▁minh .
▁Ex pl
▁tow n.
▁concern ed
▁histor y.
▁fund am
▁vegetab les
▁d anc
▁d one,
▁p ure
▁o dd
▁T ư
▁C ity
▁N ữ
▁ta ll
▁go dd
ess ion
▁pr oof
▁adv ice
▁"N h
▁swe at
▁hang ing
▁Chà o,
▁incred ible
▁attent ion.
▁empt y
▁c ọ
▁B oth
▁ra ised
▁2 6
▁sp ell
▁giúp .
▁What ,
▁đề ,
▁while .
▁second s.
▁gồm :
▁cap ac
▁York .
▁Pol and.
▁sell ing
▁orig in
▁weap ons
▁partn ers
▁tast e
▁Hen ry
▁c ere
▁I nt
os h
▁an aly
▁sh amp
um ber
▁int eg
▁St .
▁cont ribut
▁19 2
▁much ,
▁nữa !
▁đời ,
▁instead .
▁Eu rop
▁ble ach
▁batt le
▁Aust ral
▁vul ner
/ 1
i ence.
ế n.
▁b ul
▁m ild
▁v ứt
an 's
▁T omm
▁N ày
▁S áng
▁L ad
ant ed
▁ab us
ag ram
▁( H
▁F el
▁F red
▁him !
▁tự ,
▁đấy ?
▁un it
▁cour se.
▁Ar thur
land .
▁Go ld
▁"W e
▁Tw it
▁fill ed
c es.
m ark
▁b at
▁m ent
▁T Q
▁T on
▁ng ột
▁r ãi
▁M ove
▁st ab
▁You 'd
▁as t
▁Tr iều
▁J ess
ment s.
▁remain s
▁infl amm
ros oft
▁a m.
▁d a,
▁T ổ
▁for th
▁D raw
st ood
▁gh ê
▁thị nh
▁thuật ,
▁wom en.
▁pain ting
▁miệ ng.
▁though ,
▁prep are
▁Dan iel
▁et c.
▁Pac ific
▁n or
▁m ập
▁d im
▁ph ẩm.
▁W estern
▁thành ,
▁năng .
▁xu ân
▁through .
▁thống ,
▁lâu .
▁focus ed
▁bod ies
▁jud ge
▁Sec ond
▁fu n.
▁riê ng.
f ect
i er,
l er.
v ing.
▁c ạn
▁đ ắp
▁l emon
▁d ắt
▁kh e
ing er
▁N or
▁củ ng
▁x ứ
id ence.
▁do ing,
▁Ch uy
▁st aff
▁with ,
ur s
▁R un
▁O ct
▁pl at
ord in
▁lot .
▁sur ger
▁sw ord
▁pain ,
▁allow ing
▁children ,
▁lạ .
▁Gr and
▁reach ed
▁Kho ảng
▁esc ape
ồ ng.
▁s le
▁l ầm.
▁v ĩnh
▁ch ớ
▁ch ief
▁p al
▁the ory
▁r um
▁in ?
▁any thing,
▁time ?
▁chủ .
oh yd
▁exp and
▁alre ad
▁hại .
▁cử a.
▁equ ip
▁Afric an
▁sếp .
▁1/ 2
▁otherw ise
D P
▁b ê
▁g ut
▁d àn
▁nh át
▁T re
▁N at
am n
um ents
▁4 8
▁lead er
▁Br ing
▁Ngh ĩa
▁Pro fess
▁bại .
▁pull ed
▁Ad am
▁spo ke
▁c ra
▁đ è
▁l ic
▁nh ặt
is on.
▁li p
ro f
▁new s.
▁inter p
▁tiêu .
▁exper t
▁trans l
▁Su per
▁compan y.
▁earl ier
▁Vict or
▁ Ư
▁ph un
▁Th iết
os ing
ad e.
ter ol
▁G erm
est y
▁Ph ụ
▁ac know
▁care er
▁ey es,
▁open ed
▁lik ed
ces s,
▁test s
wh elm
rib ute
▁var i
▁manag ement
▁b es
at ives
▁C ắt
▁S oc
▁W ord
▁Đ ang
▁E th
▁độ .
ag es,
ers ?
▁St ill
▁How 's
▁phòng ,
▁tệ .
▁vời ,
▁Har ry
▁Frank .
▁reve al
D F
I A
▁tr a.
▁tr ắng.
▁V ụ
▁li ber
ir ing
▁G ặp
▁về ,
ore ,
▁thu ẫn
▁un iverse
▁end s
▁phố ,
▁blood .
▁Sc ot
▁thi ền
▁Vietnam ese
▁drop s
▁therap ist
▁incred ibly
▁Mic rosoft
▁id iot
b .
u x
w in
ing s.
▁B udd
▁H ot
▁V ị
▁K y
▁G uy
▁cl osed
▁cl oud
▁thức ,
▁bo at
▁As ian
▁Am az
▁count ry,
▁God .
▁possible ,
▁organ ization
▁vol unte
▁exam ples
▁repe at
▁oppos ite
▁h iding
▁ph ô
▁gi áp
▁Th anh
▁B ao
▁j e
▁pro pos
▁over whelm
▁Gi ả
▁cứu .
▁sec ure
▁thư .
▁To àn
▁met al
▁Sc ott
▁art icle
▁val ues
▁abs orb
▁sn ack
▁Rep eat
▁Sm ith
▁anx iet
▁releas ed
▁Ả nh
▁accompl ish
r im
▁s na
▁d ãy
▁tr úng
it ute
ch ed
▁N ap
le y.
▁qu ãng
ic les
▁Th ấy
▁L ên
ur y
au m
ra wn
▁di pl
▁Mar sh
▁exp ens
▁experi ences
▁imm une
▁quick ly.
▁norm ally
▁convers ation.
▁suff ering
▁trouble .
▁repl ace
▁dom estic
S ,
u ro
ạ o,
▁s áp
on ent
▁y es.
▁H ệ
▁P ort
▁P ick
▁R ick
▁R ock
▁man 's
▁over -
iv es.
▁res c
▁giá .
les terol
▁gu arant
▁tóc ,
▁week ,
▁fre e.
▁Every body
▁himself .
▁detail s
▁summ er
▁arr ang
▁pupp y
b ed
▁đ ạc
▁s em
▁w elcome
▁d ì
▁nh ũng
▁ng ứa
▁and ...
▁on ce.
▁cho lesterol
▁se al
▁Nh anh
▁R ome
▁under w
▁chất .
iss ion
▁chu ông
▁ser ved
▁đại .
▁tháng ,
▁ide al
▁intern al
▁program s
▁phot os
▁cost s
▁scient ific
▁c ough
▁s ấy
▁s ắm
▁b one
▁b ast
▁v õ
▁v ở
▁v ạch
▁T ai
▁B ank
▁H i,
▁P ower
▁ex cell
▁Ô i
▁best .
▁mon itor
▁treat ment.
▁ext ract
▁read y.
▁light .
▁dead ,
▁mái .
▁book .
▁Jo ey
▁lock ed
▁moist ur
▁mor al
▁schedu le
▁safet y
▁dipl om
i pped
m os
t on,
▁d ội
an ?
▁of t
▁N ath
im e.
▁sh ift
▁G hi
▁lo ves
▁F our
▁tim es,
av es
▁trình .
▁vụ .
▁guy ,
▁des cribe
▁Chin a.
▁Ar ab
▁bed room
▁Sch ool
▁flu id
▁Hel p
▁prim ary
▁responsib ility
▁ ừ
▁n ang
▁d ying
on 's
▁ng uyệt
▁r ẽ
▁M en
▁Đ ấy
▁K e
▁F ed
▁de al.
▁fe et.
▁now !
▁X i
▁gh en
▁vu i.
▁Un less
eg a
▁sạch .
▁mật .
▁month s,
▁brain .
▁expect ed
▁tab les
▁dom in
▁Stat es.
▁obvious ly
▁Rich ard
▁citiz ens
▁commerc ial
▁th ắng.
▁g ri
▁f ert
es h
et s,
▁N A
us ion
▁ta !
▁re in
ly m
▁" v
▁se es
▁fr act
▁Em ily
fer ence
▁lead s
▁khăn ,
▁father 's
▁cor por
▁Intern ational
▁decis ions
▁sam e.
I .
▁đ en.
▁m en,
▁m ộc
▁ch ăng
▁ch ann
▁tr ân
▁N av
▁qu át
▁wh is
▁Ch ất
ill .
▁L ar
▁L ittle
ur t
▁so ạn
▁Anh .
▁' N
▁Con st
▁5 .
▁liệu ,
▁khó i
▁car ,
▁Al so,
▁ins p
▁moment ,
▁Comm and
▁material s
▁therap y
▁Sor ry
▁Sor ry,
▁pun ish
fortun ately,
▁c ỗ
▁s ét
▁v án
▁ng ưng
▁H àng
▁ho ãn
▁như :
▁họ ng
▁O ld
▁up !
▁U ỷ
▁work ers
▁sc ru
▁gr ain
▁sw imm
▁strong er
▁sir ,
▁Rep ublic
▁influ ence
ã n.
ố n.
▁ uống.
▁c ore
▁đ uối
▁đ ấm
▁a id
▁b on
▁g ạch
▁I ...
▁B .
▁Ch e
▁P ract
▁can ,
▁2 8
▁them selves.
▁Gi úp
▁tối ,
▁7 5
▁At t
▁invest ment
▁ste al
▁Part y
▁surpris ed
▁sty le
▁chick en
▁Aug ust
- t
E O
ặ ng,
ễ n.
▁l ật
▁v ent
in s,
▁kh úc
ic ally,
▁ta pe
▁re nt
▁as pir
▁up d
▁thứ ,
▁there fore
▁thời ,
▁br ings
▁cont ext
▁bet ray
▁rem ark
▁thuốc ,
▁cực ,
▁thoại ,
▁đêm ,
▁100 %
▁rượu .
▁exc use
▁comb ination
▁ach ie
▁Stat es,
▁ingredient s
D ,
b l
▁ ốc
▁b ấm
▁h ông
▁h ận
▁v áy
▁r inse
▁sa cr
▁D ad
▁not es
ul ated
ist ry
▁some h
▁list .
▁plan e
▁trưởng ,
▁law s
▁thai .
▁scient ists
▁Wait ,
▁rom antic
A M
i ed.
▁t ưới
▁c ig
▁r ộ
al t
▁H it
ver se
▁D ưới
▁L inc
▁mà !
▁lif t
ens ion
▁kill ed.
▁Được ,
▁fight .
▁dị p
▁imag es
▁feeling s.
▁eng age
▁drink .
▁exercis es
▁liter ally
▁Rach el
▁Que en
▁fash ion
▁t ượng.
▁s ne
▁l ượng.
▁v uốt
▁nh ánh
▁r èn
ill ed
▁sh irt
il ed
ess ed
▁guy s,
▁supp l
▁def end
▁name ?
▁Joh n,
▁const ruct
▁seed s
r ical
ạ m.
▁b ướ
▁T it
▁và ng.
▁al one,
▁pro ceed
▁quy ền.
▁co ast
▁tập .
ian ,
▁chân ,
▁prot e
▁pres ence
▁sign ed
▁lệ ch
▁arm y
▁train ed
▁exc it
▁report ed
▁advant age
▁phil os
M :
a wn
z ym
▁b a,
▁w est
▁d irt
▁r ỉ
om e,
▁N az
▁S a
▁S us
▁cá .
▁G overn
▁chính ,
▁Ng uyên
▁she 'll
▁tạo .
▁sách ,
▁prom ised
▁necess arily
▁hảo .
▁aud ience
▁indic ate
▁rev olution
▁Ty pe
▁famil ies
▁caff e
g u
▁t ú
▁c ateg
▁h at
▁m âu
▁f ro
ch ar
▁M et
▁cho col
▁sh el
▁have ,
▁man ?
▁In ter
▁work s.
▁end ,
▁high est
▁tinh .
▁ob l
▁sign al
oun ced
▁creat ive
▁begin s
▁đỏ ,
▁profess ion
▁pow der
▁ill eg
▁fly ing
▁doct ors
▁ver y,
m s
▁s ide,
▁l ăn
in a,
▁kh ơi
▁Th ánh
▁B ru
▁cho se
▁K ir
▁" the
▁dụ :
▁U nt
▁tử ,
▁rep ut
▁fact ors
▁thẳng ,
▁pass ion
▁plac ed
▁th ắc
▁đ ơn.
▁đ iện.
▁g ang
▁tr iết
▁f if
ed y
▁C ập
▁S ept
▁M ik
▁ti p
▁un l
enc y.
▁minh ,
▁nam es
▁cat s
▁loc ated
▁tre es
▁pleas e,
▁burn ing
▁fail ed
▁smo ke
▁dig ital
▁disapp oint
▁agre ed
▁tiss ue
C P
E R
a ust
i ence,
o ot
▁ uy
▁m ẩu
▁o m
▁ng uộ
▁r ụng
▁ph ơi
▁in ches
▁qu arter
▁V al
▁u m,
▁P ot
▁ne ut
▁al g
▁rằng :
▁St and
▁sc ream
▁gh ost
▁most ly
▁7 ,
▁light s
▁oil .
▁fac e,
▁Here ,
▁Afric a
▁Russ ia
▁neigh b
C l
w .
▁m el
▁l ấp
▁d irty
▁f iber
▁ph ồng
ve .
ic ul
▁B ack
▁bạn ?
▁H anna
▁ho bb
▁V ery
▁D ad,
and om
▁sp ect
▁kho áng
▁di al
▁inc ome
▁Ho á
▁better ,
▁old ,
▁All ow
▁run s
▁rest rict
▁Nam ,
20 1
▁t ăm
▁c ấy
▁W ash
ag ue
▁kn ock
▁nào !
ab ol
▁Tr ans
▁We ar
▁thêm .
▁att end
▁trang .
▁dist ance
▁prom ote
▁ev al
▁past .
▁ed ge
▁contain er
▁egg s
▁indust ry
▁shar p
▁(nh ư
▁shamp oo
d ay,
▁đ ợt
▁T or
▁ng ắt
▁N ik
ut en
▁are a,
▁G ã
▁R el
res p
▁dis put
▁inc ident
▁sure .
▁gu ide
▁head ing
▁cụ m
▁tội .
▁coll eg
▁Pr ot
ox ide
g s
w ich
x i
▁n it
▁w is
▁d âu
▁p ian
▁ph ẳng
▁of ,
▁qu it
▁ra ce
▁" J
ore n
▁F ocus
▁com ment
▁Tr ump
gg ing
▁Not e
▁stop .
▁trái .
▁prov ided
▁langu age.
▁Com p
▁Braz il
ocrat ic
▁Cre ate
u ally.
▁ ‘
▁g al
▁d ại
▁H ồ
ly n
▁J ew
▁rem ov
▁inst r
▁med ium
▁gu il
up .
▁treat ments
▁chung .
▁wond ering
▁Res earch
▁"K hông
y a
ứ a.
▁b os
▁m ến
▁d à
▁p our
om ed
▁e lement
▁N et
▁x é
▁x ăng
▁M ir
▁is ol
el d
▁ngh ịch
▁V iện
▁P DF
▁kn ife
her n
▁cl ock
▁chất ,
▁cấp .
▁treat ing
▁conf ront
▁job s
▁wrong ,
▁amount s
▁ste am
▁lim ited
▁apply ing
▁regular ly
▁nã o.
c y
t on.
ị n
▁ Ê
▁t ần
▁n ic
▁m ổ
▁m ir
▁k ẽ
▁ch ip
▁d ẫn.
▁p izz
▁qu ant
▁H iến
ill ing
ant s,
olog ist
▁matter .
▁fore ver.
▁opportun ities
▁fell ow
▁mout h.
▁telev ision
▁ Ú
▁c ash
▁n ảy
▁n arrow
▁l en
▁l ường
▁d ỗ
▁y eah.
▁x ăm
▁do s
▁V ăn
▁D oc
▁L .
▁ab andon
▁J ord
▁act ually,
▁te et
▁sc ar
anc es.
▁bình .
▁cây ,
▁care fully
▁tranh ,
tern al
▁hour s,
▁sol id
▁mem or
▁outs ide.
▁ang er
▁beaut y
▁occ up
▁entire ly
▁ground .
▁claim s
▁arg ument
▁publish ed
t ime
▁ ..
▁c ous
▁đ ả
▁s out
an s,
ic ing
▁be ach
▁B es
▁H ong
im al
▁re n
▁R y
▁di et.
▁giết .
▁sur prise
▁produ ced
▁sub s
▁fall ing
▁Kỳ ,
▁mã i.
▁exc ited
▁proper ty
▁please ?
▁surv iv
ầ y.
ế ch
▁v et
▁v eter
▁w rap
▁o d
▁r ice
▁Ch ỗ
os is
▁V itamin
▁D en
▁L im
▁de ar
▁they 'd
▁Tr ở
▁Và ,
▁no vel
▁chưa ,
▁gen etic
▁eas y.
▁oil ,
▁mag az
▁"Ch úng
▁tor t
▁wedd ing
▁stim ul
I T
▁t ỏi
▁đ ậy
▁l òng.
▁w ax
▁T ar
▁H un
▁D ave
▁L ib
▁me als
▁lo ose
▁cái .
▁int ent
ưở i
▁des pite
▁love ,
▁tuyệt .
▁reg ret
▁lạnh ,
▁đỏ .
▁result s.
▁Kỳ .
▁major ity
▁craz y.
▁fu el
▁pattern s
▁daught er.
▁godd amn
i ac
▁ án.
▁t ân
▁đ un
▁b iến.
▁v ớ
er ves
an s.
▁ph u
▁H ạ
▁Đ o
▁L ẽ
▁sh ell
▁K enn
▁man ip
iz es
sel ves,
▁dùng .
▁under stood
▁pháp ,
▁exp ensive
▁pos ition.
▁sàng .
▁dog s
▁"A nh
▁flo or.
c ut
v is
v ed,
▁n uốt
▁s ight
▁ch ợ
▁ch iên
▁ch ronic
▁w ra
▁p ump
▁nh ốt
▁kh ao
▁to ?
it o
▁T reat
as es
ic y
▁your s
▁W ere
▁for ,
▁not iced
▁go !
▁R oy
▁di ed.
▁cơ m
▁nhớ ,
▁tiếng ,
▁fail ure
▁hã ng
▁Min ister
▁weap on
▁conv inc
▁cand id
f ol
g i
u ary
▁c ities
▁đ ực
▁b orrow
▁m ươi
▁l ắng.
in s.
▁nh ục
▁be ll
▁Y êu
▁Đ iện
em .
▁K n
▁al ter
▁số c
▁cl ass.
▁' m
▁lúc ,
▁tác .
▁dưới .
▁báo .
ake ,
▁giả n.
▁def ense
▁experi ence.
▁ev il
▁mist ak
▁extrem e
▁partn er.
▁frequ ently
▁Cent ral
▁th áp
▁s now
is l
▁S ol
▁li ver
▁L ove
▁he ?
▁so ak
▁so ck
▁Wh ether
▁R oss
▁Tr ẻ
▁sec ur
▁ser ving
ible .
▁gu n.
▁head ach
▁another .
▁gener ation
▁vide o.
▁biển ,
▁free z
▁team .
▁symptom s.
▁'T ôi
▁cris is
▁jeal ous
▁th ầm
▁đ ẻ
▁h ố
▁g ay
▁p H
▁một .
▁Đ ọc
▁ra !
▁u m
▁sh aring
▁" w
▁se as
▁se qu
▁Tr ò
▁hiểu ,
▁5 ,
▁chị .
▁min or
ne y.
▁mean ?
▁stud ying
▁Nam .
▁lệ .
▁expl os
▁dog .
▁specific ally
▁remain ing
▁agre ement
▁marri age
▁Mexic o
▁mob ile
▁Cle an
C ,
e ath
i pping
▁t alent
▁c ock
▁đ en,
▁h ụt
▁k iếp
re p
▁T iếng
▁I P
▁ha b
▁do es.
▁Đ ài
▁D add
▁P om
▁he y,
▁at om
▁( K
▁ca f
▁sp in
ak er
▁un us
ire ct
▁col um
▁ràng .
▁matter s
▁tù .
▁shot .
▁spr ing
▁oper ating
▁immed iate
▁chà o,
▁kilomet res
▁Thom as
▁Unt il
▁th umb
▁đ ền
▁đ ắn
▁p itch
at a
▁N ội
▁ta il
▁M ain
▁W omen
▁Ch ild
▁độ i.
▁al arm
▁from .
▁fe ver
▁Ng ồi
▁3 2
▁supp lement
ward s
▁triển ,
▁hot el
▁fut ure,
▁bè ,
▁xong ,
▁With out
▁object s
▁né n
▁histor y,
▁Thu ỵ
▁ki ềm
▁yog a
▁đệ m
▁kitch en
▁bare ly
c a
d en
h ere
n ing,
y th
▁th ận.
▁đ ù
▁s ỏi
▁l õi
al ity
▁e ase
▁S ur
▁M ass
el ine
▁L ạp
▁P al
▁P op
▁G P
▁G DP
▁E ric
▁F re
ear s
▁tu b
▁un w
▁tưởng ,
▁wom en,
▁phục .
▁kid d
▁sw im
▁Ok ,
▁opt ions.
▁thở .
▁Jes us
▁appl ied
e e,
ỏ ng.
▁m òn
▁v ary
▁ng ô
▁H ad
▁Ch i
▁P alm
▁R og
▁ag e.
▁co at
ound s
▁Qu ay
▁head ,
▁nghiệm ,
▁ri ver
▁small ,
▁bus iness,
▁hả ,
▁month .
▁thinking ,
▁thank s
▁hosp ital.
▁diseas e.
▁opin ion
▁anal ys
a res
▁ Ờ
▁m ây
▁l ợn
▁v ast
in i
▁tr á
▁f ired
al es
▁Th oa
▁H ank
▁st ation
▁sh if
▁lo ,
▁al t
▁man aged
▁en zym
▁app arent
▁nghi êng
▁khoẻ ,
▁dog 's
▁level .
▁hiểm ,
▁súng .
▁pop ul
▁redu cing
▁program m
▁cir cle
▁tỉ a
▁perform ance
▁cy cle
▁bơ m
▁Im ag
▁init ial
▁oxy gen
L A
l am
▁c ừ
▁c ay
▁m ort
at h,
ing u
▁T ính
or ter
▁r andom
▁và ,
▁wh eel
▁on line.
▁V is
▁" .
▁E dd
▁( x
▁R iver
▁any one.
▁good s
▁per miss
▁đồng ,
▁chứng .
▁second .
▁mi êu
▁sổ .
▁Sec urity
▁aff air
▁frequ ent
▁wif e,
▁Linc ol
▁t ùng
▁t um
▁h idden
▁l ưỡng
▁d er
▁N ice
▁qu ấn
ol ved
▁dis aster
▁Gi áng
▁fl ag
▁điểm ,
ph one
▁bre ed
▁7 .
▁problem s,
▁father ,
▁Se e,
▁protect ion
▁medic ine
▁TV .
▁fast .
▁(t r
▁chemical s
▁introdu ce
▁fault .
▁cu ồng
gy pt
S T
▁v ia
▁w ave
▁d arl
▁f ought
▁C ây
▁N ic
ic it
▁V ợ
th .
▁G ord
▁su g
are .
▁des ert
▁cle ans
▁inv ited
▁live .
▁air .
▁xuyên .
▁ru n.
▁answ er.
▁deep ly
▁stor y,
▁tru e,
▁"H e
▁mass age
▁method s
▁ngốc .
▁communic ation
▁possib ility
▁leaders hip
aus e,
▁remo ving
▁remo ved
▁thro at
▁math em
▁calor ie
▁Cour t
i o,
l ook
m ber
▁h âm
▁g raph
▁d ent
▁C ực
▁be ?
▁on es.
▁Ch iếc
▁fr ame
▁but ,
▁di abet
ec king
▁tu ệ
▁gr ate
▁hệ .
▁head ed
▁wait .
▁Chr ome
▁pow er,
▁increas es
▁feed ing
▁First ,
▁depend s
▁relative ly
▁ml )
▁ster oid
r ick
s ide
▁n ọ
▁s amp
▁p il
▁tr ib
▁tr ùm
▁T iểu
▁f urn
or ph
▁S ong
▁help ,
▁un cle
▁bệnh ,
▁Ho ả
▁thần ,
▁bre ad
▁girl ,
▁đạo .
▁pur su
▁breat he
▁perfect ly
▁cult ural
▁stri p
▁depress ion
▁pregn ant
▁ign ore
▁degre es
▁satis f
▁Isra el
. ,
▁n è
▁l ăng
or por
▁A h
▁qu ấy
▁M ix
▁V inc
▁P ap
▁P ress
▁he ight
▁j ew
▁quan ,
▁off ered
▁tho áng
enc es.
▁ass ess
▁move .
▁fun ct
▁invol ve
▁rout ine
▁jour ney
▁surv ive
▁communic ate
▁dy nam
▁adm it
▁fold er
▁sett le
▁establish ed
▁independ ent
▁surg ery
▁th ép
at ing,
is her
▁ng ửi
es e.
as e.
▁S qu
▁H one
▁Đ êm
▁E .
▁E v
▁en for
▁năng ,
▁đại ,
▁trai ,
▁test .
▁col ors
wh at
▁bab ies
▁pot ato
▁common ly
▁account .
▁Any way,
▁sto le
▁Sy ri
▁(v í
▁experienc ed
▁dro pped
▁constant ly
o ch
r id
ừ a.
▁b àng
▁h ôn.
▁g arl
▁d ump
▁r ush
▁A pr
▁Th ao
▁M ur
▁W ow,
▁( I
▁co -
▁Ph ot
▁thôi !
▁under ne
▁Giờ ,
▁Pl an
▁stat us
▁sand wich
▁Pract ice
G :
ớ c
▁ ân
▁f lex
▁r ốt
▁C P
▁C ath
▁M inh
▁K ế
▁J enn
▁would 've
▁could 've
▁3 6
ire .
▁rep air
▁giả .
▁word .
▁coll abor
▁fil ter
▁focus ing
▁deep er
▁pull ing
▁div or
▁hone y
▁solut ion.
▁bleed ing
▁proced ure
▁expos ure
▁th us
▁b ite
▁h iếp
▁l ắc
▁l ặn
▁v ắng
▁ch ap
▁ch uối
▁w itch
▁g ạt
▁p icking
▁I D
▁r ùa
▁W elcome
ang ,
▁L y
▁at mos
▁ex ternal
end s
▁tiếp ,
▁dec ad
▁op en.
▁dịch .
▁fact or
▁nhạc .
app y
▁house hold
▁store s
▁exist ing
▁Ag ent
▁tit le
▁Job s
k n
k ward
▁m ig
▁g ăng
▁g roc
on ?
▁T en
▁r ow
▁ph ạm.
▁S ave
▁S pe
▁B uy
▁B áo
▁ho ài
▁Đ ợi
▁E inst
▁E gypt
ell e
▁' b
ian ce
▁ro ots
ition ,
▁màu .
▁6 ,
▁Cl int
▁áo .
▁pow ers
▁carb ohyd
▁intellig ence
▁mount ain
▁Mos c
iven ess
▁Christm as
▁s ô
▁s ink
▁h ip
▁m uộ
▁ch at
▁g ũi
▁d ate.
on ym
▁tr ail
▁f ulf
▁Th uyền
▁M iddle
▁it ch
▁L in
▁G re
▁J une
▁Gi á
▁too ?
▁Br own
▁book ,
▁đợi .
▁eng ag
▁Any thing
▁invol ves
▁squ ee
▁environ ment.
▁complic ated
▁bud get
t rl
í a
▁s inc
▁h ăng
▁v ả
▁f asc
▁ph ú
ic ip
▁S ĩ
▁B as
▁H ome
im e,
▁L is
il iz
▁And rew
ist ics
ai ,
▁bằng .
▁lu i
▁St an
▁St ark
▁hành ,
▁work out
▁inter rupt
▁gu id
▁rest .
▁thinking .
▁phys ically
▁young er
▁file .
▁Ed ward
▁effort s
▁Charl ie
▁experienc ing
▁sport s
▁mỉ m
E A
h r
v ill
á y.
▁b ar.
▁g ạo
at es,
▁to ler
▁f ake
▁r ung
▁ph en
us es
▁B ị
▁x ám
▁M u
▁re h
▁cho ices
▁Đ ạo
th es
▁" ng
▁so ...
▁E ver
▁up st
▁like ?
▁want ?
▁there !
▁đồ .
▁un able
▁' đ
▁comp ress
▁friend ly
▁child 's
▁gu ilt
▁inv ite
lud e
▁health .
▁watch ed
▁suc ceed
▁card io
▁proper ly
▁eff icient
▁mist ake.
▁Somet imes,
▁grand m
▁relig ious
▁Californ ia
▁tables p
b orn
▁k iếm.
▁ch ét
▁d ưỡ
▁T iền
▁N orm
le g
▁B us
▁B enn
▁M em
id ay
▁st ro
▁L ặp
▁as ide
▁ab dom
▁int ens
ber g
ak .
▁Ph o
▁comm itted
▁Qu ả
▁vực .
▁week s,
ash ed
▁aw kward
▁đá .
▁fac ial
▁lành .
▁forg ott
▁cú n
▁Cont rol
▁enem y
▁tam p
▁Hell o,
▁oce an
▁Sing ap
/ /
: //
í n
ẻ o
▁ ấm.
▁t úng
▁n ú
▁n ếp
▁đ ứt
▁p unch
▁T oo
▁f al
▁Y et
▁( e.
▁out do
▁le af
▁int r
▁should 've
▁des per
▁fin e,
▁quest ion,
▁pain ful
▁cal c
▁Some body
▁đông .
▁pleas ure
▁Col on
▁din ner.
▁stri ke
▁bull et
▁mention ed
▁dire ctor
▁Canad a
▁horm one
▁exch ange
▁fundam ental
▁alread y.
u ed
z a
▁ ương
▁c able
▁n erve
▁s ou
▁h uyền
er e.
▁nh ã
▁cho sen
▁Ch ương
▁st ress.
all .
▁L ời
▁K r
▁K ong
il a
ell y
▁kho ái
▁' A
▁comp ared
▁inter f
▁mo ld
▁rel ief
▁As h
▁10 ,
▁ass ert
▁tư .
▁Is land
▁el se,
▁pres cription
▁cre w
oun ce
▁reas on.
▁pot entially
▁lai ,
▁sớ m.
▁$ 2
▁shoot ing
▁cy c
▁"D o
▁Char les
▁underne ath
1 0
T un
o ber
▁kh iếu
▁ph arm
▁x ì
ro ph
▁not ?
▁wor ry,
▁int im
▁then ?
▁per ce
▁long er.
▁kill er
ph a
▁sợ ,
▁xúc .
▁kid ney
▁vọng ,
▁đấu .
▁nhạc ,
▁Jack ,
▁issu es.
▁mach ine.
▁sus pic
▁Mat th
▁valu able
▁YouT ube
▁mir ac
▁(e. g.
- 4
c ent.
s :
x .
▁h tt
▁w ipe
▁g um
at ure.
▁nh ện
▁C H
ve y
▁N è,
▁S erv
▁K ar
▁G ar
ist s.
▁every day
▁sc an
▁find s
▁thiết ,
▁chơi ,
▁wom an,
▁Chú a,
▁compl ain
▁mom ents
▁Joh n.
▁Le on
▁mess ages
▁"N g
▁răng .
▁dối .
▁mot ion
▁addition ,
▁birth day
▁deb t
▁Cont in
▁shap ed
▁negot i
▁NA SA
s s
▁s ill
▁v om
▁v oc
▁p ink
et te
▁A ,
▁H on
▁V ua
▁ne ither
▁( d
▁( and
▁F ile
▁ex amin
▁J ane
ra v
▁pl ay.
▁số ,
iv es,
▁ac adem
▁pre m
▁10 .
▁phương ,
▁Al so
▁lâu ,
▁sim pl
▁201 2
▁dep artment
▁bit .
▁ev olution
rem e
▁fru its
▁strateg ic
▁Ir an
▁official s
▁Tod ay
▁spl it
1 1
n ers
▁f ishing
▁Th ư
▁S ub
▁re lev
▁ho l
▁G ry
▁F ar
▁ma xim
▁Tr ang
▁un if
▁dr y.
▁Ho àn
▁Chú a.
▁cat 's
▁i Tun
▁bụ ng.
▁vo i
▁obl ig
▁Ê ,
d own
n er,
w ise,
▁t ắm.
▁v ote
▁d ậy.
▁ph áo
al i
▁A ID
▁x ô
▁we igh
▁L ie
▁lo yal
▁see king
ph ere
▁201 0
▁compl iment
▁word s.
▁tí m
▁four th
▁pap er.
▁Đông .
▁York ,
▁Inst agram
▁mur d
▁ố m
▁ele ments
- m
P P
z y
▁ uốn
▁đ inh
▁b ú
▁ch ườm
▁w a
▁d ating
▁S af
▁wh y.
▁ho a.
▁st orm
▁L ang
▁fr ag
▁R and
ab l
um ps
▁kho ang
▁3 D
▁X e
▁bo y,
int end
ph as
▁rõ .
▁ins ert
▁lat est
▁Sp an
▁friends hip
▁bè .
▁cư ng.
▁apart ment
▁diseas e,
▁1/ 4
▁Rom an
▁(G erman
▁Id ent
▁Setting s
▁Imag ine
M I
f ather
l im
o f
t ail
▁c ò
▁c os
▁s on,
▁b ọt
▁m os
▁l ướt
▁v ig
▁ch ain
▁d umb
▁p ier
▁o ven
▁C á
▁x ay
▁x a,
▁li ps
▁he aven
▁G ree
ul ting
▁R ằng
▁nghĩ a.
▁nhận ,
▁act s
▁po ly
▁put s
▁Al tern
▁real .
▁add ict
ilit ies.
▁govern ments
▁protect ing
▁law .
▁teach ing
▁attack .
▁Fl or
▁challeng es
▁yet ?
▁sat ell
▁sister .
▁hã i.
▁hone y.
▁manufact ur
▁Sept ember
i ?
k er
▁n ause
▁đ ỗ
▁b óc
▁v ặn
in a.
▁p ushing
an e.
it is
es e,
▁C EO
▁C trl
ot y
im ents
▁Ch ief
th etic
▁R od
▁ma il
▁fe ature
▁think ?
▁nhớ .
▁str ain
▁hard .
▁sol ar
▁inform ation,
▁govern ment.
▁order ed
▁store .
▁OK ?
▁indust rial
▁Je an
▁Dep ending
▁techniqu es
▁interp ret
▁cig are
u i
é m
ó m.
▁c ống
▁n ap
▁v en
▁ch ảo
re ne
▁nh ổ
▁I ?
▁một ,
ac ed
▁K iểu
▁" ,
ell a
ec raft
ak s
▁br ill
▁every where
▁bộ c
▁Gi ám
▁rem em
▁supp le
▁ide a,
▁ent ertain
▁disc om
▁Ar gent
▁Z h
▁answ ers
▁situ ation,
▁return ed
▁Earth .
▁hyd ro
▁Franc isc
▁tox ic
▁Oct ober
▁philos oph
R A
w ar
▁m ảng
▁m ile
▁m ầm
▁m erc
▁l ê
▁k g
▁k itten
▁tr êu
▁in her
▁x ách
▁Ch ia
▁Đ ộng
▁L og
▁ma i,
▁khác ?
ud e,
▁app le
▁min ister
▁sl ide
▁love ly
▁Br ook
▁dep art
▁prof ile
▁cũ ,
▁Ind ones
▁fire .
▁mass ive
▁fair ly
▁carry ing
▁table .
▁gra v
▁continu ed
▁emp ath
▁excell ent
R .
▁d ở
▁p ad
it ime
▁ng ớ
us ing
▁Th áng
▁này :
▁G ab
▁độ ,
ri pt
▁some one.
ec ess
▁un ex
▁bỏ .
▁rem ote
▁mo ves
▁me. ..
▁Ho à
▁bas is
▁luật .
▁cân .
▁"I f
▁prov ides
▁prov iding
▁50 %
▁du ỗi
▁Su pp
▁effective ly
▁viol ence
▁environment al
▁compass ion
▁las er
▁Vir gin
▁discom fort
- r
u le
▁ ought
▁n ặng.
▁b ẻ
re .
▁T ưởng
▁ng ay,
▁r ộn
al in
▁S end
▁S und
▁Đ ồ
oo ps
▁D ay
ur a
▁me an.
▁R ad
▁R ub
▁cần ,
▁ag e,
▁mất ,
▁chang e,
▁guy ?
▁My an
▁ràng ,
▁mess age.
▁field .
d .
g r
j i
▁s ản.
▁b ust
▁v ert
in ation.
▁y ến
en a
am ed
▁đã i
▁st ood
ad o
▁D un
▁sh r
▁P enn
▁lại !
▁al ert
pl ace
▁bl ister
▁Gi ảm
▁phí .
▁chủ ,
▁trí ,
▁high light
▁op ens
▁gu est
▁lã i
▁Mar ch
▁trợ .
▁test ing
▁expl an
▁lắng ,
▁Bl ue
▁clos e.
▁drink s
▁program .
▁tĩnh .
▁est im
▁huy nh
▁wall s
▁khứ .
▁grad u
▁intell ect
▁conv ince
▁Lou is
▁ult im
▁democr acy
▁Afghan ist
T .
▁ch ằm
▁ch ecking
▁nh í
▁ng uyền
▁ph ớt
▁e ld
▁N ove
▁S ign
▁D iv
ac y,
▁L ập
▁mà y,
▁or al
▁1 000
op s
▁E as
▁pl us
▁Ng ân
▁en orm
▁Ph ân
▁vụ n
▁lời ,
▁lượng ,
▁thị .
▁own ,
▁vẻ .
▁hy per
▁Ar ch
▁mother 's
▁De v
▁bang .
▁Jack .
▁determ ined
▁obs erv
▁Remember ,
▁bird s
▁unus ual
l ine,
ư ơn
▁ ái
▁t el
▁d amp
▁và ng,
ot ,
▁W at
▁D uy
▁fr ight
▁one ?
▁pe pp
▁may ,
▁pr ices
▁over n
▁br others
▁going ,
▁sc ene
▁thought .
▁med it
▁ob st
▁kid s,
▁school s
▁phủ .
▁soát .
▁dàng .
▁Pr inc
▁ben eath
▁parent s.
▁Đức )
▁select ed
▁ur ban
▁dig est
▁canc er.
▁Sar ah
▁block s
▁increasing ly
▁autom atically
▁Exc use
▁cru c
E .
▁t al
▁ch ục
▁d il
▁d ưa
▁nh úng
▁Th iếu
▁M s.
▁re cept
▁cô ?
▁ad vert
▁part ies
▁te asp
▁start .
▁hand s,
▁quyền ,
erm ine
▁điện ,
▁6 00
▁thư ,
▁gen u
▁nghi ền
ific ial
▁plan et.
▁mind s
▁Americ a.
▁hoạch .
▁độc .
▁blood y
▁remember ,
▁lạ ,
▁cup s
▁mult ip
▁ess entially
▁Gen er
▁Đị a
i 's
n el
r ating
u nder
▁ `
▁th ắn
▁n ệ
▁h unt
▁ch ì
▁ng ộ
▁ng ụ
▁C ounc
▁that ...
▁H ang
ct ic
▁st ate.
▁or ange
▁1 ,000
▁1 -2
▁lo ãng
▁em ?
▁bị .
ai .
▁co gn
▁comp are
▁comp rom
▁bố ,
▁giá o,
▁khí ,
▁left ,
▁dầu .
▁past e
▁prof it
▁tre nd
▁ngờ .
▁trắng ,
▁country 's
▁forward .
▁Ư ớc
▁someh ow
▁fro zen
e ed,
▁c ub
▁l ột
▁Th ings
▁x ông
▁H ồng
▁W ant
▁con ce
▁V all
▁E sp
▁ma '
▁just ...
ra ,
ip ed
▁im per
he ast
▁br idge
▁part .
▁lif esty
▁Ta king
▁quyết .
▁da ir
▁gái ,
▁night ?
▁Un fortunately,
▁Mar ia
▁tod ay?
▁sư .
▁opt im
ium .
▁infect ed
▁sold iers
▁ord ers
▁sen ior
▁DV D
h a
r ition
w ,
▁s ess
▁d ồn
▁nh ét
ed ic
▁e nh
▁N one
▁qu ầy
▁S ắp
am ing
▁Đ ổ
▁G rou
▁R et
▁hơn ?
▁U N
▁mu ỗi
▁3 1
▁St r
▁cont ribute
▁bên .
▁Ho lly
▁guy 's
▁6 .
▁giác .
▁gl uc
▁exp osed
▁trans ition
▁mus cl
▁lar g
▁phim .
▁mod els
▁relationship ,
▁pret end
▁khô ,
▁đô .
▁bar ri
▁hyd rogen
▁victim s
▁Tod ay,
▁Sn ap
▁Secret ary
▁caffe ine
K :
S :
c an
▁l ord
▁g ạc
▁nh ấc
ing ly
as al
id ge.
am e.
▁sh ir
em s
▁" U
▁" y
▁as s.
▁lại ?
▁need ed.
▁U h
▁make up
▁thing ?
▁bu ồn.
▁feel .
▁un n
▁tên .
▁car ri
▁sk ip
vent ion
▁đau ,
▁head s
▁201 0,
▁201 2,
▁bas k
▁Mar g
▁loc ation.
▁Sp ec
▁leg isl
▁mother ,
▁Pro b
▁lử a.
▁stret ch
▁chạ y.
4 0
b ec
l er,
p oint
r ates
u ge
▁h ired
▁v ã
▁g ởi
▁tr áng
▁tr iều
▁ph one,
▁H ait
▁st one
▁we ight.
all ,
▁G irl
▁se ctor
▁so ot
▁E ither
▁( Đ
▁em br
▁out !
▁Tr ao
▁want ing
▁no ise
▁Con nect
▁đo ạt
▁great ,
▁mở .
▁form al
▁thủ .
▁build ing.
▁polit ics
▁De velop
▁dri ver
▁mach ines
▁"Th is
▁draw ing
▁fix ed
▁Dec ember
▁insur ance
a ver
w ay.
▁n ice.
▁s ữ
▁d rawn
▁r ank
▁gi ận.
▁A T
▁S it
▁S ếp
e. "
el com
▁Đ ứng
▁L ão
▁họ ?
▁this !
▁R ight,
▁pro cess,
ast e
▁di am
▁di e,
▁gr at
▁rel ie
▁car s
▁cle ar.
▁thought s.
ors k
▁vệ .
▁met aph
▁met abol
▁mạng ,
▁disc ip
▁(C h
▁xanh ,
▁thận ,
▁personal ity
▁giây ,
▁suggest s
▁lit ter
▁Sy stem
▁Ju ly
▁aggress ive
▁uncomfort able
5 %
▁c ure
▁th ay,
▁b ay,
▁d ốc
▁p or
at eral
▁to y
▁r ảnh
▁C IA
▁N iger
▁B ol
▁M ong
▁do ors
▁W ater
▁ra c
st on
ol a
▁O lym
▁from ?
▁fe atures
▁ad vent
▁tho ái
▁' ch
▁gọi .
▁sure ,
▁thú .
▁Un ion
▁important ,
▁bab y,
▁(T h
▁thấp .
▁pict ure.
▁US D
▁serious ly
▁inj ured
▁Lau rel
▁citiz en
▁tạ o,
▁countri es.
▁perman ent
▁(German :
p ath
▁t att
▁n ề
▁h em
▁l ánh
▁v ital
▁ch ew
▁d add
▁tr igg
ot ic
▁M od
am s
▁we ?
▁L ady
▁some where.
▁giờ ?
▁need s.
▁U s
▁every one.
▁Con f
▁comp ar
▁fl our
▁differ ences
▁dân .
▁someone 's
▁bad ,
▁cử a,
▁creat ure
▁conc ret
▁giấy .
ium ,
▁myself ,
▁exc iting
▁foot ball
▁feed back
▁centur y,
▁goal s.
▁cm )
▁appoint ment
▁bord er
▁fort un
▁Down load
▁nguộ i
▁Flor id
C )
I N
▁ch urch
▁ch lor
▁tr ương
▁M ount
▁st ars
▁D ick
▁P ull
▁F eb
▁thực ,
▁tự a
▁quy ên
▁cl ar
▁loại .
▁per cent.
▁cứu ,
▁bình ,
▁cle an.
▁child hood
▁reg ul
▁kể .
▁set s
▁sch ol
▁dist urb
▁air port
▁comput ers
▁check ed
▁elect rical
▁199 0
▁mạch .
▁est e
▁profess or
▁mist akes
▁rid icul
▁growth .
▁Mc C
▁sick .
▁pu zz
▁(c ười)
▁Ú c
a j
b urn
r ant
▁c ược
▁n ứt
▁k ệ
▁ch éo
▁w ine
at or,
▁S yl
▁x ỏ
▁nà ng.
▁đi ền
▁được !
▁cá n
▁with d
▁You ng
▁or ch
▁j ur
▁j aw
▁su ýt
est ed
▁từ .
▁Tr ả
▁U V
▁app eared
▁lif et
we et
▁talk s
▁lập .
▁tượng ,
▁stay ed
▁ref r
▁jo ined
▁sắc .
▁xanh .
▁typ ical
▁touch ing
▁cold .
▁ill ness
▁198 0
▁Christ ian
▁los s.
▁arg ue
▁flow ers
▁'t h
▁exh ib
▁bá o,
▁consequ ences
▁scrat ch
▁elimin ate
▁Atl ant
▁furn it
E T
o ons
ư ng.
ặ n.
▁th erm
▁ch ưa.
▁g ap
re ll
▁T imes
▁C ur
▁ph ì
▁gi ant
▁S P
▁M ao
▁P ost
▁R h
▁F ill
▁lu ận.
▁how ever
▁Q uy
▁ad apt
itt ee
▁good by
▁mo on
▁dr ive.
▁show .
▁sur ge
▁đáng .
▁happen ed,
▁ob tain
▁def ault
▁mus ic,
▁che ek
▁brain ,
rib ution
▁jo ke
▁fac es
▁Pro v
▁hã m
▁obs er
▁Cam er
▁ord inary
▁"O h,
▁strugg le
▁insul in
▁rein for
▁Matth ew
9 0
c el
m et
o 's
▁ ớt
▁c ac
▁v âng,
▁v ấn.
▁w art
▁T yl
▁r ates
▁M att
▁ho les
▁L eg
▁he aling
y. "
▁( k
ol en
ri e
▁she 'd
▁say ing.
▁dis rupt
▁hệ t
ens e.
▁under lying
▁To ky
▁aw es
▁expl or
▁break s
▁trust ed
▁teach ers
▁dat a.
▁"W ell,
▁appear ance
▁điên .
▁gam e,
▁thù .
▁gun s
▁sold ier
▁strateg y
▁Under wood
▁Jan uary
▁anyw here.
▁ki êng
▁ep is
▁surround ing
▁pound s
▁Sher lock
▁(ch ẳng
▁traff ic
▁capac ity
▁mos qu
▁Nove mber
a h,
l in,
▁n ãy
▁s ưu
▁b ồ
▁b a.
▁ch ắn.
▁tr ắc
▁r ách
▁Th ỉnh
▁S el
▁H ir
▁V ideo
▁D anh
▁D isc
▁K ind
▁( the
▁F itz
▁pro l
▁We b
▁nhưng ,
▁di vers
▁má y,
▁over come
▁off ering
▁thông .
▁app eal
▁She 'll
▁ins pir
▁ổ ng.
▁chịu ,
▁girl s.
▁hard ly
▁body 's
▁anything ?
▁eat .
▁lau nd
▁adv anced
▁tiện ,
▁report s
▁Su ch
▁husb and.
▁port ion
▁author ity
▁destroy ed
▁Rec ogn
▁lawy er
▁mons ter
▁ahe ad.
▁Jac ob
▁Chuy ển
▁Profess or
▁Ờ ,
c raft
▁ ?
▁l uyện.
▁k ỵ
▁tr án
▁C over
▁N àng
▁B ay
▁H and
▁nó ng,
ang .
ill a
▁D ự
▁L ight
▁K éo
▁" nh
▁this :
ag g
▁( l
se y
▁F ive
▁F orm
▁int ake
▁per cept
▁gr ass
▁bo ot
▁10 ,000
▁chế .
▁sức .
▁dec ades
▁child ,
▁happen ing.
▁Sh ut
▁mar itime
▁mus ic.
▁Sp art
▁heart ,
▁Re v
▁support .
▁art ificial
▁la id
▁employ ees
▁ord er.
▁repe ated
▁Det ermine
▁bra ve
▁Jimm y
▁dim ens
▁moistur iz
▁jew el
o "
▁t ons
▁a er
▁ch art
at om
an th
is on,
▁do or,
▁trong ,
▁D ầu
▁L ife
▁ông ?
▁any way
▁cl icking
▁talk ,
▁own ed
▁ass ass
▁gu ess.
▁pres cribe
▁201 1,
▁exp ort
▁mone y?
▁dep os
▁reas on,
▁creat es
▁arm ed
▁dri ven
▁khuy nh
▁Col omb
▁bur ied
▁compet ition
▁king dom
▁anc est
▁rabb it
▁innoc ent
▁phen omen
▁grandm other
S P
i xt
u an
▁t y.
▁c ity,
▁th ối
▁n a
▁b ored
▁h ire
▁l in
er ry
▁p ul
▁tr àng
▁N intend
▁S now
▁Đ iểm
▁( su
▁pl ug
▁Ng ược
▁trình ,
▁' '
▁car ried
▁sl ip
▁play er
▁stud ied
▁past ,
▁brain s
▁comput er,
▁hur t.
▁cor rupt
▁war ,
▁ton ight,
▁enc ounter
▁task s
▁Pre p
▁exh aust
▁Lat in
▁Wil son
▁countri es,
▁Soc ial
▁neut ral
▁guil ty
▁Apr il
i ed,
à n.
▁ ủ
▁s úp
▁s ẹo
▁b ump
▁l áng
▁v ắc
▁ch a.
in ter
▁C ity.
▁S ix
▁B ern
▁on ce,
ct ure
▁L oc
▁are as.
▁sh y
▁cách ,
ure au
▁thời .
▁way s.
▁ar row
▁19 0
▁chọn ,
ne y,
▁phẩm ,
▁inst ruction
▁import ance
▁det er
▁top ic
▁less on
▁stand s
▁phim ,
▁sư ,
▁leg it
▁hồ .
▁ris ing
▁lá .
▁viện ,
▁dat a,
▁group .
▁tạp .
▁offic er
▁Kho a
▁dy e
-x a
▁CO 2
▁institut ions
▁nutri ents
▁fasc in
2 5
O .
T S
k o
r a.
▁t one
▁n est
▁b ed,
▁l ều
▁v ỉ
▁v ươn
▁g ục
▁the at
▁kh éo
▁tr iệt
▁f ar.
▁Th ị
▁x á
▁do zen
il ize
▁R est
▁F eel
▁em phas
um in
▁fe ars
▁fe et,
00 .
▁không? "
▁cl ip
og ether
▁let ters
enc ies
▁att or
▁gen e
▁Qu ý
▁giáo .
▁cười ,
▁col or.
▁tàu .
▁tường .
▁cy st
▁fish .
▁Tốt ,
▁Ste ven
▁butt on.
▁mirr or
▁occas ion
▁vulner able
i us.
r ot
s hip
▁n ơ
▁đ ạo,
▁b ind
▁h ạch
▁m ớ
▁m elt
▁d ải
on in
▁in put
▁gi ãn.
as m
▁e c
▁H or
▁is ...
▁on !
ent h
▁anh !
▁he o
▁G all
▁F ort
▁cl ass,
▁Ng ủ
ord inary
▁ngay !
▁kinh .
les s.
▁viết .
air s.
▁ey e.
▁pass ing
▁col ored
▁polit ic
▁eng aged
▁question s,
▁tĩnh ,
▁vo ice.
▁Jack son
▁"B ạn
▁cloth es.
▁win ter
▁wall .
▁Ag ain,
▁exercis e.
olut ion.
▁Ser ge
▁accident .
▁Bet ter
▁Sout heast
resp ond
" )
c our
p ress
s on.
u it
ũ a
▁đ ính
▁b áu
▁p alm
▁nh ai
▁nh ượng
▁tr oub
om .
▁A th
▁S earch
▁ta k
▁B at
▁sa v
▁D ist
▁gì n
▁so vere
▁us !
▁sp ace,
▁int ense
▁act ion.
▁gr ade
▁Gi ao
▁happ iness
▁bo il
▁chiế n.
▁big ,
▁produ cing
▁cour age
▁cat .
▁form ula
▁word ,
▁Ok ay.
▁cor respond
▁mũ i.
▁difficult y
▁card .
▁brother ,
▁sort s
▁record s
▁polic ies
▁concern s
▁danger ous.
the -c
▁nã o,
▁controll ed
▁nav ig
▁contr ast
▁toil et
▁surger y.
I M
ử a.
▁đ òn
▁l un
▁l ít
▁p ra
▁tr inh
it er
▁ng ọ
or 's
▁r os
▁r ose
ed ul
▁x ao
▁M ot
▁M erc
▁H all
▁it ...
out s
▁st raw
▁Đ âu
▁V ol
▁V eg
s, "
▁E y
▁( F
▁de hyd
▁2 9
▁2 -3
▁tự u
▁pr ost
▁bu ýt
▁imp lement
enc ed
▁after no
▁Al f
▁cổ ,
▁8 ,
▁tích .
▁home ?
▁month ,
▁conc lus
▁cas ual
▁oil s
▁giản ,
▁organ ized
▁convers ations
▁25 0
ev it
▁giường .
▁ngực .
▁Geor g
▁apart .
▁Det ect
▁consist ent
▁organiz ations
▁Stud ies
▁vess els
▁Twit ter
▁gal ax
O N
▁th iện.
▁n ản
▁đ àng
▁h ars
▁g au
▁p ed
on ut
▁nh iệm.
is k
▁C ra
▁B ức
▁M au
▁M an,
▁L ựa
▁J .
▁chang es.
▁cons erv
▁plan ned
▁201 1
▁trans pl
▁đá ,
▁hold s
▁opt ion.
▁risk s
▁sir ?
▁expect ing
▁El iz
▁period s
▁Fin ally,
▁(v à
▁AD H
▁swell ing
▁acknow ledge
▁pizz a
▁grate ful
L .
b y,
d y
▁c ối
▁c rop
▁n an
▁h àn
▁g est
▁the se.
▁nh ả
▁T am
▁T ăng
▁T ướng
▁T ạm
▁f ib
▁C ủa
as h,
▁qu ot
▁B eck
▁that !
▁M ust
▁H op
ut ch
▁cho .
▁li ves,
th ,
ur n.
▁G oth
▁Q uyền
▁Ph i,
▁sc are
▁per m
▁gặp .
enc y,
▁đo an
▁lập ,
▁chỗ .
▁gu it
▁kid ,
▁hơi .
▁light ,
▁pat ch
▁talking .
▁test ed
▁kì a,
▁God 's
▁Or gan
▁sho pping
▁tre as
▁serv ice.
▁sent ence
▁sens e.
▁Đức .
▁cool .
▁comb at
▁bag .
▁ann oy
▁occur red
▁applic ation
▁decre ase
▁(su ch
ng e
▁c m.
▁th ọ
▁s ướng
▁b ệ
▁m ồm
▁v ag
in o,
▁f ung
▁ng ắn.
or a
▁x ước
im et
ac ing
▁khi êm
▁or g
▁" k
▁Nh óm
▁go lf
▁out f
▁dis char
▁inc orpor
▁tác ,
▁ask s
▁reg ister
▁pres cribed
▁ent ered
▁place ?
▁tiết .
▁12 0
▁expl ore
▁level s.
▁miệ ng,
▁lost .
▁const itut
▁"H ow
▁mot or
▁centur y.
▁mix ed
▁Gl ob
▁link ed
▁spo ken
▁warn ing
▁minim ize
▁perspect ive
▁thre e,
▁adop t
▁thorough ly
▁Expl or
▁chann el
▁Bes ides,
▁t ở
▁n ạt
▁h ill
▁m ac
▁v ườ
▁ch am
▁ch óc
in ting
re t.
▁nh ì
▁kh ùng
▁tr ói
it es.
▁C ục
▁M èo
am es
▁st ir
▁sh ame
▁R on
▁R en
▁R inse
▁And re
▁And ro
▁de ck
▁Tr ust
ast y
▁kho ả
▁some what
▁ti ed
▁cơ ,
▁un its
ru ption
▁X ét
▁sm ok
▁own ers
▁poss ess
▁Mar th
▁nhập .
▁avoid ing
▁Dr ink
▁dev ices
▁Đông ,
▁dream s
▁ann ounced
▁Mon ica
▁Wal ter
▁Dep artment
▁Stre et
▁equip ment
▁unl ik
▁samp le
▁intellect ual
the-c ounter
k in
ẹ n.
▁th iếp
▁b ìa
▁b ẩn.
▁d are
▁tr acking
▁tr oops
▁r ash
▁C ung
▁in evit
▁H ung
▁người ?
▁Đ au
▁sa c
▁L and
▁at e
op ath
▁F al
▁Kh ả
ri es,
▁pr ison.
▁ad equ
og en
▁un kn
▁sc ript
▁khu ấy
▁life ?
▁pres ent.
▁list ed
▁sign als
▁lợi .
▁sw allow
ric ult
▁nổi .
▁phủ ,
▁tuy ến.
▁ref uge
▁sal ad
▁del ay
▁exc lus
▁beautiful .
▁project s
arr he
▁hor iz
▁admin ister
▁god s
▁solut ions
▁Tex as
▁aspect s
▁Ident ify
▁Feb ru
i able
n ic
ề ng
▁ ướ
▁ ủi
▁th ính
▁v ò
▁k ìm
▁p ip
on om
▁T uyệt
▁C àng
▁gi ơ
as e,
▁S ơ
▁S up
▁B ạc
▁x ế
▁x ưởng
▁W i
▁Ch ạy
▁Đ a
▁Đ ơn
oo .
▁cả !
▁lo ét
▁từ ,
ag ger
▁go al.
▁R ập
▁F ree
▁He alth
▁bu ồng
▁Ph i.
▁' l
▁hệ ,
▁po et
▁cons ume
▁sch edul
▁Or ,
▁saf e,
▁working .
▁18 6
▁nhiêu ?
▁simp le.
▁suff icient
▁extra ordinary
▁nhóc .
▁adult s
▁strugg ling
▁wis dom
▁colum n
▁groc ery
▁fal se
▁Prob ably
▁Recogn ize
e 's
▁đ úp
▁a th
▁p im
on es.
▁to ...
▁o x
▁Th ống
▁H D
id es.
el er
el et
▁G arc
▁F am
▁pl ain
▁need le
▁lên !
▁3 7
▁should er
▁nơi ,
anc es,
▁khu ất
▁dân ,
▁ins ist
▁chức .
ative ly,
▁while ,
▁tre m
▁fore ver
▁del ic
▁card s
▁energ y.
▁giỏi .
full y.
▁coff ee.
▁pregn ancy
▁lad ies
▁inflamm ation
▁swimm ing
B T
b el
▁th i.
▁n ations
▁đ ắm
▁s ờ
▁tr ọn
or p
or al
▁H .
am a,
▁Ch ế
▁Ch ange
▁u g
ro ad
▁sh ake
▁de ath,
▁He ad
▁she et
▁St eph
▁every thing,
▁dis ag
ical .
▁gr ant
ib ility
▁ass ho
▁Un cle
▁found ation
▁"T r
▁kid na
▁second s,
▁def ined
▁Americ a,
▁number ,
▁vis ible
▁trùng ,
▁mem ories
▁class room
▁dev ice.
▁email .
▁norm al.
▁"M y
▁grad ually
▁Cam bod
▁author ities
▁pregn anc
▁Bu ổi
▁rub bing
▁allerg ic
▁apolog ize
▁yester day.
▁Harv ard
▁bướ m
I P
c es,
ầ y,
▁n è,
▁s ườn
▁d ict
▁d iện.
re h
en er
▁ng ọc
▁r ủ
▁r ạp
as hing
et amin
▁B ri
im a
id ers
▁ho ành
▁con ven
▁You ,
▁E xt
▁E conom
▁int end
▁ag ents
▁bl ad
▁' S
▁rec ru
▁chu i
▁att itude
ock .
▁differ ence.
up rof
olog y,
▁num er
▁food s.
▁trái ,
▁number s.
▁dist inct
▁"C on
▁Ex cept
▁imm ig
▁activ ity.
▁medic ation.
▁infect ion,
▁along .
▁behind .
▁z ero
▁attack s
▁rul es.
▁surf ace.
▁gentle men,
▁administ ration
▁Mom ,
▁Kore an
▁custom ers
▁invent ed
▁excess ive
▁clim b
▁mole c
▁Bost on
▁Einst ein
▁unif orm
▁remem ber.
- h
p at
▁ →
▁ ôn
▁đ ặn
▁b end
▁h id
▁ch ước
▁T ony
▁C ửa
al e,
▁S áu
▁B est
▁B ry
▁M .
▁re ly
▁Đ àn
▁Đ ào
▁cá ,
il ateral
▁E nd
▁( E
▁( W
▁wor ry.
▁tim ,
▁int ention
▁quá !
▁bu ông
▁How 'd
▁rec on
▁xuất .
▁sk y
▁inst inct
▁An na
▁minut e,
▁xúc ,
▁hum id
▁ent r
▁sâu .
▁mái ,
▁ant s
▁Pr ince
▁elect ion
▁elect ron
▁equ ation
▁thấp ,
▁grand father
▁Lond on.
▁Jim ,
▁Exc el
▁Commun ist
▁tong ue
▁Draw sk
▁scru b
▁chocol ate
▁eval u
▁teet h.
rep rene
▁Hone y,
x ,
▁l ố
▁l ầu
▁g ear
▁g ym
▁tr aum
ing s,
▁T ác
es seng
▁C ard
qu e
▁Th ổ
▁S ure
▁li ed
▁L ab
▁K l
▁j ar
▁Nh ắc
▁O ft
▁U r
ach ,
ick .
▁back !
▁Em m
▁Con n
▁vụ ,
▁X u
▁20 ,
▁des ired
▁ass ault
▁tục ,
▁thúc ,
▁luận ,
▁gener al,
▁phi êu
▁sleep ,
▁ru in
▁bụ ng,
▁khoá .
▁organ ic
▁Har old
▁clos ely
▁già .
▁government ,
▁Á p
▁par king
▁loạn .
▁Vietnam 's
▁tomorrow ,
▁Ma j
▁Bill y
▁Pháp .
▁King dom
▁arri ved
▁sle pt
▁insp ired
▁refr iger
▁Prep are
9 9
▁b y.
▁h ướng.
▁v ất
▁d ad.
▁nh ủ
an a,
▁ph ác
▁N i
▁S umm
▁M ất
▁H uman
uố t.
▁Ch àng
▁ra w
▁P ier
▁lo os
▁O x
art ,
▁out com
▁J ong
▁fe ar.
ie 's
▁had .
▁vậy !
▁sử .
▁inc om
▁gon e,
▁friend 's
ative .
▁sub t
▁"I n
▁commun ity.
▁commun ities
▁support ing
▁dam age.
▁boy s.
▁infect ions
▁cover ing
▁Ừ m,
▁ạ ,
▁burn ed
▁priv ile
▁nut rition
▁sil ver
▁Gu ard
▁Mor gan
▁"E m
▁Jos eph
▁cab in
▁hun ting
▁inh ib
▁fol ks
▁mut ual
▁ol ive
▁Pom orsk
▁garl ic
▁unex pect
E N
d e
n e.
r ast
ù n
▁b ones
▁m ó
▁l ơ
▁w elcom
▁g ân
▁g ập
▁y ard
▁ng ẩn
▁ng on,
▁r ib
▁r ót
▁C lear
▁A ut
▁be ef
▁M ĩ
▁M àu
▁G ì
▁j oy
ain e
se e
▁people ?
▁pr on
▁br anch
▁sc ent
▁pre -
▁bà n.
▁add ress.
▁happen s,
▁ide as.
▁cal end
▁sâu ,
▁tức ,
,000 .
▁break .
▁băng .
▁Ex erc
▁nạn .
▁contin ues
▁women 's
▁class es
▁bại ,
▁issu e.
▁Comm on
▁Bar ry
▁Â u,
▁Độ ,
▁hop e.
▁Min ecraft
▁occur s
▁neck .
▁nail s
▁societ y.
▁physic ian
▁Ray mond
▁illeg al
▁Contin ue
▁relev ant
▁Nintend o
U .
c us
t 's
▁c raft
▁th rew
▁l a.
▁v ẹt
▁k itt
▁ch ẽ
▁d ens
an ut
▁o h,
▁r ò
us ic
▁S ở
▁S ức
▁ta ck
▁M as
▁M anh
▁Đ ô
▁( 7
▁( wh
▁( không
um ent.
ra h
▁pe ace.
use um
iz ed.
▁en ab
og g
▁xu a
▁vu i,
▁hu g
▁inst ant
▁chí ,
▁sit e.
▁experi ence,
▁nhẹ .
▁stre et.
▁prof ound
▁Re al
▁Pr om
▁breat h.
▁cap ab
▁fall s
▁trust .
▁business es
▁cop s
▁Sam .
▁iP od
▁Tu ần
▁197 0
▁depress ion.
▁refer red
▁moist ure
▁Other wise,
▁(n ếu
▁Afghan istan
▁uh ...
▁Nap ole
▁resc ue
▁Tai w
b ble
▁s ói
in y
▁tr unk
▁T ed
▁C ầu
▁B ook
▁M ah
▁Ch ơi
▁st ress,
▁Đ ứa
▁li ễu
▁ra ising
▁D ie
▁P C
if er
if e.
pp ed.
▁đây :
▁hay ,
ry pt
og ue
▁part y,
▁down ?
▁There fore
▁chuy ền
▁yourself ?
▁trung .
▁10 %
▁inst itution
▁aw ful
▁includ ed
▁200 8
▁home work
▁ret ire
ris on
▁press ure.
▁thoát .
▁Bl ood
▁bro k
▁war ri
▁par ad
▁Ro ose
▁Bar b
▁oper ation
▁mov ies
▁hung ry
▁Eng land
▁market ing
▁express ion
▁hor rible
▁tri ang
▁attract ive
bod y,
▁tempor ary
▁ngự a.
▁Germ any
▁over- the-counter
▁bast ard
▁analys is
▁teasp oon
r ase
u ild
▁ ́
▁n asal
▁l ens
▁l ặng.
▁k iện.
▁ch inh
on ic
▁y e
en ?
▁T em
▁T op
▁N SA
▁Ch ó
▁con ver
▁L an,
▁cả ng
▁" không
▁P our
▁Nh iệm
▁O m
▁up load
▁ti e
▁St ore
▁sc ore
▁down st
▁pers ist
▁fl ood
▁chu ồng
▁cle an,
▁supp ress
▁ass oc
▁tư ,
▁cre ep
▁effect .
▁Sp end
▁stat ements
▁reach ing
▁Any one
▁Put in
▁ur ine
▁benef icial
▁threat en
▁ann ual
▁throw ing
▁cry ing
▁init i
▁tens ion
▁commit ment
▁funn y.
▁coc onut
▁surve ill
▁Chand ler
▁Hous e.
▁Sav age
▁supple ments
L :
h ap
n oon
v ing,
ỡ n
on ents
▁o '
▁T âm
▁T àu
▁ng ấm
▁r ay
▁C at
et t,
▁B onn
▁M id
▁M IT
▁nó !
▁for m.
▁Ch ứng
▁Ch uck
▁con ference
▁lo an
▁( R
▁R us
▁out l
▁they ?
▁Tr ộn
▁ti ễn
ick s
▁our selves.
▁should ers
▁co ordin
▁off ers
▁res olve
▁hỏi :
▁sy nd
▁belie ves
▁pol ice.
▁giác ,
▁ent reprene
▁Cl ar
▁200 9
▁tệ ,
▁lạc .
▁mod erate
▁protect ed
▁Bl u
▁const ruction
▁behavi ors
▁window s
▁technolog ies
▁sto pping
▁Me an
▁Par is.
▁aud io
▁dress ed
▁gar b
▁controll ing
▁dut y
▁suic ide
▁Pak istan
▁bos s.
▁Span ish
▁Myan mar
▁enorm ous
o ke
z o
▁n ến
▁h en
▁m ép
▁l ội
▁v amp
▁g ender
▁d ập
▁p ages
on t.
re ,
▁T ài
or ith
▁Th ể
▁Th er
▁S ản
▁ngh ẹt
▁V en
▁cá o.
st e
▁so le
▁di ễn.
▁ad ap
▁bl ess
▁' h
▁phát .
▁ar ter
▁even ing
▁Đây ,
▁ins ide,
▁str ing
▁hard ,
▁lòng ,
▁understand ,
▁top .
▁xấu ,
▁wrong ?
▁vide os
▁conc ert
▁rượu ,
▁cond ition.
▁reason able
▁bi ological
▁dri ves
▁prec ious
▁mad e.
▁Kore a
▁colleag ues
▁veter in
▁Child ren
▁Holly wood
P .
o ves
ấ ng
ẩ y.
▁g ai
in ?
▁p as
▁nh ồi
▁T .
▁N ations
▁A ud
▁M ond
▁cho osing
▁Ch ạm
▁V ết
▁( ng
▁thế !
▁just ice
▁pl ate
oc ol
iz e.
per t
▁res id
▁' B
▁start ed.
▁cấp ,
▁ins ult
▁few er
▁7 2
ren ce
▁200 9,
▁12 ,
▁chàng .
▁else ?
▁thi êu
▁art ist
▁step .
▁psych ological
▁ke ys
▁et c
▁engine er
▁dro ve
▁purpos e.
▁Fel ic
rast ruct
A ,
▁ −
▁ êm
▁n ặng,
▁đ ục
▁h èn
▁m ol
▁m ắn.
▁l ở
▁ch uộc
▁d ừa
▁C ,
▁C T
et o
▁A z
▁ta i.
▁cho áng
▁ra il
▁G reg
▁su lf
▁lo .
▁( 5
ell ing
▁điều .
ud e.
▁en able
▁Q uyết
▁work ?
anc ing
▁20 %
▁4 2
▁dr own
▁biến ,
▁reg ion.
▁Fr ance
▁cụ t
▁chó ng.
▁cut s
▁John ny
▁Frank ,
▁ident ity
▁ship s
▁town ,
▁Bu ild
bur g
▁introdu ced
▁desk top
▁Chicag o
▁alg orith
▁hab its
▁iTun es
l ist
s es
y t
▁c ord
▁đ ới
▁l én
in ate
▁tr ơn
▁f ish,
▁C ost
ch o
om an
qu ar
le ?
▁qu ế
▁M eg
▁nà n
▁do se
os aur
▁L ock
▁have ?
▁P ok
▁R ef
▁le ak
▁sp are
▁sp ots
▁who ever
▁off ice,
▁' H
▁hắn ?
▁chuy ển.
▁rec all
▁ổ n,
az e
▁blood ,
▁cut e
▁Se a.
▁Mẹ ,
▁pur sue
▁yên .
ism s
▁land sc
▁compan y,
▁pack age
rodu ct
▁bacter ial
▁disapp eared
▁capt ured
▁lad y.
▁stup id.
▁surround ed
▁injur y
▁propert ies
▁Sant a
▁antibiot ics
▁Dann y
▁shad ow
▁Fire f
▁accur ate
▁convinc ed
▁htt ps
▁bask et
▁Roose vel
c end
h es
u ct
▁c raw
▁s ương
▁m amm
▁l ề
▁l ấn
▁l ine,
▁p ant
on es,
it arian
is ol
▁ng ất
▁I S
▁C op
▁ph ế
▁gi un
om ,
ve ,
▁Th o
▁B ad
▁x ôi
out .
ad a
▁L ily
▁lo ving
▁( like
ol ute
▁out er
▁see ?
▁Ng u
▁which ,
▁tw e
▁tw ist
▁Ho ll
▁đủ ,
▁inv is
▁Sao ,
ott ed
▁hard ware
▁wait ,
▁ang el
com ing
▁Ro ll
▁"H ãy
▁win ning
▁affect s
pr int
▁meas ures
▁consum ption
▁diseas es
-1 0
▁Claire .
▁Oliver ,
▁decl ared
▁restaur ant
▁guarant ee
▁om ega
▁Clint on
E S
M .
▁b ike
▁l ự
er b
er k
▁w ard
▁ng ừ
▁ng ẫm
▁I v
▁r ổ
▁r ip
▁N út
▁M ười
▁H ur
ac c
▁G ide
▁so i
▁E st
▁( "
▁O s
▁J ones
▁may b
▁Ng uy
▁br an
▁Ph ó
▁chứ !
▁sử ,
▁tw enty
▁' v
▁app et
▁comp ound
▁Gi ới
▁ro ad.
▁cr ash
▁own er
▁play s
▁exper ts
▁quanh ,
▁examp le.
▁Not ice
▁ext end
▁rest ore
▁move ,
▁build ings
▁test oster
▁leg s.
▁fre ak
▁18 7
▁walk s
▁fac ed
enn is
▁emot ions.
▁sens e,
▁z one
▁dang er.
▁attack ed
▁Col or
▁Col umb
▁OK .
▁(V ideo
▁Ben j
▁attract ed
▁bó ng.
▁(M usic
▁ham ster
▁tooth p
▁rough ly
▁launch ed
▁flav or
▁'M ình
▁plat form
▁nè .
▁brill iant
▁ultim ately
▁https ://
n ut
w ater
▁ ấu
▁c ộ
▁s ọ
▁h iếu
▁l úa
▁g ent
▁g ly
▁d ried
▁kh iếm
▁tr ies
▁r ig
▁qu ạt
▁B ull
▁M ack
▁H an
▁H ist
▁H yd
▁re ally.
▁u na
▁L ực
▁or ient
▁G ửi
▁biết ?
▁O d
▁F ound
▁di arrhe
ment s,
▁man if
▁dis ab
ical ,
▁chú .
▁thị t.
▁des crib
▁kỳ .
▁tinh ,
▁important ly,
▁201 5
▁beg un
▁200 8,
▁dist ribut
▁che ese
▁vide o,
▁consider ing
▁mem ory.
▁plac ing
▁phê .
▁"N ếu
▁par ag
▁Ro ber
▁suggest ed
▁period .
▁search ing
▁dương .
▁Afric a.
▁Gu ess
▁rub ber
▁capt ure
▁maintain ing
▁unc ertain
▁thr own
▁daught er,
▁cooper ation
▁"It 's
▁ast ron
▁Altern atively,
▁Manh att
1 2
O R
l i
o field
r ight,
s on,
▁ ẩn.
▁đ ần
▁s ed
▁v ẩn
▁g y
▁kh ép
▁ng on.
▁r ational
▁C are
ic ations
▁x i
▁M ind
▁M iam
▁ho an
ke ep
▁V l
▁L am
our n
▁F ox
▁al ive,
▁ca ut
▁We 'd
ia 's
▁St alin
▁sản ,
▁tra pped
▁dec ade
▁dù m
▁op en,
▁8 00
▁Cl ark
▁201 3
▁200 7
▁ear s
▁name 's
▁Get ting
▁matter ,
▁product s.
▁support ed
▁sắc ,
▁redu ced
▁stor age
▁thai ,
▁invol ved.
▁ident ified
▁rece iving
▁rid ing
▁cust omer
▁Alex and
▁animal s.
▁push ed
▁network .
▁Don n
▁exam ine
▁marri ed.
▁farm ers
Cl oud
▁Hanna h
▁dair y
▁withd raw
▁hars h
▁veterin arian
- T
h ouse
l in.
▁ 00
▁t ôm
▁c úi
▁a ward
▁b ế
▁h ái
▁l ap
▁l ọt
▁l ưng.
er "
▁ch ớp
▁d âng
▁nh óm.
▁tr ash
▁I C
▁C row
et ing
us ter
▁Th ức
▁H ạn
▁Ch ồng
▁st ay.
os p
▁sa il
▁P ret
▁1 ⁄
▁so on,
op her
▁Nh ất
▁( 6
▁( p
▁F ig
▁us e,
▁all eg
▁U k
▁sau ce
ick ,
are st
▁feel ing.
▁gr ay
▁happ y,
ea h
▁after noon
▁6 5
▁ins ight
▁fact s
▁fact ory
▁health y.
▁def e
▁mom .
▁án ,
▁ref use
▁stre ets
▁Sc arl
▁art ic
▁adv is
▁Ind ia,
▁contain ing
▁ste aling
▁trứng .
▁vol ume
▁log ic
▁murder ed
▁har vest
▁Jos h
▁Des pite
▁disord er
▁attach ed
▁só t.
▁á o,
▁libr ary
▁cừ u
▁Counc il
▁unn ecess
▁Sup reme
1 5
D A
p ing
u um
▁ ×
▁t ươ
▁c in
▁c ặn
▁c ưỡi
▁th à
▁l ụ
▁d ow
▁p ants
▁tr ace
▁tr ốn.
▁ng ư
▁r ưỡi
▁C and
▁ph ông
▁N ight
us h,
▁S T
▁M aking
▁đó i.
▁Ch ân
ke y.
▁u l
▁L as
▁K am
▁lo a
▁F il
▁de ploy
king .
▁le ather
ri ch
▁sp ouse
▁some one,
▁lu ỹ
ach .
ial .
ob b
▁tình .
▁res ident
▁' E
▁tập ,
▁per oxide
▁rem ed
▁tên ,
▁dr y,
▁inf rastruct
▁ser ious.
▁dec or
▁lot ,
▁Qu ần
olog ists
▁eas iest
▁chó ,
▁9 ,
▁second ,
▁def ine
▁Americ a's
▁đọc .
▁hồi .
▁econom y.
▁techn ique
▁Pr in
▁land .
▁dream .
▁Â u.
▁perform ed
▁iP ad
▁cú m
▁Mon ic
▁irrit ate
▁celebr ate
▁cow ork
▁Mus lim
▁unh e
▁veh icle
▁Hol m
▁sne ak
▁nệ m
▁Esp ecially
▁Snap ch
etamin oph
▁(Video )
N .
c ement
l ar
▁c rap
▁n ắng.
▁đ ùi
▁b ầy
▁l ũng
al e.
▁qu ặc
▁S ounds
▁ta g
▁M ối
▁W ood
▁sh ark
▁ab use
▁( a
▁ấy !
▁ag ricult
are ,
▁bắt .
▁bu bble
▁before ?
▁cr own
▁hand ling
▁cháu ,
▁8 .
▁Cl ose
▁conf idence.
▁trans p
▁12 .
▁adv ance
▁hôn ,
▁activ ities.
▁cứng .
▁Fl oren
▁Com b
▁fur th
▁ur ge
▁prep aring
▁dai ly.
▁bal anced
▁viol ent
▁Washing ton,
▁glass es
▁partn er,
▁decis ion.
▁pros per
▁fol k
▁mer ely
▁thre e.
ww w.
▁Dou g
▁Amaz on
▁fert iliz
▁sacr ific
▁tamp on
▁eld er
d ,
f ish
ẵ n.
▁c age
▁m m
▁k iến.
▁ch arm
▁w in.
▁d ậy,
on a
▁y ö
▁nh ăn
▁kh âu
en 's
ed s
▁qu í
▁Th or
▁S aint
▁B ả
▁H ẹn
▁re ven
▁V ô
ad el
ill ,
▁with ?
▁F ion
▁my th
▁al ien
ind er
▁Tr uy
▁pe el
▁int ended
▁man !
iz ed,
▁could .
iv ity.
▁every where.
▁cont amin
▁' n
▁' Đ
▁app .
▁let s
▁bo ld
▁chang ed.
▁dẫn ,
▁xác ,
▁high .
▁uống ,
▁thử .
▁night m
▁list en,
▁ent ering
arl iam
▁form ed
az z
▁ok ?
▁yếu .
▁cur ious
wh ile,
▁nhẹ ,
▁lá ,
▁Pr ime
▁suc cess.
▁ang ry.
▁vir us.
▁event .
▁ste el
▁technolog y,
▁mov ing.
▁beautiful ,
▁condition s.
▁relax ing
▁tiếc ,
▁cross ed
▁capt ain
▁prec is
▁conv ict
▁belong s
▁'C h
▁dollar s.
▁riê ng,
▁batter y
▁Cub a
▁Lincol n
▁(e.g. ,
- 5
B :
B C
d i
Ứ ng
▁b oo
▁h ân
▁m ề
▁d erm
▁nh út
▁tr a,
it ual
▁ng ần
▁r áp
▁N umber
▁S D
▁H ẳn
▁Ch am
▁Ch urch
▁st aring
▁Y ear
▁an k
ir .
em ble
em ploy
▁K em
st ru
▁độ i,
▁us ers
▁get .
▁got .
▁br u
▁where ver
▁khu ẩn.
▁20 th
▁hiệu .
▁vi br
▁201 5,
▁9 9
▁next .
▁disc our
▁mật ,
▁ret ain
▁law ,
▁Á o
▁itself ,
▁today 's
▁apart ment.
▁Mor g
▁pill ow
▁trut h,
bre ak
▁siz e.
▁Đị nh
▁territor ial
▁pian o
▁sout hern
▁permiss ion
▁forgott en
▁cogn itive
▁unlik ely
▁Uk rain
A pp
a h.
g es.
p ass
r .
r um
t r
u ing
u ous
ã nh
ng u
▁c ert
▁n ướng.
▁l id
▁l ách
▁v ượng
▁g ậy
▁d ign
▁d edic
▁p ir
▁nh ị
▁nh ức
▁r ỗng
▁qu ar
▁S oph
▁M oll
▁Ch os
▁Ch a,
▁Y an
▁V ũ
▁G ard
▁Wh y,
▁F e
▁F ur
▁will ,
▁U g
▁pr ime
▁back up
he im
▁Ph ản
ob ic
▁phần .
▁am ,
▁new s,
▁fl ush
▁đo án.
▁ứng ,
▁ask .
▁ins pect
▁kind .
▁ind eed
▁phép .
▁hộ .
▁interest s.
▁chắn ,
▁saf ely
▁control s
▁partic les
▁mark et.
▁par as
▁Tây .
▁cold ,
▁Intern et.
▁Col in
▁educ ation,
▁ship .
▁ke y.
▁repres ents
▁setting s
▁dặ m.
▁Californ ia.
▁perspect ive.
▁spirit ual
▁Bel ieve
▁đố m
▁virt ual
▁oft en.
▁dà y.
▁Mosc ow
▁Lie uten
▁diam ond
▁Therefore ,
▁Firef ox
O M
t y.
▁ #
▁ >
▁c ouch
▁đ ạm
▁w ere.
in n
▁d ê
▁d ough
it s.
▁C ather
▁gi ỡn
▁A ri
▁S ure,
ong ,
uy ến
▁V P
▁we ight,
▁D ude,
▁P en
▁1 :
▁R u
▁F ood
ab b
▁le ver
▁cái ,
▁them selves,
... "
▁tu ỷ
▁Ph ật
og rap
▁part ,
▁way ?
▁vi ền
▁chắc .
ons cious
▁màu ,
▁care ,
▁both .
▁Br ad
▁Ngh ệ
▁stay s
▁hả o,
▁sạch ,
▁wait ed
▁hom es
▁Se ek
▁che er
▁hạt ,
br ush
▁commun ity,
rat or
▁quick ly,
▁stat e,
▁John n
▁team s
▁contact .
▁trụ .
▁strength en
▁hor r
▁Charl ott
▁sod ium
▁peace ful
▁deliver ed
▁vegetab les,
▁mout h,
▁Camp uch
▁newspap er
▁charact ers
▁rộ ng.
▁muộ n.
▁Pho eb
l ing.
ậ m.
▁ ẩm.
▁l es
▁ch áy.
▁nh ọn
▁tr ỏ
▁f its
▁r ỗi
▁C ơn
▁ph àn
▁in du
▁N ich
ic op
▁be lly
▁M ới
▁H ard
▁re ass
▁Ch ang
▁ngh ẽ
▁sa i,
▁L iber
▁P .
▁Nh ẹ
ol it
▁pro ven
▁J in
▁bằng ,
▁where 's
▁little .
▁str ict
▁viết ,
▁mind ful
▁conf us
▁ext ended
▁health y,
▁cre ation
▁ret urn.
▁air ,
▁sớ m,
▁thở ,
▁far ,
▁outs ide,
▁house ?
0. 000
▁clos ing
▁bang ,
te en
▁stuff ,
▁Sam ,
▁Jam es,
▁rout e
▁hã i,
▁Afric a,
▁trave ling
▁stru ck
▁harm ful
▁80 %
▁install ed
▁Pat rick
▁inse c
▁cod e.
▁budd y.
▁anxiet y.
▁concret e
▁Febru ary
) :
k ins
▁s ưởi
▁v ice
an i
▁T ử
▁C ook
▁C ooper
▁in fer
as y
▁S on
▁B it
▁ha z
▁st able
▁ngh iệt
▁con qu
▁Y es
▁Y o,
os is.
▁V as
▁D ừng
▁L or
if fer
▁he at.
▁j unk
▁su n.
▁R ather
▁R agn
▁ex -
▁nghĩ a,
▁know led
▁al oe
un ction
▁J av
▁vì ,
ri x
▁đồ ,
ous e.
▁kết .
▁tình ,
▁comp onent
▁down !
▁Am y
▁end orph
▁ass emb
▁Is ab
▁another ,
▁met ers
▁run ,
▁sit es
▁khách .
▁cur ren
▁prog ress.
▁complet ed
▁walk .
▁nghỉ .
▁eng aging
▁langu age,
▁offic ers
▁bạc .
▁environ ment,
▁Add ition
▁relax .
▁khứ ,
▁sweet he
▁laugh ing
▁Dec ide
▁bor n.
▁regard ing
▁wid ely
▁Fore ign
▁Tomm y
▁gluc ose
B .
b oy
w r
▁c ào
▁đ ĩ
▁m ouse
▁ch ur
▁ch én
▁g ừng
it ory
es c
▁C ass
▁C oul
▁gi eo
▁e -
▁Th ả
▁Y es.
▁Đ ế
▁Đ em
ill ion
▁D ấu
▁L ũ
▁L ay
▁G I
il ant
▁de ce
▁al ign
ie v
▁man ner
▁ever .
ach e
▁St arl
▁after ward
ull y
▁cons c
▁đơn ,
▁sl ave
▁quốc .
▁Qu ảng
▁inv as
▁201 3,
▁nhé !
over ,
▁kì a!
▁lệ ,
▁level ,
▁comput er's
▁opp osed
▁val ue.
▁ed it
▁dam aged
▁elect ronic
▁fall en
▁hậu .
▁class ic
▁mã nh
▁dry ing
▁Car ter
▁cool ,
▁comb ined
▁TV ,
▁success fully
▁Mac ,
▁skill s.
▁anx ious
▁Charl ie.
▁tax i
▁resour ce
▁tonight ?
▁reput ation
▁instr ument
▁kidd ing
▁cruc ial
▁pas seng
b y.
ờ ng
▁th ôn
▁b ến
▁b ầm
▁v iệt
er !
▁g rief
is ions
▁ng ậm
om a
▁A k
le ad
ic on
▁be ing.
▁Ch ả
▁Ch ết
▁an onym
ir ,
▁D ad.
▁L uck
▁G iết
▁se en.
▁Wh it
▁kn ees
▁F .
▁de br
▁from ,
un ,
▁J ason
▁ca ps
▁sp oon
▁nhà m
ap y
▁would .
▁way s,
▁5 5
▁kill s
▁cle ared
▁count ing
▁vực ,
olog y.
▁quân .
▁form at
▁grow s
▁doctor ,
▁vis ited
▁expl o
▁air pl
▁air craft
▁xuyên ,
▁sho es.
▁stre am
▁Sc ofield
▁protect ive
▁control ,
▁cell s,
▁"S t
▁team ,
▁rad ical
▁Jam es.
▁histor ical
▁depress ion,
▁Mal ays
▁2, 5
▁warn ed
▁Joe y,
▁princip les
▁dram atic
▁circumst ances
j ud
n o,
r ation.
w orth
▁t át
▁n ice,
▁đ ắn.
▁b ách
▁l ười
▁d õ
▁d uck
▁p ond
▁to ys
▁T inh
▁r ừng.
om s
▁A I
▁A y
▁S ister
▁B àn
▁x át
▁con vent
ad or
▁K id
▁P u
▁P erc
▁as ham
▁G ra
▁was t
▁E arl
▁F ord
ell ed
▁her !
▁What s
▁no ble
▁en velop
▁St ra
▁St ick
▁Ph ill
iv alent
▁dis pos
▁sc rap
▁đặt .
▁ind o
▁201 7
▁Mar s
▁form ul
▁interest ing.
▁meet ing.
▁col or,
▁human ity
▁leg end
▁press ing
▁caus e.
▁cell .
▁short ,
▁phúc ,
▁store s.
▁Á ,
▁lim its
▁oper ate
▁song .
▁technolog y.
▁Thôi ,
▁anymore ,
▁Geor ge,
▁threat ening
▁exercis e,
▁Don ald
▁ngơi .
▁significant ly
▁pros pect
▁Nob el
▁base ball
▁(N h
▁bes ide
▁secur ity.
▁dent ist
▁Grou p
▁este em
2 00
g ram
▁th y
▁th ầu
▁n t
▁b ổng
▁ch ật
▁o v
or ous
▁r itual
▁ph ras
▁S ang
▁B ing
▁W ars
▁cho àng
▁Đ ủ
▁V ùng
▁D eep
▁L ead
▁K al
▁E vent
▁ex fol
▁ca res
ast .
▁need ,
▁Ng a.
▁pr one
▁now here
▁un employ
▁res erv
▁wat ers
▁chết ?
▁happ en,
▁dif f
▁min e,
▁chuyển ,
▁end ing
▁vẻ ,
▁happen ?
▁sch em
▁giả ,
▁mind ?
▁chi êu
▁mus ical
▁hại ,
▁gener ate
▁"C ó
▁char ged
▁press ure,
▁mũ i,
▁del ight
▁cell s.
▁plant .
▁near by
▁dần .
▁box ,
▁pap er,
com /
▁proper ly.
▁pract ical
▁drug s.
▁rout er
▁Ma jor
▁detail ed
▁spread ing
▁animal s,
▁mis under
▁tick et
▁Californ ia,
▁Mike ,
▁Franc is
▁nav al
▁replac ed
▁á ?
▁hyp oth
▁exch ang
▁pock et
▁Haw ai
▁Kev in
▁Nath an
▁Mik e.
▁satell ite
▁cigare tt
▁unexpect ed
▁assoc iate
▁unhe alth
B A
L )
a gh
b ow
k ind
u gg
ớ m
▁t ơ
▁t ảo
▁đ ẽ
▁s áo
▁b ự
▁b ưu
▁h óc
▁v ẹn
▁p enc
▁p orn
▁tr act
▁o at
▁T est
▁r od
▁A im
▁qu ất
▁S om
▁B al
▁B os
▁B ond
▁wh e
▁M ời
▁M ath
▁H ít
im es.
▁ngh è
▁con vert
▁D ouble
ac us
▁are ?
▁mà i
▁" ph
▁R .
▁us er
ig nt
ip .
▁thu ận.
▁thông ,
▁res olution
▁20 .
▁att itud
▁gần .
▁trang ,
▁luật ,
▁dầu ,
▁dep th
▁ret ail
▁doctor 's
▁i Cloud
▁book s.
▁book s,
▁else 's
▁sym path
▁tre e.
▁thiện ,
▁$ 3
▁direct ion.
▁const ip
▁kính .
▁touch .
▁abs olute
▁fat ty
▁project .
full y,
▁Pol it
▁avail able.
▁polic y.
▁worry ing
▁Earth ,
▁collect ive
▁cook ed
▁spot .
▁Mal col
▁hone y,
ene z
▁cry st
▁join ing
▁purch ased
▁Ital ian
▁dưỡ ng.
▁larg ely
▁sac red
▁Whats App
L E
e y.
l .
v in
z ing
ỏ ng,
▁ ib
▁m úa
in ent
it a,
▁T R
▁T edd
▁T PP
▁f ate
▁C ăn
▁C orn
ch ild
▁A bb
▁Th rough
▁M ann
▁M ùa
im .
▁do p
▁W o
▁con ?
▁K o
▁F air
▁her o.
▁Do ctor
▁Ng ôi
own ,
▁St ep
▁act ually.
▁20 2
▁through ,
▁car p
▁When ever
▁dec ent
▁health ,
▁200 7,
▁problem ?
▁sub m
▁ant icip
att le
▁breat hing.
▁connect ions
▁John son
▁group ,
▁"A nd
▁lông .
▁touch ed
▁rob ots
▁burn s
▁tend s
▁bur st
▁bag s
▁Mac .
▁fill ing
▁collect ion
▁Facebook ,
▁Facebook .
▁strateg ies
▁Sim ilar
▁princ iple
▁autom atic
▁particip ate
▁previous ly
▁prin ter
▁lử a,
▁xí u
▁prote in.
▁GP S
▁squee ze
▁Drawsk o
▁parag raph
▁Nich ol
▁ib uprof
b ,
k es.
o !
p ly
p he
ứ a,
▁n od
▁n aked
▁s uốt.
▁b anh
▁m ush
▁ch iết
in fl
on s,
an e,
▁to ạ
▁r ải
▁ph ết
▁N AT
▁be ver
▁S A
▁M ắt
▁st ub
▁li u
▁D ì
▁D ere
ro b
▁sh ave
▁or ,
▁P il
▁this ...
pp y
▁ab st
▁Nh ĩ
▁pro ph
ink le
▁kho e
▁He 'd
▁lu ân
ia ?
pl ay
▁In vest
▁nhau ?
▁under ground
▁19 50
▁X o
ock ,
▁fin ally,
ative ,
▁met .
▁produ ces
▁9 .
▁exp ans
▁lat e,
▁dog ,
▁Sc ar
▁Go ing
▁hur ting
▁del ete
▁Har ry.
▁pleas ant
▁store ,
▁mạch ,
▁fav our
▁Intern et,
▁fat ig
▁nổ .
▁mát -xa
▁threat ened
▁"Th at
▁Pháp ,
▁mic row
▁khổ .
▁Te chn
▁weak ness
▁Gl ad
▁tuý .
▁Cent er
▁Jes us,
▁Ass oci
▁Rob b
▁Claire ,
▁mè o,
▁micro b
▁ngươ i,
▁vess el
▁shel ter
▁abandon ed
▁fulf ill
▁Lin ux
▁Singap ore
▁Gree k
▁(Music )
adel ph
M L
V .
m e
s '
▁n ạc
▁b ắn.
▁m int
▁k iêu
▁w and
▁y es
▁r ệ
▁r ét
▁C os
▁B ud
▁B rian
▁bạn !
▁H om
▁re ct
▁Ch ap
▁st olen
▁V ừa
▁L ượng
▁K os
▁K ans
▁P ass
▁F riend
ab eth
un n
▁want ed.
▁sp ider
▁ti es
▁tìm .
▁lu ồng
▁hel icop
▁ag end
▁' V
▁person ally
▁kill er.
▁thị ,
ible ,
▁inv it
▁eas y,
▁beh ave
▁interest .
▁det erg
▁nhiễ m.
▁Where 'd
▁clean er
▁begin ning.
▁dem ocratic
▁sing ing
▁risk .
▁phê ,
▁window ,
▁perfect .
▁project ,
▁enjoy ed
▁canc el
▁educ ation.
▁sus p
▁discuss ion
▁mis er
▁defin ition
▁heav ily
▁mood .
▁Phil adelph
▁ahe ad,
▁Fed eral
▁Gry f
▁Spec ial
Q u
j o
p es
y "
▁c ua
▁th igh
▁n ose.
▁đ ít
▁s ib
▁h itting
▁m út
▁m ấu
▁v ắt
▁w ise
▁g ắt
▁d raft
▁y .
▁T iêu
▁ng uyện.
▁I ron
▁S ống
▁ta ct
▁B iến
▁B ốn
▁x en
▁M RI
id ence,
▁Đ ề
▁D ịch
▁D rop
ro v
▁" X
st one
▁E du
▁R i
▁R AM
▁com ing,
▁J i
ip er
ach es
▁cuộc .
▁co inc
▁te ch
▁res ulting
▁X -
▁hand ed
▁For g
▁des p
▁being s
▁Al bert
aw a
▁acc um
▁found ed
▁Cl ub
▁201 6
▁Br un
▁def eat
▁ear ly.
▁dist ingu
▁remember ?
▁product ive
▁eat en
▁Pl us,
▁adv oc
▁De an
▁Keep ing
▁lệnh .
▁mơ .
▁impro ving
ane ous
▁enjoy ing
▁sn ap
▁position ,
▁div ide
▁webs ite.
▁Sim on
▁Micha el,
▁den y
▁assist ance
▁rare ly
▁emotion ally
▁chớ ?
▁disput es
▁obst ac
▁tatt oo
▁ath let
▁blad der
▁Ox ford
7 0
O P
b ul
g a
i êm
▁c uống
▁n arr
▁s ẵn.
▁b ấy
▁b ỗng
▁m ud
ou red
▁g ót
▁d uyên
an a.
▁ng ạt
▁r ớt
▁r ộp
ed ge
▁ph rase
le m
▁B ổ
▁B ow
▁B arn
▁B ush
▁re ck
▁cho ice,
▁D or
▁L ịch
▁P oll
▁lo gged
▁Ng âm
▁3 8
▁te a,
▁let ter.
enc es,
▁po em
▁lot ion
▁different ly
▁ind ex
▁prot est
▁nat ure.
▁đông ,
ov ,
▁feeling s,
▁direct ed
▁result ,
▁elect ed
▁difficult .
▁percent age
▁account s
▁mát .
▁circ ular
▁Â m
▁lay ers
▁Pol ice
▁secret s
▁Độ .
▁smell s
▁claim ed
▁Tom orrow
▁Te ach
▁consum er
▁vers us
▁pill s
▁subst ant
▁ep id
▁faster .
▁Arm y
▁asleep .
▁judg ment
▁vacc ine
▁nutri ent
▁volunte er
▁Bus iness
▁cos m
▁Chos zcz
m en.
▁m art
▁m ịn
▁nh ắn.
▁kh inh
it i
is ion.
▁f at.
ll a
▁S ame
▁ta o,
▁M P
▁M ón
▁H alf
▁W y
am a.
▁for b
▁ho ạn
▁D om
▁L ãnh
▁" Ô
▁" st
if ice
▁G on
▁G and
▁G ame
ag o
▁ex it
▁Tr ắng
▁di et,
▁pe anut
▁un re
▁X ã
▁cr amp
▁ít .
▁Is lam
▁different ,
▁happen s.
▁reg ime
▁Qu ản
▁play ers
ren al
▁ent ry
▁200 6,
▁men stru
▁30 %
▁toà .
▁vis iting
▁Who a,
▁ref used
▁product .
ement ,
▁mark s
▁hur ry
▁clear ,
▁train ing.
▁buồn ,
▁dat e,
▁equ ally
▁equ ivalent
▁Rem ind
▁"M ình
▁issu es,
▁tắm ,
▁ground ,
▁ill ust
▁tộc ,
▁fast ,
▁tiệc .
▁qual ities
▁chả y.
▁"t r
▁mắn ,
▁alcohol .
▁"Wh y
▁univers ity
▁doc uments
▁Lond on,
▁$1 00
▁active ly
▁Mexic o.
▁recover y
▁scal p
▁resist ance
▁sustain able
▁clin ical
▁chạ y,
▁Sat ur
▁rapid ly
▁anxiet y,
▁diplom atic
▁Main tain
▁sill y
▁vom it
▁muscl es.
▁sovere ignt
▁Exerc ise
A C
w or
y stem
▁t ut
▁t y,
▁th ạo
▁h ưng
▁ch ánh
in er
▁p y
▁p od
▁kh iết
an z
en z
ar on
ic ide
▁be ating
▁S weet
▁B i
▁B í
▁M omm
im b
▁is :
▁V ui
▁D ark
▁P ur
▁G entle
▁G mail
▁was ting
▁so ph
▁su m
▁( U
▁kn ee
▁F u
ell .
▁com ments
▁pro ved
▁pro port
▁di ed,
▁di zz
ap or
▁bec ause,
iz ation.
▁3 3
▁dùng ,
▁res emb
▁comp os
▁vị t
▁new ,
▁chứng ,
▁car ?
▁mở ,
▁hum an.
▁lã m
▁ey el
▁cour ts
▁remember ed
▁Sc roll
▁thi êng
▁direct ions
▁strong .
▁strong ly
▁program ,
▁Á .
▁everyone 's
▁soon er
▁dest ruct
▁tây ,
▁suff ered
▁tường ,
▁rout ine.
▁exist .
▁obs ess
▁bank s
▁remind s
▁Sw ed
▁dad 's
▁example :
▁continu ing
▁70 %
▁investig ation
▁Ber lin
▁nur se
▁sect ion.
▁escap e.
▁surve y
▁fif th
▁maxim um
▁schol ars
▁anyway ?
▁Pok é
L L
e en
g er.
l ight.
n ik
o king
▁c ăm
▁c ens
▁th ỉ
▁n ộ
▁đ ầm
▁s ized
▁b ot
▁l anh
▁tr y.
is s,
▁T ib
▁f ir
▁ph ase
ar ies.
▁be er
▁W ard
el ess,
am i
am e,
▁Ch ấp
▁D ur
▁K it
▁me al.
▁O sc
se ll
▁bị t
▁J as
ack .
▁ca ke
ri a
▁sp aces
▁ti ps
ber ry
▁gr ains
▁bo ard.
▁kinh ,
▁car ing
▁tuyệt ,
▁bàn ,
▁plan e.
▁hour ,
▁stop s
▁loc ate
▁Z eal
▁phạm ,
▁rộng ,
▁rối ,
▁quên .
▁techn ical
▁doanh .
▁De bb
▁cop e
▁11 ,
▁chiều .
▁ngắn ,
▁fat s
▁sun light
▁view s
▁research ers
▁tộc .
▁sick ,
▁khóc .
▁Sim ply
▁Ac cept
▁jump ed
▁subst ance
▁unp leas
▁sin us
▁Bre ak
▁Way ne
▁sna ke
▁cous in
▁reh ab
▁Colon el
▁mosqu ito
▁Glob al
▁tở m
▁adequ ate
▁etc ..
- 8
m ed
o -
p le.
r ary
▁a ...
▁l act
▁p up
▁p ork
▁kh ủ
is d
▁T al
▁T ừng
▁f isher
▁ng ây
▁C ao
▁e o
▁N G
ic oster
▁S W
▁B en,
▁H ơi
▁Đ ỏ
▁cá u
▁D S
▁D ai
▁L yd
▁sh er
▁mà ?
▁" qu
▁at ?
▁( 201
▁And y
▁com e,
▁pl an,
rou s
▁un fortun
▁sc ience.
▁app s
ens h
▁tài .
hip s
▁mat t
▁acc eler
▁Qu a
▁conf ess
▁form ing
▁New s
▁súng ,
yl van
▁clos est
▁box es
▁hát .
▁langu ages
▁record ed
▁meas uring
▁recogn ized
iff .
▁div ided
▁grad uate
▁Me et
▁deb ate
▁amaz ing.
▁Ob vious
▁earth .
▁prim arily
▁pros ecut
▁Off ic
-x ít
▁bound aries
▁regard less
▁schedu le.
▁mole cul
▁teen ag
▁Europ e.
▁Europ e,
▁neighb ors
▁wra pped
▁cock tail
▁Spe ak
▁laund ry
▁Vl ad
icoster oid
' all
I S
K .
c are
l ,
r ig
ứ t.
▁v ần
▁ch ốn
at ure,
▁tr ội
▁tr èo
▁T ắt
▁I N
▁x ẻ
▁x ố
▁M ight
▁H i
▁do es,
ut y
▁ra ck
▁L ooking
▁K ell
▁P urch
▁G .
▁se w
▁O ce
▁F ortun
▁wor ri
▁pl ot
▁kho án
pt ions
▁co al
av ed
▁loại ,
▁res ort
▁ar m.
▁phí ,
▁night s
▁gl oves
▁list en.
▁beh alf
▁room s
▁nghệ ,
▁đấu ,
▁month ly
▁Sp r
▁imm un
▁mark ed
▁fall .
▁dần ,
▁prevent ing
▁fav or.
▁Inst itute
▁vo ices
▁Lo ài
▁tom ato
▁suggest ing
▁Pol ish
▁ble w
▁canc er,
▁wife 's
▁craz y,
▁psych iat
▁Cam br
▁husband ,
▁gold en
▁band age
▁hôi .
▁Ant on
▁ele ph
▁Win ter
▁Mus ic
▁Tex as.
▁camer as
▁terror ist
▁cớ m
▁underw ear
▁remark able
▁Govern ment
▁tablesp oon
▁intim id
▁derm at
infl amm
▁NAT O
E G
I C
m er
m eric
r ag
v a
▁ Ố
▁n ative
▁n ếm
▁h ated
▁ch asing
▁p age,
nh .
▁nh ầy
▁tr aged
▁r át
▁N ằm
▁A P
▁S ư
▁S leep
ver ty
▁V òng
▁D ig
▁D ead
▁L ew
▁K ath
▁độ n
ul es
ag en
and a,
▁O .
▁O per
▁em !
king ,
▁Kh ó
um es
▁le ar
▁J un
▁them !
▁cậu ?
▁cơ ?
▁im age.
act ive
▁help ?
ak en
▁over l
▁bl ocking
▁đối .
▁po verty
▁sec ret.
▁thought s,
▁ser ver
▁Be au
▁gu ards
▁Qu ỹ
▁Un like
▁On e,
▁treat ment,
▁201 4
▁Br and
▁health ier
▁hơi ,
▁độc ,
▁fun ,
▁chờ .
▁ngữ ,
▁18 9
▁imag in
▁adv ice.
▁sex y
▁Á nh
▁đích .
▁mil k,
▁Vietnam ,
▁cloth es,
▁present ed
▁hung ry.
▁explain ed
▁aff irm
▁bath .
▁bếp .
▁Thu ỷ
▁stomach .
▁Ros s,
▁tick ets
▁phổi .
▁emp ower
▁Mag g
▁hors es
▁electric ity
▁adop ted
▁Def ense
▁recip ient
▁lic ens
▁corpor ate
▁calc ium
▁academ ic
▁Alf red
etaminoph en
l ing,
é c
ừ a,
▁ ấp
▁ ice.
▁t ầu
▁c úc
▁th ief
▁n arc
▁s ign.
▁l ân
▁d ời
▁p it
▁to án.
▁T óc
▁r ực
▁C ertain
▁gi ềng
▁x ài
id al
▁Ch ừng
▁st ation.
os c
▁Đ ăng
▁D ire
▁P LA
st ein
▁fr ost
▁at .
and al
ol ic
▁O th
▁al so,
▁2 ,000
▁sp ill
▁them e
▁ac ne
▁res et
▁world w
▁For ce
▁sk ull
▁trò n.
▁Sh all
▁wo ke
▁stop ,
▁top ical
▁ký .
▁connect ing
▁De ath
▁plac es.
▁Har ry,
▁expect ations
▁tạp ,
▁happened ?
▁par all
▁special .
▁Lo an
▁comb ine
▁chối .
▁mix ing
▁compet itive
▁90 %
▁sett lement
▁gift .
▁engine ering
▁yog urt
▁Off ice
▁impress ion
▁attent ion,
▁earn ed
▁confirm ed
▁scen e.
▁manufact uring
▁AD N
▁danc ing
▁"He y,
▁'A nh
▁Penn s
▁Eas tern
) ;
h ar
▁a .
▁b ốt
▁b ait
▁m idd
▁v ướng
er ved
▁k è
▁ch unk
is s.
▁T ắm
▁f i
▁I nh
▁A le
ion e
▁B iểu
▁B eth
▁wh o,
▁như ờng
▁D ường
em ic
▁or b
▁se a.
ươ m
▁E s
▁E lect
▁F arm
▁out put
▁Kh ởi
▁Tr iệu
▁kho a.
▁He y
▁other 's
▁bu g
▁Ph a
▁bl ast
▁dis miss
▁' nh
▁fl aw
▁khó .
ian s,
▁dr ill
▁comm on.
▁cr ab
▁sức ,
▁Al ice
▁chí .
▁tớ ,
▁sur re
▁acc used
▁ind ig
▁dịch ,
▁7 00
▁girl ?
▁move ments
▁leave ,
▁top ,
▁sub sequ
▁cử .
▁fight ,
▁ev olved
▁eat ,
▁main ly
▁stor ies.
▁Dr ive
▁typ e.
▁ni êm
▁process ed
▁App arent
▁răng ,
▁gam es.
▁energ y,
▁comfort able.
▁Comm ittee
▁stress ed
▁muối .
▁hoạ .
▁hop ed
▁tiếc .
▁táo .
▁đạn .
▁log o
▁Alex ander
▁196 0
▁behavior al
▁prefer red
▁gain ed
▁ter m.
▁resour ces.
▁enem ies
▁meaning ful
▁pan ic
▁Angel es
▁lung s
▁sect ions
▁belief s
▁Er n
▁satis fact
▁"Nh ững
▁ren ew
▁atmos phere
▁wa ist
▁ma' am.
▁Dick on
▁Napole on
▁surveill ance
l ines
m m,
r in
u es.
u es,
v à
▁n ick
▁l ận
▁d ẻo
▁tr ỗi
▁T ouch
▁I M
or m.
▁r op
▁C y
▁qu i
▁B ồ
▁B ôi
▁đó i,
▁st ack
oo ,
▁sh out
if ied.
op .
▁E ight
▁O w
se y.
ig s
▁rất ,
ing. "
ip her
▁man ual
▁were ,
▁te a.
▁sc ience,
orm al
▁gọi ,
▁call ,
▁pers u
▁vi -r
▁min eral
▁chế ,
▁ass ure
▁rõ ,
▁mat ure
▁different ly.
▁phá .
▁Br other
▁đôi .
▁def ens
▁room ?
rol og
▁father ?
▁test ,
▁live ,
▁done ?
▁inform ed
▁pay ment
▁web .
▁walk ,
▁art ists
▁sound .
▁bott le.
▁redu ction
▁speak .
▁hell .
▁ang le
▁pleas ed
▁pract ice.
▁symptom s,
▁abs or
▁ơi .
▁post -
▁ngực ,
▁tá .
▁hop es
▁surv ived
▁esc al
▁Bản ,
▁Alex ,
▁pregn ant.
▁easily .
▁indic ates
bur gh
▁Jim .
▁arr ive
▁đớ n.
▁boyfriend .
▁kick ed
▁calcul ate
▁Inc lude
▁transfer red
▁virt ually
▁fant astic
▁sacr ifice
▁Kenn edy
▁Marg are
▁Ngu ồn
▁vi-r út
x ual
▁t ản
▁l õ
▁l ỏng.
▁g erm
ing "
or ious
▁Th ương
▁Th ought
▁x ộn
el a
▁đi êu
▁người !
▁Đ ương
ad e,
ill e
▁sa ke
▁L ink
▁K ill
▁" "
▁P ink
▁G ently
▁ne u
▁ab ort
▁E sc
▁ex ists
▁know ...
▁all ?
▁her b
▁U lt
iv ity,
▁un iqu
▁' K
▁Đó ng
ire ,
▁4 7
▁tiêu ,
▁car pet
▁dưới ,
▁cle ver
▁ser ot
▁ser ial
▁Al b
▁hum ili
▁sw oll
▁eas ier.
▁lớp .
▁grow .
▁ích ,
▁ear .
ilit ies,
▁xo ắn
▁cur s
▁nhiễ u
▁dữ .
▁hạt .
▁kia ?
▁four ,
▁nhiệt .
▁del i
▁reason s.
▁tiểu .
▁bar g
▁hộp .
▁Co ld
▁giận ,
▁send s
▁rad i
▁prep ar
▁corn er.
▁field s
▁vỡ .
▁exist ence
▁Jap an,
▁sil ent
▁president .
▁sếp ,
▁vac uum
▁21 st
▁fem in
▁kiss ing
▁accident ally
▁subst ances
▁scre en,
▁mid n
▁motiv ated
▁khiếp .
▁anti- inflamm
▁broad cast
▁reb uild
▁antibiot ic
▁Hous e,
▁Hit ler
▁mathem at
▁murd er.
▁lifesty le
▁cac bon
▁guit ar
▁o' cl
▁testoster one
▁nghẽ n
▁microw ave
5 )
C D
P A
e ge
u z
▁ ��
▁c ọc
▁b ik
▁h al
▁m ủ
▁ch ồn
▁tr au
▁you ng,
▁T ro
▁T erm
▁C udd
et ed
▁S uốt
▁H T
▁H um
▁your s,
▁W ild
▁ho a,
▁con fer
▁ở .
▁K aren
▁E bol
au gh
▁F all
▁2 :
▁di es
▁man y,
▁she ?
▁co vers
▁Ph ía
▁bl end
▁vi .
▁lấy .
▁here. ..
▁bài .
▁ask ,
▁Al pha
▁ide as,
▁mức .
▁turn ,
▁sw eep
▁Ngh ị
▁200 3
▁point ed
▁cân ,
oun ces
▁leg .
▁ev ac
▁sal e
▁bánh .
▁mark ets
▁hot .
▁teach er.
▁drink ,
▁Pro ject
▁dev il
▁email ,
▁đảo .
▁foot .
▁patient .
▁accept ed
▁ball s
▁coff ee,
▁Tom .
ograph y
▁hùng .
▁fold er.
▁univers e.
'em .
▁Rec ord
▁prior ity
▁(2 00
▁minim um
▁bù n
▁suit able
▁prop osed
▁ngoái ,
▁herself .
▁rh yth
▁origin ally
▁cra ving
▁oft en,
▁sữ a.
▁Eliz abeth
▁ướ t.
▁'E m
▁mề m.
▁unhealth y
r ac
s et
▁ Ứng
▁đ iếu
▁đ ũa
▁s ỉ
▁b ẫ
▁b án.
▁h uống.
▁m ị
▁v era
▁w aves
▁g or
▁d ates
▁p ets
▁nh ược
▁nh ẫn.
▁kh ăng
▁I ll
ar ia
▁Th urs
▁S ad
im p
▁Ch a.
▁st ones
▁st icking
▁Y ah
▁V ẽ
▁V ệ
▁V iên
▁V enez
▁li e.
▁L es
▁K end
▁G am
▁se g
▁so il.
▁fr ont.
op ard
▁( X
▁R ose
▁R ile
▁đị a.
▁any body.
▁U R
▁pr ide
▁off ?
▁bl own
▁te x
▁19 th
▁khỏi .
▁bo at.
▁bo iling
▁ro yal
▁giá ,
▁po inting
▁des cript
▁cuối .
▁last .
▁Be h
▁prot ocol
▁pos itions
▁less ons
▁mar sh
▁Z e
▁sol ving
▁stand ards
▁lar ge,
▁nothing ,
▁nat ure,
▁lưu .
▁miss ing.
▁18 0
▁char ges
▁(C ười
▁situ ations.
▁cor ruption
▁nhiêu .
▁medic ine.
▁instead ,
▁bar ,
▁With in
▁ste ady
▁pract icing
▁return ing
▁invol ving
▁necess ary,
▁Pet er,
▁tow el.
▁worth y
▁Sam uel
▁respect ,
▁khuẩn ,
▁following :
▁luck .
▁Cont act
▁attempt ing
▁refer ence
▁Ac adem
▁accom pan
▁dro pping
▁Đất .
▁saving s
▁stim ulate
▁assum ed
▁wire less
▁assign ed
▁brows er
▁Lad ies
▁acknow led
▁liber al
▁Guy s,
▁aspir in
▁abdom inal
▁intens ity
▁numer ous
▁Benj amin
▁unnecess ary
▁yö u
n et
z e.
▁c âm
▁th irst
▁n in
▁n om
▁n ost
▁đ ọng
▁s ạc
▁b ăn
▁v ách
▁g ài
▁tr ệ
▁tr út
▁you th
▁f ancy
or ?
▁r ỡ
▁r ide.
▁gi g
▁không !
▁N eg
▁N âng
▁A unt
▁qu ỳ
▁qu ad
us c
▁M ô
▁H ans
im eter
▁W ik
▁nó n
▁st ake
▁st yl
▁cá o,
▁D ian
▁are as,
▁sh ield
▁P in
▁P ow
▁P erson
ation ?
est ion
ain ing
▁O '
▁F le
▁wor se,
▁It s
▁ma ke.
um s
▁J ake
▁sp ong
▁pl ay,
iz e,
og ram
▁un lock
ting ,
▁even ly
▁rem ot
▁fl ir
▁bo y?
▁day ?
▁wr ink
▁vu a.
▁Al most
▁sw ing
▁together ?
▁trợ ,
▁read er
▁bab y's
▁prom ise.
▁relationship s.
▁tem pl
▁kỷ .
ann ister
▁drink ?
▁già ,
▁rob ber
▁key board
▁affect ion
▁accept ing
▁mụ n.
▁mẽ .
▁rul ed
▁sister ,
▁webs ites
▁giặt .
▁hổ .
edu ce
▁rác .
▁túc .
▁tur tle
▁shap e.
▁Dương .
▁tempor arily
ici ency
▁achie ved
▁manip ul
▁sug ar.
▁prol ong
▁ug ly
▁Gentle men,
▁Penns ylvan
K ,
c ase
e es.
l ace
n e,
o y.
p ower
y a,
▁ ợ
▁ ⌘
▁ era
▁s ke
▁h es
▁h uyệt
▁h its
▁l av
▁v ic
▁g ate
▁d ur
or g
▁r áo
▁ph ones
▁Th ird
▁S imm
▁B all
▁re verse
▁W olf
▁st ated
▁Đ ám
▁V ật
▁an es
▁D ol
▁K ỹ
▁P ic
▁not ed
st ream
ul pt
ol ar
▁sp ons
▁What 'd
iz ation,
▁pr ice.
▁So ...
ial ,
▁cont em
▁pre f
▁new .
▁inter fer
▁fl esh
▁dự .
▁sure ly
▁inf ant
▁sy ring
▁trung ,
▁gần ,
▁great ly
▁med ia.
▁mat e.
▁Why 'd
▁chức ,
▁best ,
▁Sh aw
▁gl ue
▁phục ,
▁spec ies.
▁ent h
▁plan et,
▁conf used
▁away ?
▁cre am.
▁pass port
▁coll ap
▁clean ed
▁Re view
▁ed itor
▁activ ity,
▁result s,
▁red ,
▁leav ing.
▁"S h
▁nuôi .
▁Jo e.
▁dark .
▁mov ie.
▁stra ight.
▁period ,
▁bur den
▁Geor ge.
▁surv ival
▁temper ature.
▁ups ide
▁wound .
▁manag er
▁table ,
▁scared .
▁intellig ent
▁Vi ol
▁uns ub
▁Inc re
▁Sout hern
▁execut ive
▁Budd h
▁prote in,
▁profession al.
▁Rel ax
▁od or
▁candid ate
▁Sund ay
arliam ent
▁Ragn ar
a "
b ro
k es,
r ist
r ation,
w orm
ớ n
▁ ion
▁c ẩu
▁l ậu
▁p estic
at ely.
▁o ải
it es,
▁f oster
▁ng ượng
▁C ầm
ch e
▁N ỗi
▁A id
▁S ẵn
▁B on
▁B reat
▁B óng
▁B ữa
el ve
▁Ch uyên
▁ho le.
▁n't ...
▁V alent
▁D utch
▁P ain
▁P ab
▁bị ,
▁Kh ách
▁Tr uyền
▁her bal
one y
▁St one
▁it. "
iv a
▁act ions.
▁res ent
way s,
▁am bit
▁phụ .
▁real istic
▁last ing
▁mean s.
▁exper im
▁treat s
▁ké m.
▁201 4,
▁200 6
▁bad ly
▁tội ,
▁xo ang
▁Sp ace
▁Se ven
▁mod e
▁Or le
▁giấy ,
▁sho e
▁support ive
▁val id
▁del icate
▁connect ion.
▁speak er
▁process es
▁Gr ant
▁warm ,
▁song s
▁pow d
▁son ?
▁object ive
▁opportun ity.
bo ard.
▁flo or,
▁bur y
▁cưới .
▁sốt .
▁obs essed
▁trave led
▁et ern
▁irrit ation
▁jump ing
▁freedom .
▁wood en
▁sty le.
▁Acc ount
▁trễ .
▁que en
▁bowl .
▁societ y,
▁thro at.
▁funn y,
▁replac ement
▁amb ul
▁v.v .
▁(K h
▁desper ate
▁Fam ily
▁e- mail
▁Venez uel
h ol
p art
ặ m
▁a o
▁b ẩm
▁h orn
▁ch ốc
▁ch est.
▁w ars
▁g inger
it ors
is y
▁T ues
▁ng ùng
▁r à
▁r ate.
▁C ận
▁C ity,
▁C ross
▁S elf
▁M ạng
id er.
id ge,
▁on line,
▁sẽ ,
▁chúng ?
ro ver
▁R ót
ers '
un ct
▁dụ .
▁ca ve
uộ ng
▁just ,
▁sp ark
ak i
▁bu ff
▁So on
▁br ut
▁Ô ,
▁find .
▁đều .
▁chiến ,
▁Am anda
▁Al z
▁ass ets
▁med itation
▁acc ord
▁cảnh .
up ,
▁set .
row s
▁sw ab
▁light er
▁15 .
▁job s.
▁effect s.
▁coll ar
▁băng ,
▁pub l
▁prevent s
▁serv ices.
▁along side
▁parent s,
▁reach es
▁Pet e
▁record ing
▁rad iation
▁view .
▁condition er
▁grand p
▁wash ed
▁daughter 's
akes pe
▁represent ed
▁trip .
▁spee ch.
▁writ er
▁Know ing
▁Jes se
▁horm ones
▁embarrass ed
▁caff ein
▁insect s
▁jail .
▁weekend .
▁cort isol
▁Jord an
▁enzym e
▁atmos p
▁"Ng ười
▁transpl ant
▁vườ n.
▁trem end
▁asham ed
▁Purch ase
E M
M S
] ,
f all
o ing
r us
▁t ẻ
▁s âm
▁b ol
▁h ạm
▁l ines.
▁v ãn
▁v ein
▁k ề
▁ch ổi
▁ch ợt
▁g àng
▁d well
▁nh ự
▁tr o
▁ng ào
▁r ô
▁r ins
▁C ài
▁C uộn
▁S S
ion ?
▁B au
▁B en.
▁M ess
▁M ons
▁H ướng
▁do z
el i
▁Ch im
▁Ch amp
▁Đ un
ro vers
▁K ey
▁can xi
▁G er
▁G ol
▁ex ter
▁wor n
ab ility.
▁Kh á
▁int u
▁cl o
▁right s.
▁mu cus
▁every one,
▁sc ulpt
▁per hap
▁inc ent
▁att ribut
▁des ign.
▁des erves
▁trả .
▁dec line
▁Be gin
▁Qu ỷ
ific ations
▁num b
▁sim ult
▁thủ ng
▁200 5,
▁top ics
▁lịch .
▁loc ations
▁xo ăn
▁gener ous
▁leg s,
▁tàu ,
▁cas es.
▁Ex per
▁product s,
▁dem ands
▁Ind ia.
▁clos ed.
▁pap ers
▁sex .
▁brother 's
▁store d
▁contact s
▁Comm ission
▁Vietnam .
▁bill ions
▁trụ ,
▁comb in
▁Cons ult
▁Like ,
▁cult ure.
▁north ern
▁dương ,
▁birth day.
▁block ed
▁express ed
▁ju ice.
▁Ca es
▁veget able
▁gra ve
▁Mexic o,
▁II ,
▁arrest ed
▁diagn osis
▁tired .
▁weird .
▁tun nel
▁fle w
▁ir re
▁conduct ed
▁err or
▁innov ation
▁snack s
▁Sus an
▁Prot ect
▁Detect ive
▁Mean while,
▁Addition ally,
▁mush room
A P
N H
i ao
m a.
u n.
} }
▁ ướp
▁t é
▁c ôi
▁th uyên
▁đ ê
▁s ought
▁b ít
▁l am
▁l ẩn
▁l az
▁ch ướng
▁g òn
▁d ude
▁p anc
nh e
▁nh ạo
▁you ng.
▁f leas
es is
▁C ánh
▁và nh
▁in equ
▁gi áng
et 's
▁S ah
▁S aul
▁B ánh
▁M ật
▁W es
▁W ang
ang er
▁con j
ro d
▁" a
ur .
▁he ating
ag an
▁( ph
ol ves
▁F T
▁F eed
▁out come
▁ti vi
▁U m
▁int imate
ip ,
oc c
▁Ng a,
▁tu be
▁over ly
▁every body.
▁bl oom
▁cont rad
▁Em per
▁sc roll
▁' ng
▁even ing,
▁lớn )
▁fl ies
▁sl ice
▁reg ulate
▁Sh ort
▁Sh akespe
▁believe .
▁15 ,
▁hoạch ,
▁school ?
▁pass ive
▁tệ p
▁Se ems
▁least ,
▁miss ion.
▁sàng ,
▁Try ing
▁Sc ience
▁đỡ ,
▁dây .
▁(T r
▁del iber
▁hot ,
▁children 's
▁Dr ag
▁neg lect
▁saying ?
▁tải .
▁Đức ,
▁la wn
▁trứng ,
▁People 's
▁react ions
▁strength .
▁relax ation
▁surv ive.
▁mic ros
▁surpris ing
▁Micha el.
▁anyw ay,
▁Canad a,
▁Cor por
▁smile .
▁ult imate
:00 .
▁° F
▁Dar win
▁myster ious
▁Marsh all
▁suppl ies
▁Edd ie
▁mathem atic
▁funct ions
▁Leon ard
▁trigg ers
▁Toky o
▁Andro id.
▁Marth a
▁manif est
▁Alz heim
- l
X X
g rad
h ib
m o
m ates
u a.
w at
▁ ~
▁c ath
▁đ an
▁b in
▁m useum
ou st
▁ch èn
▁g ật
▁nh á
▁to ss
is ed.
▁T ân
▁T ức
▁f res
▁r âm
▁C uốn
▁C oc
▁C isc
▁S ơn
▁B ,
▁B ăng
▁wh y,
▁wh ist
▁M and
▁it 'd
▁Ch ile
▁st ere
ke y,
▁L ễ
▁L iz
ro ach
em a
▁P os
▁O S
▁F if
▁chỉ ,
▁her bs
er. "
▁en s
▁ad renal
iv ate
▁Em ma
▁' d
▁per pet
▁comp reh
▁Gi ữa
▁câu .
▁happ iness.
▁X ịt
▁How ard
▁cr imin
▁bel t
▁prot oty
▁girl s,
▁run ning.
▁Mar y.
▁Mar y,
▁kiến ,
▁believe ,
▁meet s
▁fun er
▁tố .
▁mill ion.
▁econom y,
▁opt ion,
▁half way
▁breat h,
▁ngờ ,
▁organ ize
▁public .
▁nhật ,
▁convers ation,
▁dest in
cl oth
▁sun sc
▁Com pl
▁vitamin s
▁perform ing
▁cy ber
▁vict ory
▁centur ies
▁company 's
▁Hoặc ,
▁die ?
▁nhàng .
▁president ial
▁employ ee
▁cross ing
▁dạ ng.
▁dy ing.
▁laugh .
▁Hel en
▁$1 0
▁opin ions
▁earl ier.
▁har ass
▁diagn osed
▁assum ing
▁prompt ed
▁hall uc
▁2000 ,
▁lon ely
▁YouT ub
▁Mi ễn
▁Pri v
▁Still ,
▁Vị nh
▁sequ ence
▁apparent ly
▁dynam ic
▁engag ement
▁pharm ac
▁embr ace
▁grat itude
▁jur isd
▁unkn own
▁conven ient
eto oth
▁Malcol m
▁Similar ly,
▁Dire ctor
p ed
r ine
z ed
ú n
▁c ã
▁th un
▁b ail
▁b its
▁m as
▁l oop
▁k ing.
▁the se,
or gan
▁r ust
ch er
▁in qu
▁A C
▁A x
▁qu en.
▁S iêu
▁B urn
▁H ậu
▁for ce.
▁Ch ăm
▁st amp
ad ing
ir a
▁D ọn
▁D ựa
▁D omin
▁L ắng
▁L annister
▁or ang
▁P y
▁not ion
▁su p
▁( if
▁R ap
our s
ab les
▁kho ăn
▁He at
▁pe ngu
▁U t
▁int est
▁Do ct
▁she ets
ak ers
▁3 4
▁bl ond
▁somet imes.
▁tell .
▁fl ip
▁too !
▁fo ll
les s,
▁Sh in
▁Fr iday
▁giả m.
▁bước .
▁cat er
▁âm .
▁trans m
▁dist ribution
▁i 'm
▁bab y?
▁hồ ,
▁fre e,
▁pot ass
▁kỷ ,
▁free ze
▁phys ics
▁Bố ,
▁strong ,
▁term ,
▁hậu ,
▁Gr ay
▁Gr ab
▁invest ors
▁account ,
▁thắng ,
▁particular ,
▁est rogen
▁respons es
▁tây .
▁respect .
▁field ,
bor ough
▁vải .
▁Mc G
▁Mc K
▁attempt s
▁marri age.
▁san ct
▁club .
▁Sant i
▁tear s
▁demonst rate
▁myster y
▁nic ot
▁darl ing.
▁furnit ure
▁lun ch.
▁vag inal
▁garb age
▁Starl ing
% ,
- 20
b ass
g ust
l ings
r ome
t y,
y a.
▁s omed
▁h ưởng.
▁l a,
▁l ess.
▁l ượn
▁l ặng,
▁ch a,
▁ch ênh
in ity
▁the ...
on ed
▁nh áy
▁tr ưa.
▁o int
▁I re
▁r ural
▁C ec
▁gi ẻ
et a
▁Th ịt
▁S ách
▁S ug
▁M ai
▁re vers
ut her
▁st ool
▁D ry
▁L ot
▁L inh
▁K a
▁or ph
▁fr ank
▁Nh iệt
um ble
▁ag ency
▁bỏ ,
▁chết !
▁sm iling
▁khu ỷ
▁wr ist
we ight
▁Ho ạt
▁As ia,
▁still ,
▁cons ol
▁Be at
▁Be en
▁lâu ?
▁gl ass.
▁found .
▁nam es.
▁ext ent
▁point s.
▁doanh ,
min ist
▁De b
▁process ing
▁dat ab
▁appear .
▁leav es.
▁dev ot
▁low est
▁behavi or,
▁drug s,
▁"M ột
▁Lu ân
▁stress ful
▁ngại .
▁regular ly.
▁ball .
▁mult i-
▁ess ay
▁"Th ere
▁Dav id,
▁forward ,
olut ion,
ograph ic
▁honest ,
▁path .
▁Canad a.
▁impossible .
▁(s inh
▁injur y.
▁kilomet ers
▁inject ion
▁fract ion
▁isol ated
▁intent ions
▁mistak es.
▁afterno on.
▁basket ball
▁https:// www.
▁Pret ty
▁VP N
▁abst ract
▁soph istic
▁Poké mon
▁enth us
▁s ên
▁s ons
▁s ụt
▁s ession
▁v od
▁k ét
▁g om
▁d ull
al s,
▁e uro
▁Th ân
▁M itch
▁H ết
▁H ôn
▁W ed
os es
▁Đ iển
▁L âu
▁L òng
▁L izz
▁sh ade
▁sh orter
▁K ate
▁K arl
▁he el
▁ne at
▁fr aud
▁E ar
▁E ating
ain ed
▁( O
▁( f
▁F ab
▁Ng ừng
▁how 's
▁3 ,000
▁bu bb
▁St ir
▁Ph ong
▁work s,
▁say s.
▁even ing.
▁dự ng.
▁4 3
▁comm and.
▁des cription
▁tăng .
▁med ia,
▁gu ests
▁gen es
▁Qu ên
stand ing
▁food s,
▁Mar ie
▁read y,
▁Ar row
▁build ing,
▁mod el.
▁18 ,
▁plant s.
▁hot el.
▁Har ris
▁wond ered
▁dry er
▁Thank s,
▁pract ices
▁slow ly.
▁respons e.
▁impro ved
▁kí n.
▁remain ed
▁dream s.
▁oper ations
▁mẽ ,
▁meas ured
▁auth ent
▁sat ur
▁hi ền
▁hã nh
▁tab let
▁discuss ed
▁Par is,
▁Tom ,
▁exercis ing
▁President .
▁Te am
▁alcohol ,
▁consum ers
▁vers ions
▁sett led
▁civil ian
▁Sl ow
▁Lear ning
▁Oliver .
▁ngục .
▁reject ed
▁unh appy
▁rã nh
▁odd s
▁idiot .
▁seas on.
▁outdo or
▁Afghanist an,
▁Afghanist an.
▁instruction s.
▁attor ney
▁Blu etooth
▁unpleas ant
▁deli very
- s
O U
e an
i ating
j oy
o h,
ử a,
▁ 000
▁n ose,
▁s iết
▁m í
er n.
▁g ào
▁d ồi
▁d ặn
▁kh ống
▁o be
it ate
▁C ivil
▁ph o
ar io
ch eck
us ?
▁ta pping
▁B ai
▁B og
▁B ản.
▁M esseng
▁H iệu
im ,
▁re ef
▁V âng
▁li ving.
▁ra z
▁L ow
▁P oint
▁was ...
▁so y
▁ab n
▁R ey
ol ving
▁ex ec
▁J ay
ra k
ip h
ia z
▁co ach
▁cont ent.
ress ion
▁kết ,
▁comp onents
▁19 ,
▁X ây
▁mẹ o
▁4 4
▁bé o.
i. e.
▁phụ ,
▁For get
▁mat ches
▁Sh ang
▁list ,
▁ent it
▁plan s.
▁ext ensive
▁200 2
▁nhập ,
▁develop ment.
▁diện ,
▁ant id
▁art s
▁nối .
▁medic ations.
▁nhỉ ,
ho ảng
▁plac es,
▁event ,
▁nhật .
▁sens it
▁lab .
▁z one.
▁Ad v
▁shot ,
▁fail ure.
▁bạc ,
▁explain s
▁trad ing
▁liệt .
▁obs erve
▁bả o,
▁egg s.
▁(c ó
▁cong ress
▁frequ ency
▁arr ange
▁island .
▁Captain ,
▁girlfriend .
▁camer a.
▁siz e,
▁clin ic
▁Dou gl
▁cort icosteroid
▁analy st
▁Austral ia
▁betray ed
▁vert ical
▁genu ine
▁mó ng.
▁bran ches
▁Snapch at
▁precis ely
▁Associ ation
▁lear n.
i ated
j a
▁t ent
▁th uy
▁th ung
▁b ạ
▁h ổng
▁h ầm.
▁h ỏng.
▁ch ill
▁w ore
▁g ầy
in fect
▁p ass.
▁o h
▁T es
▁f el
▁C z
▁C ir
▁N in
▁A ff
▁S aid
▁ta i,
▁B ear
▁x ưng
▁H ind
▁H erc
▁H ano
▁it ching
▁đi ềm
▁st air
ro le
th et
▁K ích
▁K iss
▁ne arest
▁R ic
▁F i
▁F at
▁F ish
▁de leg
▁all ev
▁up ward
▁ca red
ed. "
▁Ph ys
▁sc ary
▁sc iss
▁res ign
▁vấn ,
▁where as
▁hắn !
▁chị ,
▁hand ful
▁most .
ily ,
▁ser um
▁pol ish
▁pres ents
ee z
▁tích ,
▁ey e,
▁system s.
▁light ly
▁ngữ .
▁answ ering
▁check .
▁dàng ,
▁jo ke.
▁train ing,
▁Ind eed,
▁lành ,
▁ô -
▁dev ast
eral d
▁woman 's
▁mil k.
▁report .
▁chuột .
▁xương .
▁lầm ,
▁method .
▁protein s
▁temper atures
▁Sm all
▁fund s
▁rock s
▁1. 5
-1 9
▁struct ures
▁relig ion
▁Di ễn
▁appoint ed
▁wedd ing.
▁poll ut
▁Bro ad
▁Jimm y,
▁propert y.
▁hors e.
▁truck .
▁usual .
▁Walk er
▁disp ute
▁upd ate
▁Tit an
▁passion ate
▁colleg e.
▁đù a.
▁unw anted
▁diabet es
▁Syri a
▁Lis a
▁guid el
▁tablesp oons
▁interf ere
▁Indones ia
▁shr ink
▁Princ et
▁Olym pic
B S
t te
▁ át
▁c iv
▁th ose.
▁n ons
▁a unt
▁s ủa
▁b ureau
▁l ó
▁l em
▁v iếng
▁g room
▁p ile
▁y ield
▁nh ảm
▁to b
▁r if
▁r ủa
▁C as
et y
al s.
▁S id
▁S ier
▁M oh
▁M uch
▁H al
▁W end
▁Ch ụp
ad ed
▁D E
ro .
▁K iến
ter oid
▁" Ồ
▁G w
▁G ary
▁E c
▁( g
▁O h.
▁lu x
▁St ew
▁sm il
▁4 1
ath ers
erm int
▁tra it
▁real ity.
▁An th
▁hum or
lud ing
▁understand ?
▁9 1
ont in
▁second ary
▁yếu ,
▁sub mar
▁power ed
▁talking ,
▁effect ,
▁resp ir
▁sho es,
▁matter s.
▁thuyết .
▁Re bec
▁pur ple
▁opp onent
▁100 ,000
▁imag ined
▁dam aging
app ing
▁appro ved
▁bar rel
▁phot ograp
▁Tây ,
▁wish es
▁"B ut
▁offic ially
▁positive .
▁research .
▁lưng ,
▁fing ers.
▁material .
▁sil ic
▁growth ,
▁aware ness
▁interact ions
▁enem y.
▁decis ions.
▁Lord ,
▁drag on
▁Sara h,
▁breakfast .
▁Nav y
▁Lim it
▁pil ot
▁chap ter
▁sou p
war f
▁Hait i
▁Spart acus
▁ADH D
▁(wh ich
▁cộ ng.
▁penc il
▁parall el
3 )
4 )
I ,
R :
l ed.
m ph
w ith
ứ t,
▁ ere
▁t ỵ
▁đ ắng
▁s ảnh
▁l éo
▁ch án.
▁w aking
in ely
▁d ir
▁d ental
▁p ine
is ion,
▁T ận
▁f er
es "
▁C up
ar ao
▁in ex
▁N y
▁N ix
▁qu ẩn
▁qu ote
▁S U
▁S ever
▁B ak
▁B ea
▁your s?
▁Ch í
▁st alk
▁st ead
▁V ice
▁D igg
▁" x
ur d
▁se at.
▁su it.
▁E S
▁em iss
▁de ar.
▁J oy
ack s
▁di oxide
ach us
ick ed
▁our s.
▁In f
▁In form
▁had ,
ak ,
▁inf est
▁chú a.
▁chú a,
▁lẽ ,
▁sk y.
▁why ?
▁nguyên .
▁Mr s
▁pres erve
air .
▁girl 's
▁201 7,
▁family ?
▁pat rol
ilit ary
▁lạc ,
▁watch .
▁econom ies
▁answ er,
man 's
▁arm y.
▁Le ague
▁clos e,
▁emot ions,
▁card s.
work .
▁sex ually
▁pict ure,
▁land ing
▁z er
▁chiều ,
▁est ate
▁Pet er.
▁partner 's
▁tend ency
▁secret ary
▁dig it
▁skill s,
▁discuss ing
▁tap e.
▁Russ ians
▁thải .
▁trống .
▁catch ing
▁gà ,
▁Im p
▁Med ic
▁Med ia
▁tur n.
▁lồ .
itz er
▁responsib ility.
▁firm ly
▁nôn ,
▁Sk yl
▁Steve ,
▁surg ical
▁Ins ert
▁achie ving
▁Pot ter
▁cyc le.
▁voc al
▁AID S
▁enh ance
▁Goth am
▁org ans
▁Fal c
▁loos en
- la
a way
i ally,
j u
l an
l aim
s he
ẩ y,
▁ ​
▁t ẩu
▁đ ẫm
▁s út
▁s uối
▁h ẳ
▁h ates
▁ch ọi
▁ch ày
▁d ance.
▁tr òng
▁f oss
▁ng ặt
▁in k
▁gi ang
▁- ...
om y
▁A ward
▁qu ỵ
▁Th us,
▁be e
ong .
▁M ade
ut ter
▁st itch
▁li ền.
▁D ip
ac on
▁sh ed
▁sh aking
▁P ublic
.. ...
▁E ve
▁( in
▁O t
▁chỉ .
ab ly,
▁ma p.
▁Tr ưởng
▁Tr ib
▁sp y
▁sp ac
▁back ward
ber ,
▁3 60
▁off er.
▁act .
▁un like
▁' không
▁again !
▁comm ission
▁kỳ ,
▁real ,
▁pol ar
▁big .
▁Sh ar
▁ri ver.
▁produ c
▁aw ake
▁Cl ay
▁plan ets
▁bas is.
▁9 8
▁stud y.
▁nhiệm ,
▁pat ent
▁trans act
▁number s,
▁vis it.
▁bit ,
▁cur tain
▁ref ers
▁creat ures
▁ev idence.
ov .
▁art icles
▁answ ered
▁arm s.
▁plant s,
▁train .
▁war rant
▁vir al
▁già y.
▁group s,
▁along ,
▁hous es
▁Inst all
▁abs ence
▁mach ine,
▁Cứ u
▁circ ul
▁hoàng .
▁bottom .
▁lay ing
▁relax ed
▁tab .
▁phiếu .
▁detail s.
▁subject s
▁manag ing
▁adm ire
▁unc onscious
▁univers al
▁gối .
▁sugar ,
▁chair .
▁tooth brush
▁bor ing
▁FBI .
▁cru el
▁Second ,
▁reveal ed
▁Pal est
▁enfor cement
▁hol iday
▁soot he
▁pregnanc y.
▁invis ible
▁1⁄ 2
▁dow nt
▁khủ ng.
7 5
b i
b ling
i "
l ife
o ly
r int
y ou
ụ n
▁ ờ
▁t ết
▁c ưa
▁a -xít
▁l amp
▁v ẫy
▁ch ấy
▁d ép
▁y ếm
▁nh iếp
▁tr ọ
▁T uyên
▁f ont
▁r ạn
▁C ort
▁N O
▁N u
▁A st
▁B ật
▁x ưa.
▁H av
▁st iff
▁L en
▁K u
▁me at.
▁O p
our .
ell ow
▁mình !
▁help ful.
▁back ed
▁you. "
▁over se
▁off end
▁dis gust
▁fl irt
▁rel iable
▁cr imes
▁chu ẩn.
▁Ho ly
▁show ,
▁gen ital
▁8 5
▁sign ature
ret t
▁khá m.
▁interest ed.
▁meet ings
▁Sp ray
▁hồi ,
▁hoà .
▁thuyết ,
▁18 8
▁speak s
▁war m.
▁contain ed
▁event s.
▁intern et.
▁cop ing
▁ben z
▁invest ed
▁ste pped
▁pract ically
▁vo ice,
▁shot s
▁issu ed
▁mềm ,
▁view ,
▁challeng ing
▁trại .
▁giường ,
▁niên ,
▁niên .
▁pack ed
▁improve ment
▁esc ort
▁among st
▁bacter ia.
▁gold .
▁quiet .
▁piec es.
▁spee ch,
▁iPh one.
▁island s
▁nuc le
▁hero in
▁Angel a
▁soul .
▁societ ies
▁Joe y.
▁rồ .
▁Dam n
▁bord er.
▁bathroom .
▁conscious ness
▁yester day
▁(h ay
▁frust rated
ih ist
▁Chuy ến
▁bes ides
▁magaz ine
▁alt ogether
▁perce ived
▁dischar ge
▁Yan ke
▁debr is
▁Edu c
1 6
P h
m a,
p ill
r ade
▁ ounces
▁n asty
▁đ ờ
▁b úp
▁b io
▁h é
▁h ứa.
▁m ừng.
▁l iếm
▁l ưỡ
▁ch ồng.
▁w ing
▁w ip
▁g ò
▁g end
▁g an.
▁g as.
▁d ơ
▁d ys
▁T un
▁f ond
▁f itting
es p
▁C S
▁C reat
▁e h?
▁e ager
▁Th row
▁B á
▁B ert
▁B oul
▁for m,
▁st ages
▁Y og
os ph
▁an th
▁sh aving
▁P H
▁P TS
ol .
se c
▁ex ceed
▁J en
res pect
ra pe
▁pl ast
ure s,
▁U b
ie !
ip t
pl es.
▁cuộc ,
▁no !
▁been .
ob ile
o. "
▁gr am
▁gr anted
▁comp at
▁Gi ven
▁ser ves
▁Al cohol
▁6 4
▁ass ured
ix ,
▁reg ion,
▁el abor
▁xử .
▁stud io
▁thủ ,
▁rest rain
▁av oc
▁mar ath
▁nghệ .
▁complet ely.
▁hur t,
rat ed.
▁$ 5
▁self ish
▁tụ t
▁tắc .
▁gam es,
▁hát ,
ator s.
▁dark ness
umb led
▁gun ,
▁guess ing
▁finish ed.
▁flo ating
▁tá ,
▁Window s,
▁Bill y.
▁port ra
▁bò .
▁bank .
▁compet e
▁network s
▁releas ing
▁Ser ious
▁sam e,
▁Bob ,
▁Ant ar
▁gre y
▁assist ant
▁Sher iff
▁(m ột
▁concent rate
▁gather ed
▁Out look
▁buck et
▁critic ism
▁eth nic
▁Tur k
▁veh ic
▁TH E
▁roof .
▁ừ ,
▁"ng ười
▁Syl v
▁lifet ime
▁awes ome
▁ngọ t,
▁Explor er
▁Fig ure
▁resemb les
▁thuy ền.
1 )
A :
a ac
m ir
x id
▁c ri
▁c ẳng
▁th ưởng.
▁n ại
▁n ấp
▁a h
▁b ừa
▁h ắt
▁h int
▁m ant
▁m ad.
▁v ùi
▁ch ặng
▁g ầm
▁d rew
▁d ress.
at ives.
▁T ội
▁T óm
▁ng ứa.
▁r ập
▁r ating
▁C ro
▁C ond
▁C ru
▁C ase
▁N ag
us al
▁that 'll
id el
▁cho p
▁ho ly
▁n't ?
▁con vey
ke ys
▁Đ ặng
ac co
▁L oren
▁P R
if ier
pp ing.
▁R ing
▁what .
▁al mond
▁le ap
od or
▁sp erm
▁thu a.
▁So ak
▁cont est
▁bảo .
▁đối ,
▁5 3
▁ro ast
▁comm od
▁might y
▁show er.
▁kế .
▁Al t
▁care fully.
▁reg ions
▁must 've
▁hộ ,
▁201 2.
▁leave ?
▁hear .
▁sub tle
▁sở .
▁wait ing.
▁follow .
▁ret reat
▁nat ri
▁Who ever
▁protect ion.
▁four .
▁pot .
▁answ ers.
▁fil es.
▁đổ .
▁Pe ace
▁bod ies.
acter ial
▁Car ri
▁mag nes
▁17 ,
▁serious ly.
▁wall s.
▁tow els
▁explain ing
▁condition ,
▁jour ney.
▁ann ivers
▁egg s,
▁binh .
▁fund ing
▁Washing ton.
▁bơi .
▁neck ,
▁init ially
▁TED ,
▁(b orn
▁Rob in
▁crim e.
▁shop .
▁nur s
oe be
▁Id e
vi ol
▁tele phone
▁integ r
▁Jess ica
▁sem i-
▁Const itution
▁remov al
▁quant um
icy lic
▁CP U
▁Francisc o
▁explan ation
▁Olym p
▁calend ar
▁Hist ory
▁Campuch ia
iffer ent
▁stub born
▁Forg ive
▁Oth ers
A S
â ng.
ú m
ễ m
▁ Ơ
▁ ơ
▁ úp
▁đ úc
▁s ừng
▁b ark
▁m iên
▁m ắng
▁m others
re ck
▁nh ịn
▁tr ấn.
▁o ng.
it als
is ?
▁r ửa.
▁N ăng
▁A L
us k
▁S i
▁ta ke.
▁B ắn
▁x ổ
▁M áu
▁H ạt
▁do ck
▁on es,
▁st age.
▁L ic
▁ở ,
▁sh elf
▁K i
▁K ent
ur ,
▁G ro
il ton
st ick
▁se iz
▁was ?
ce ed.
▁at ,
▁kn ife.
▁us ed.
▁Tr ình
ect or
ure s.
00 ,
▁He art
▁got ?
▁cont rovers
▁giữ .
ish op
▁' G
▁bỏ ng.
▁only .
▁bé n
▁à o
▁after .
▁comm itt
▁well ?
▁xuống !
▁6 8
▁Is aac
▁old est
▁201 8
▁201 8,
▁201 6,
▁áp ,
▁read .
▁cung .
▁dung .
▁phi ền.
▁dị .
▁đợi ,
▁mess age,
▁Ind ust
▁step s.
▁"N o,
▁var iet
▁bổ n
▁ly mph
▁fire ,
▁cloth ing.
▁dark ,
▁gun s.
▁accept able
▁cy cl
▁sil k
▁div ision
▁remind ed
▁destro ying
▁robot .
▁task .
▁consum ing
▁Paul ,
▁"P h
▁gain ing
▁Ob s
▁separ ated
▁breath e.
▁link s
▁Philipp ines,
▁interact ion
▁releas es
▁depend ent
▁encour aging
▁hè .
▁opin ion.
▁pan el
▁conflict s
▁strang er
▁Max .
▁pen et
▁spect ac
▁eval uate
▁Rog er
▁Stan ford
▁(k hoảng
▁percept ion
▁Taiw an
▁Prin cess
▁menstru al
▁thỉ u
▁molecul es
▁anti-inflamm atory
/ 4
I F
a qu
h and
u ation
w alk
y an
ó w
▁t ể
▁c ash.
▁s ẹ
▁b ent
▁b y,
▁m ess.
▁w et.
▁d ẻ
▁p enn
en ess
▁r ìa
▁r ival
▁C N
▁ph ỉ
▁gi ế
ow o
us sel
▁Th iền
▁be gging
▁x áo
▁M ùi
▁H ope
am ent
▁sa fer
▁L iệt
▁" r
▁" kh
▁as th
▁G õ
▁F ull
ers )
od y.
ep ,
ai red
▁there by
ies ?
▁Ph oebe
▁pre ced
▁gr amm
▁vị nh
▁new ly
▁mẹ ?
▁inf in
▁10 .000
▁da wn
▁add ress,
▁6 3
▁vệ t
▁care er.
▁week ly
ret ch
▁lớp ,
▁job ?
▁pass age
arch y
▁mod er
▁hur ts
▁imag ination
▁quick .
▁mơ ,
▁const rain
▁199 9
▁hands ome
▁lí u
▁text .
▁Frank lin
▁wall ,
▁afraid .
▁doạ .
▁coun c
▁Miss iss
▁chem istry
▁recogn ition
▁wife ?
▁Dav id.
▁Wal t
▁ord er,
▁Charl ie,
▁weap on.
▁"Wh en
asc ular
▁'T h
▁recent ly,
▁mỏi .
▁character istics
▁thoảng ,
▁II .
▁consist ently
▁park .
▁mét .
▁Bro d
▁Sen ator
▁negot iate
▁mechan ism
▁xỉ n
▁tú i.
▁Bru ce
▁subs id
▁caf e
▁mig rain
vill e
▁estim ated
▁dadd y
▁nhì n.
▁dens ity
▁Coul son
▁UR L
▁nost r
▁Pab lo
▁khuỷ u
- đ
C L
C T
O ,
P :
g ar.
h t
n s
o z
t ime.
▁c ằm
▁n ood
▁s ò
▁s ides.
▁h áo
▁h ẹn.
▁m and
▁l ượ
▁v ăng
in oid
▁d ỡ
▁p el
▁tr im
▁to ast
it ter
is es.
▁T ôn
▁ng ả
▁I ris
es cop
▁C ry
▁C ool
▁ph ình
et t.
al a
▁Th a
▁Th ú
▁be es
▁S in
▁S ab
▁S ay,
's ,
▁B ir
▁M át
▁M ach
▁cho ices.
▁Ch ase
▁ngh ênh
os ystem
▁Đ á
▁we ,
▁ra g
▁D ub
▁1 %
▁1 .000
il ized
▁The a
▁E p
ist ic.
▁fe ver.
▁giúp ,
ous e,
pl ace.
ak a
▁over he
▁bl o
▁cont ents
▁good ?
▁' ?
▁gr id
▁am end
▁happ ier
▁khu ếch
▁hiệu ,
▁rel ate
▁att ended
▁Al right,
▁last s
▁gen ius
▁belie ving
▁reg im
▁nay ?
▁thú ,
▁ngu .
▁mon key
▁Fr id
▁mù i.
▁pain ted
▁bus .
▁fact .
▁giao .
▁exp ose
▁family 's
▁interest s,
▁áp .
▁ear s.
▁cạnh .
▁effect ive.
▁cur l
cc ol
▁creat ivity
ik i
▁conc lud
▁vợ .
▁imag ine.
▁Le e,
▁pri est
▁pri ze
▁ed ges
▁adv ise
ann ed
▁main ten
▁fac ility
▁listen ing.
▁Co ast
▁sổ ,
▁low .
▁special ized
▁tù ,
▁fat ,
▁ur gent
▁circ ulation
▁los s,
▁thao .
▁luck ,
▁educ ational
▁Window s.
▁available ,
▁wash cloth
▁alone ?
▁Paul .
▁dress ing
▁gentle man
▁Rom e.
▁trick .
▁Bob by
▁ign ored
▁writ ing.
▁English .
▁valu es.
▁âu .
▁gard en.
▁conflict .
▁Rach el,
▁Enter pris
▁Max ,
▁disord er.
▁scen ari
▁client s
▁neighborhood .
▁Up d
▁contribut ing
▁overwhelm ing
▁Port ug
▁domin ant
▁overn ight.
▁conce al
▁soot hing
▁Prov ide
▁Serge ant
▁outf it
▁incorpor ate
▁exclus ive
▁HD MI
▁capab ilities
▁algorith m
▁Roosevel t
▁Floren ce
▁ibuprof en
▁swoll en
▁doz ens
/ 3
2 )
C A
R ,
e y,
g es,
i us,
l ay
o is
r imin
▁ ôi
▁c ul
▁s òng
▁s ight.
▁h ốc
▁h at.
▁h atch
▁m L)
▁v á
▁v ạn
▁v ạt
▁v ít
▁ch ĩa
▁ch ance,
▁ch ùm
▁w ider
▁g án
▁tr ag
▁T ải
▁I V
▁r on
▁r ạch
▁C ob
▁C oh
▁N ào
ow o,
▁M ort
▁M oon
▁st ability
▁Y em
os is,
▁V iew
▁làm ?
▁D aw
▁L ai
▁L ip
▁L ệnh
▁" in
▁P ers
▁se vent
ight s
pp er.
▁đến ?
▁ab ilities
▁E U
▁( as
▁R ượu
se ct
▁de af
ig ate
▁just ify
ra ham
▁nhà ?
ook ed
▁di ap
▁him ...
▁pe ak
▁right s,
▁Ng ôn
▁our selves,
▁giữ a.
▁Em p
enc ing
▁cr an
ne ys
▁guy s?
▁real ity,
▁care ful.
▁ngu ỵ
▁ob v
▁cour t.
▁ext ension
▁Br on
▁nổi ,
▁30 ,
▁cal m.
▁thanh .
▁Ar ctic
▁mar ch
▁đọc ,
▁dist ant
▁pass es
▁cent er.
▁soát ,
▁dữ ,
ov a
▁18 .
▁cánh .
▁dây ,
▁tre es,
▁Bl oom
▁half .
▁redu ces
▁De ng
▁government 's
▁toán ,
▁sens ation
▁Bắc .
▁En cour
▁mil es.
▁bột .
▁present ,
▁son 's
▁17 8
▁affect ing
▁forg iven
▁40 %
▁research ,
▁14 ,
▁Goog le,
▁trouble ,
▁himself ,
▁Kho an
▁North ern
▁adm itted
▁cưng ,
▁1/ 3
▁enem ies.
▁Hen ry,
▁Captain .
▁solut ion,
▁Dương ,
▁butt ons
▁concent ration
▁gather ing
▁prop ag
▁(th ường
▁mỉ a
▁neur ons
▁Gold en
▁ment ally
▁Ke ith
▁vent il
▁Comp any
▁Hun ter
▁Mass achus
▁Vis it
▁Phot os
▁carbohyd rates
▁toler ate
▁perce ive
▁digest ive
▁advert is
▁metaph or
▁epis ode
▁divers ity
▁moisturiz er
▁ancest ors
▁legit im
▁ec osystem
▁constitut ional
▁schedul ed
▁Steph en
▁Cather ine
▁Phoeb e,
▁dõ i.
▁sher iff
▁serot onin
▁accompan ied
4 5
j ack
o ved
r ust
ơ m
▁t ạng
▁c òi
▁th ẳ
▁n áo
▁b er
▁m im
▁m ánh
▁l úng
▁l y.
▁l ùn
▁v ác
▁ch in
▁ch ích
▁ch ase
▁d ot
▁d ad,
▁p aw
▁the ory,
▁tr ầy
▁tr illion
an as
▁to e
en s.
▁T ầm
▁T alking
▁f ly.
▁f ive.
▁ng ầm.
es a
▁C ử
▁C ưng
ar ies,
et ?
▁N ak
ow ing
▁be ars
▁B I
▁B oo
▁H ỗ
el p
el ess.
▁Ch ứ
▁Ch ữ
▁L ive
▁L ake
▁L iving
▁K w
▁K ông
and a.
ol ,
▁F ern
▁F ine,
▁le ct
▁just ice.
ep s
ep ress
▁pe as
▁cl aw
▁ag ent.
▁3 :
▁br oth
▁br idge.
▁Ph ủ
▁bl ue,
▁tw ice.
▁yêu ?
▁app e
▁tất .
▁comp ens
▁Gi ai
▁am mon
▁fl atter
▁hand y
▁rec ipe
▁phụ ng
▁cuối ,
▁6 2
▁sl aughter
ix .
▁life 's
▁run ning,
▁"T ại
▁Fr ances
▁9 11
ont al
▁cal o.
▁tiết ,
▁Z ero
▁cut .
▁khách ,
▁cur ios
▁hữu .
▁kiện ,
▁support s
▁activ ities,
▁mess ed
app ropri
▁stor ies,
▁fig ures
▁stat es.
▁"A ll
▁pract ice,
▁contact ,
▁mag ical
▁25 %
▁simp le,
▁Su z
por ary
▁super ior
▁fast est
▁priv acy
▁sil ence
▁therap y.
▁hò .
▁ups et.
▁aud ience.
▁depress ed
▁emerg ing
▁flu ids
▁indust ry.
▁ver bal
▁thờ .
▁smart ,
▁gỗ .
▁chậu .
▁Mom .
▁cris is.
▁hospital ,
▁Fo ot
▁oppos ition
▁Jul iet
▁mount ains
▁bleed ing.
▁accompl ished
▁Everything 's
▁meal s.
▁só ng.
▁screw ed
▁Fore man
▁escap ed
▁elev ator
▁counsel or
▁Hill ary
▁Atl antic
▁transl ate
▁Victor ia
▁seal ed
▁insp ire
▁kẽ m
▁dos es
▁secur ity,
▁Gord on
▁dưỡ ng,
▁suspic ious
▁pier cing
▁ridicul ous
▁aer obic
▁disag re
▁dedic ated
▁Vlad im
▁xố p
▁tremend ous
▁contrad ict
▁Mississ ipp
l ish,
r ations
u a,
Â m
ệ t.
▁c òng
▁c ider
▁c ậy.
▁a h?
▁s ập
▁h ức
▁m ăng
▁ch ay
▁w rest
in ction
▁d ude.
▁p a
re ate
▁to es
▁T ang
▁T err
▁C ind
▁ph iến
▁có c.
▁N ền
ot h,
▁qu ăng
▁be ard
▁S udd
▁S iber
▁S IM
▁B ảy
▁B row
▁B uck
▁B G:
▁wh ite,
▁M end
▁M ult
▁H erm
▁ha mm
▁sẽ .
▁ho od
▁st ing
▁D all
▁D ata
▁L á
▁L ợi
▁K ính
▁" re
▁" and
if e,
if ied,
e, "
▁G ulf
ore t
▁E ps
▁Nh úng
▁R io
ol ph
▁F ield
ri et
▁want s.
▁sp inal
▁nhất ?
▁cl ay
▁dis l
▁gr ill
▁5 4
▁chu a,
▁around ?
▁thị t,
▁chang es,
ph ones
▁bác .
▁Be ng
▁ind eed,
▁phép ,
▁set up
▁mean s,
▁sign ing
▁plan ?
▁bus h
▁understand s
▁rest ,
▁200 1,
▁coll aps
▁Se a,
▁hồ ng.
▁sal t.
io xid
▁tre e,
▁tre es.
▁cond em
▁polit ics.
▁Har ve
▁listen ed
▁stat es,
▁cư .
▁Pro gram
▁mời .
▁Ad minist
▁text s
▁ngược .
▁ấm ,
▁ground s
▁post ure
▁ngạc .
▁super vis
▁file ,
▁cult ure,
▁13 ,
▁jud icial
▁trà .
▁Ne ed
▁Ne ither
▁goal s,
▁nut s
▁tab l
▁collect ing
▁collect ed
▁president ,
▁bow el
▁wound s
▁attempt ed
▁marri ed,
▁gió .
▁earth qu
▁purch asing
▁tor n
▁yog ur
▁Brit ain
▁ruột .
▁motiv ation
▁password .
▁proced ure.
▁print ed
▁Braz il.
▁load ed
▁embarrass ing
▁Coll ege
▁fle a
▁Beijing 's
▁Dem ocratic
▁princip al
▁brows er.
▁label ed
▁drunk .
▁lic ense
▁Scot land
▁punish ment
▁Ry an
▁tum or
▁Virgin ia
▁navig ate
▁delic ious
▁vamp ire
▁Morg an,
▁đĩ a.
" ).
C :
O L
] .
a el
e ven
r h
▁ |
▁th read
▁h ips
▁m ạt
▁l end
▁l ứa
▁v òng.
▁ch ồi
in ating
▁d imin
▁p add
▁the s
▁the ater
is one
▁T ool
▁f ict
▁ng ửa
▁ng òi
▁r án
ed !
▁C el
▁C ult
▁N on
ot a
ic ation
▁be ast
▁S ul
▁S um
▁S ull
▁S ym
▁B ra
▁B ett
▁M ức
▁M agn
▁H amm
▁H obb
▁re nder
▁Ch air
▁G ather
▁fr y
▁j elly
▁( 9
▁( kh
▁( 2.
▁Tr ade
um e.
▁ông !
un c
▁like :
ri es.
▁fe at
▁pe op
▁need ing
▁tu a
▁bu il
▁bu zz
▁off !
▁feel ,
ond er
way s.
▁bên ,
▁sm arter
▁person s
ian a
▁little ,
▁rec ur
▁po vert
▁chắc ,
▁chú ,
▁kế ,
▁Al ask
▁Sh are
▁spec ies,
▁Fr ance,
▁bas ement
▁cat ast
▁system s,
▁light ing
▁pos ter
▁lik eli
▁xét .
▁cur se
▁human s.
▁i OS
▁dead ?
▁gener ated
▁Se b
▁hồ n.
▁complet e.
▁ant ihist
▁prov ider
▁eat ing.
▁char ge.
uth or
▁hạ .
▁bott les
▁trừ u
▁chữ a.
▁Dr inking
▁difficult ,
▁contain er.
▁card ,
▁cop ies
▁land ,
▁lông ,
▁sẻ .
▁thụ .
▁z inc
▁bi ology
▁bom .
▁Good ,
▁Bar ack
▁attack ,
▁suggest ions
▁ẩm ,
▁jud ges
▁condition ing
▁color s.
▁hyd roc
▁Mon ro
▁viol ence.
▁comfortable ,
▁deb t.
▁quang .
▁weap ons.
▁target .
▁tast e.
▁DNA .
▁tur t
▁ign oring
▁mỏi ,
▁ố m.
▁habit s.
▁tank .
▁Enter tain
▁lawy er.
▁bother ing
▁"g i
▁kitch en.
▁Law rence
▁cheap er
▁nation 's
▁mer ch
▁Father ,
▁Sky pe
▁bul b
▁Tre v
▁chăng ?
▁categ ory
▁hobb y
▁Jew ish
▁pepp ermint
▁fascin ating
▁occasion ally
▁nightm are
▁Lieuten ant
▁distingu ish
▁Academ y
▁Sudd en
▁likeli hood
N D
g o.
i op
ẹ n,
▁th ê
▁s ùng
▁s àn.
▁h ũ
▁m ỳ
▁ch ùi
▁ch ậm.
▁w ings
▁p ose
▁p ipe
▁ng ạo
▁A ld
▁be ing,
▁B ọ
▁nà ng,
ere m
ad o,
▁D al
▁L ower
▁L ớp
▁sh ipping
▁" sh
▁P he
▁not ic
▁G ates
▁me et.
▁ab duct
ag ement
▁R educe
▁F ried
▁out r
▁fe ver,
▁ag encies
▁sống ?
▁back p
omet er
▁co in
▁So ft
▁time !
▁bet a
▁' II
▁call s.
▁down ward
▁mo i
▁5 2
▁chu ồn
▁world ?
▁giết ,
▁sk elet
▁cons pir
▁kind a
▁head ?
ash es
▁Cl aud
▁form ation
▁200 5
▁hả .
▁gener ations
▁đoán ,
▁mod el,
▁working ,
▁pay s
▁past e.
▁đô ,
▁support ,
▁mark et,
▁lộ .
▁50 .
▁polit ics,
▁result .
▁Dr agon
▁serv ice,
▁sex ,
▁Jo ff
▁hope fully
▁Any body
▁thả m.
▁phone ?
▁chim .
▁thank s.
▁dest ruction
▁ly ing.
▁present ation
▁win ner
▁Com put
▁los e.
▁rul es,
▁tá o,
▁strength s
▁aut onom
▁approach ing
▁birth day,
▁ghế .
▁express ing
▁Earth 's
▁employ ment
▁summ er.
▁ju ice,
▁bẩn ,
▁Alex .
▁subject .
▁gentle men.
▁prec ise
▁ic on.
▁mad e,
▁gương .
▁Philipp ine
▁blow ing
▁lát .
▁Hell ,
▁Bet ween
▁scal e,
umm y
▁breathing ,
▁student s,
▁calor ies.
▁buck s
▁reject ion
▁Stre et.
▁ngoái .
▁fant as
▁tempt ed
▁gri e
▁colleg e,
▁sock s
▁nọ ,
▁satisf ied
▁nú i.
▁Gab ri
▁` s
▁legit imate
▁pra ise
▁molec ular
▁infrastruct ure
▁Scar borough
▁sovereignt y
▁tex ting
role um
▁Encour age
- C
- b
c a,
k a,
m eal
n old
▁ ồ
▁t et
▁n ướ
▁n ít
▁b ia.
▁b amb
▁m ượt
▁m ặn
▁l ợ
▁l t's
▁ch èo
▁ch ạp
▁g ree
▁d read
at ur
▁nh a.
▁tr ay
▁ng ỏ
▁r ỗ
▁r ầy
▁C air
▁có :
▁gi òn
▁gi ùm
▁N ắm
ic ill
ic ular
▁B ax
▁wh eat
ut s
▁Ch un
▁ngh iện.
▁Đ ột
▁Đ ổi
▁V e
▁cá t.
▁D ạ
▁D im
▁L ine
▁L ance
▁L ạy
th rit
▁K ì
▁" wh
▁P ear
▁as h
▁ne phe
au c
ell a,
▁And erson
ab ility,
ig e
▁Tr i
▁nên .
▁nhà o
... ?
▁cl og
▁could ,
▁St ef
▁br ands
▁bl ade
so le
▁un st
▁' L
▁ar t.
▁vụ ng
▁fl ed
▁still .
▁ser ious,
ert o
▁vô .
▁vệ ,
▁chỗ ,
▁mục .
▁acc us
▁Sh ift
▁aw ake.
▁quân ,
▁biểu .
▁bus y.
▁ngài ?
▁health care
omm od
▁lịch ,
▁trans f
▁test s.
▁Sp ring
▁mô t
▁Or der
▁bóng ,
land s
▁miss ile
▁sal icylic
▁relationship s,
▁luyện ,
▁vai .
▁mẫu .
▁short cut
▁ang er,
▁vir gin
▁appear ance.
▁infect ions.
▁ste ak
▁kem .
▁loạn ,
▁mag ic.
▁return s
▁giỏi ,
▁report ing
▁(1 8
▁Ab raham
▁oper a
▁fail ing
▁dark er
▁tuyến ,
imm ing
▁Com pan
▁tend er
▁terr itory
▁soft en
▁chóng ,
▁aut o
▁din ner,
▁din osaur
▁Tu ân
▁Jap an.
▁Rep ort
▁khổ ,
▁cit ies,
▁scient ist
▁emerg ed
▁Fin ch,
▁surpris e.
▁meant ime,
▁vac ation
▁univers e,
▁acid s
▁continu ous
▁ign or
▁Carl ,
▁lẻ n
▁diagn ose
▁"You 're
▁Bab yl
▁ut er
▁camer a,
▁° C
▁Mill er
▁background .
▁territor y.
▁fundam ent
▁Austral ia,
▁whis per
▁Bru ce.
▁Serv ice
▁"y ou
▁discip line
▁Florid a
▁surge on
▁politic ians
▁Econom ic
▁tack le
roduct ive
▁Bit co
▁Jav a
▁expans ion
▁helicop ter
▁Wik iped
▁flir ting
▁allev iate
▁ô- xy
- p
7 )
f ire
f old
r z
v as
w est
▁c úp
▁c ạp
▁th ự
▁th ừa.
▁n ới
▁s ome.
▁b ỉ
▁b un
▁b ênh
▁m ưa.
▁l uộc
▁v el
▁k it
▁ch ef
▁g ặm
▁p oo
▁p ale
▁p acking
on y.
at ar
▁o ily
▁T uc
▁f et
▁f rog
▁ng õ
▁I mm
▁r èm
▁C ab
▁ph anh
▁S eth
▁S yd
▁B án
▁B ureau
▁wh ite.
▁nà nh
ut .
▁V .
▁D ung
▁L yn
▁khi ển.
▁K ab
▁K iếm
▁P itt
ore s.
▁E ri
▁E gg
▁( for
▁go es,
▁bị a
▁ma id
▁Tr à
▁We ather
▁di ễu
▁over t
▁dis k
▁bà o.
▁gr asp
▁ar m,
▁ar rog
▁hết !
▁inter ven
▁inter rog
▁5 ,000
▁khó ,
▁thêm ,
▁kill ed,
▁10 -1
▁tăng ,
▁cảnh ,
▁pol ite
▁gì? "
▁ob es
▁200 4
▁nhóm ,
▁dist ance.
▁fun eral
▁human s,
▁Se oul
▁che at
▁conc ern.
▁else where
▁arm s,
▁plant ,
▁plant ed
▁phys i
▁mess ing
▁khẩu .
▁cop .
▁hon or.
▁Nên ,
▁sens ory
▁cost s.
▁text ure
ator s,
▁tỉnh .
▁sun light.
▁record .
▁Fl int
▁West .
▁post ed
▁gốc .
▁circ les
▁bur n.
▁cult ures
▁stick s
▁stick y
▁condition s,
isc al
▁threat .
▁approach es
▁surf aces
▁thang .
▁summ er,
▁strateg y.
▁cong rat
▁bếp ,
▁King 's
▁unc over
▁gối ,
▁tuý ,
▁experienc es.
▁Right s
▁batt les
▁II I
▁nerv ous.
▁scal e.
▁note book
▁oce an.
▁famil ies.
▁prin cess
▁tun n
▁Mer lyn
▁trigger ed
▁mirr or.
▁Po ly
▁assign ment
▁Chand ler.
▁acqu ired
▁Pak ist
▁Jac qu
itud e.
▁cere mon
▁disappoint ed
▁decad es,
▁inher it
▁barri er
▁SP F
▁Colomb ia
▁entr ance
▁curren cy
▁chur ch.
▁anonym ous
▁Event ually,
▁bẫ y.
▁Yah oo
▁sunsc reen
▁Sier ra
" !
- sh
N S
f eed
p any
y cl
z er
▁ ^
▁c uc
▁s ad,
▁v est
▁v ăn.
er ation
▁tr op
it a.
▁T oy
▁f ax
or ters
▁r ate,
▁C ải
▁N ão
▁A M
▁qu ạ
▁B rav
▁bạn :
▁M ig
▁H end
▁H unt
▁for cing
▁st ains
▁Y ong
▁Đ ệ
▁Đ ảo
▁an ch
▁an atom
ly n.
▁ra ce.
▁L enn
em an
▁G rey
st orm
pp le
▁j ung
▁j erk
op t
▁E le
▁O z
ig ur
▁Tr ận
▁le cture
▁J F
▁J ourn
res ent
▁He y.
▁pe pper
▁need s,
▁who a,
▁tu ck
▁work ed.
▁gr ace
▁comp ost
▁X ử
ea h?
▁friend ?
▁gh im
▁cr ust
▁sy ru
▁end s.
▁acc ent
▁acc ommod
▁str and
▁diễn ,
▁el astic
▁phân .
▁sit s
▁8 2
▁201 0.
▁9 5
▁Br id
▁rest ing
▁lik e...
▁xo áy
▁bit ter
▁spe ed,
▁level s,
▁order s.
rib ly
▁(C ài
▁Pr int
▁five ,
▁pop s
▁heard .
▁speak ers
▁fac ilit
▁hell ,
▁question :
▁App lic
▁group s.
▁hon our
▁percent ,
▁khai .
▁par an
▁stuff ?
▁ton er
▁slow ly,
▁text book
▁bed d
▁ready ?
▁dream ed
▁(1 0
▁cứng ,
▁select ion
pr oof
▁forget .
▁fear ,
▁qual ified
▁nut s,
▁Bill y,
▁parents '
▁employ er
▁discover y
▁Bu ồn
▁honest ly
▁tròn ,
▁struct ural
▁hè ,
▁oxy g
▁bội .
▁shap es
▁mor ph
▁beat en
▁cream s
▁reflect ion
▁Det ro
▁phổi ,
▁More over,
▁har m.
▁fruit s,
▁perspect ive,
▁Dis ney
▁Trời ,
▁Bab y,
▁democr acy.
▁tox ins
▁safet y.
inst all
▁mechan ical
▁pock et.
▁tong ue.
▁Jeff erson
▁đáo .
▁architect ure
▁propos al
▁knock ed
▁um ...
▁popul ation.
▁assert ive
▁evolution ary
▁Saf e
▁empath y
▁dimens ional
▁disag ree
▁convent ional
▁matt ress
▁funer al.
▁Seb ast
- 0
- A
E E
a ed
k i,
l u
p s,
r ons
▁th ét
▁n ud
▁h ier
▁h ide.
▁l ake
▁v ấp
▁p ic
on a.
▁y 'all
▁nh ô
▁tr àm
▁tr ận.
▁tr ạng.
▁tr oop
▁T ế
▁ng ai
▁r ậm
▁C à
▁C ăng
▁in !
▁gi àn
▁e B
▁N Y
▁N ed
▁Th ail
▁be aring
▁B ot
▁x ù
▁W ake
▁Ch an
▁Ch ườm
▁Đ ằng
▁V L
▁D O
ro ,
ter n.
▁G ust
▁ab und
▁su ôn
▁( 0.
▁( Âm
▁R ain
▁R ay.
▁F ight
▁us ern
▁us eless
ab it
▁Tr ần
▁đị ch.
▁any one,
ie ń
pl ed
ak u
▁3 -4
▁ad vers
iv ir
▁somet imes,
▁ar thrit
▁sĩ ?
▁inter vent
▁5 -10
▁Well s
▁bo om
▁long er,
▁fri ed
▁ro omm
▁dr ive,
▁ít ,
▁car ries
▁des k.
▁dec ides
▁An sw
▁201 5.
▁201 1.
▁looking .
▁move ment.
▁30 .
▁mar ij
▁soc ially
▁mom 's
▁ngồi .
▁spe ed.
▁cộng ,
▁cử ,
▁"C ô
▁Ex press
▁begin ning,
▁opt ions,
▁Pl ant
▁Pr ice
▁face ?
▁50 ,000
▁knew .
▁bro ccol
▁teach er,
▁organ ism
▁boy 's
▁store s,
▁public ,
▁hous ing
▁Car ib
▁rad io.
▁foot age
▁lao .
▁chậm ,
▁patient s.
▁hung er
▁lược .
▁whatever .
▁thao ,
▁Miss our
▁sister 's
▁sto pped.
▁skill ed
▁"t ôi
▁stri kes
▁mì ,
▁phạt .
▁walking ,
▁nở .
▁calm ing
▁"m ột
▁decis ion,
▁quiet ,
▁except ion
▁writ ing,
▁complic ations
▁speaking ,
▁tight ly
▁firm s
▁ingredient s.
▁student s.
▁rồ ng.
▁Reg ard
▁proced ures
▁mask .
▁advant age.
▁alive ?
▁promot ion
▁só t,
▁Pay P
▁suic ide.
▁Ins pect
▁diệu .
▁circumst ances.
▁je ans
▁absorb ed
▁ừ m,
▁bos s,
▁Net work
▁teet h,
▁Roy al
▁Palm er
▁Vinc ent
▁funct ion.
▁stro ke
▁Pho en
▁Ret urn
▁goodby e
▁goodby e.
▁Ey e
▁nhả y.
pert ies
▁landsc ap
▁sweethe art.
▁Satur day
▁Vladim ir
- 6
H .
b ot
b and
f ell
l er's
o os
r ung
w ise
▁ \
▁t ennis
▁c age.
▁s add
▁b ars
▁m ere
▁v ảy
er als
▁ch rom
▁w are
▁w ine.
in ated
▁nh ãng
▁tr ium
▁T s
▁T at
▁f ans
▁ng ó
▁r ành
▁r ệt
▁in e
▁N H
▁A ck
ot o
▁H út
▁H ug
▁H appy
▁ha o
▁your selves
▁V ận
▁an y.
▁ra ce,
▁D EA
▁P ush
▁G il
st .
▁Nh a.
▁R uth
▁O reg
▁F err
▁out break
ers on,
▁ma k
▁J ang
▁kho át
▁man kind
▁mu a.
▁3 9
▁qua ?
▁br on
▁' D
▁ar ise
▁inter ior
enc ies.
▁mất !
▁cr y.
▁hand led
▁add iction
▁kind ness
▁el ite
▁bre ach
▁pres erv
▁met e
▁Just ice
▁exper iments
▁kiếm ,
▁201 6.
▁compl iments
▁nam ,
▁ext ens
▁ext inct
▁phá n.
▁rest art
▁disc ol
▁disc ount
▁dep ri
▁seem ingly
▁kỹ .
▁expl oring
▁fre aking
▁ru ined
▁stre et,
▁Ex am
▁Sc orp
▁product ion.
▁ant ioxid
▁nghị .
▁hur ry.
▁fil m,
▁mem br
▁reason s,
▁deep ,
▁boy s,
ured .
▁Gr ace.
ins on
▁brother ?
▁lab ,
▁dối ,
▁return ,
▁En sure
▁hứng .
▁issu e,
▁Comm ander
▁spr out
▁Frank ?
▁eye b
ane ously
▁compan ies.
▁serious ly,
▁Fl ash
▁viêm .
▁ill usion
▁tồi .
▁xương ,
▁circ le.
▁please !
▁giãn ,
▁hop e,
▁threat s
▁chả y,
▁Ma ur
▁Kho an,
▁communic ating
▁picture s.
▁require ments
▁husband 's
▁Fin ch.
▁Sw itch
▁univers ities
▁"Đ ừng
▁Med lock
▁trick s
▁piec e.
▁Sl ade
▁gar age
▁cand y
▁Canad ian
▁san it
▁prison er
▁Hu gh
▁tiss ues
▁trial .
▁Vi êm
▁Jimm y.
▁replac ing
▁lon el
▁cart oon
▁rang e.
▁mistake ,
▁flower s.
▁uncomfort able.
▁tempt ing
▁analy ze
▁surger y,
▁Const itut
▁flex ible
▁Ten nes
▁loyal ty
▁vig ilant
▁Argent ina
▁Div ision
▁overn ight
▁explor ation
▁jewel ry
▁contrast ,
▁register ed
▁vò m
▁brok en.
▁transp aren
▁knowled ge.
▁narr ative
▁HT ML
▁(Kh án
▁"Ồ ,
▁foss il
/ 201
1 00
8 )
T C
l ined
y on
ệ ch
▁n iệu
▁đ ắc
▁b áng
▁b ilateral
▁m ate
▁m ast
▁m ọng
er y.
▁w ag
in 's
▁d ab
▁p ants.
▁the ory.
on al
▁nh ẽ
es y
▁r ể
▁r ing.
▁r ude
▁C art
▁C CP
▁in appropri
▁gi ỏ
▁e cz
ot e,
▁S amm
▁B ul
▁re ar
▁W ils
ent ly,
▁Y u
▁V àng
▁L ion
▁L az
▁K rypt
▁Tôi ,
▁or bit
▁P ed
▁P ack
if ies
▁G o,
▁gì !
▁The od
pp er,
pp ed,
▁su n,
▁R ắc
au .
ell a.
▁điều ,
▁nghĩ :
▁all ies
▁al pha
▁al umin
▁Kh ác
▁pro pose
▁Tr ồng
▁khác :
▁sp ite
▁di p
▁di ver
▁di es.
▁no ?
▁Ph u
▁work er
▁dis respect
▁un bel
▁pre ach
▁way !
▁res ume
▁gr oss
▁Gi ọng
ens e,
▁fl ight.
▁bel oved
▁car s.
▁cons ulting
▁real izing
▁add s
▁high ,
▁Qu ent
▁mày !
▁Sh o
▁kid 's
▁Fr ance.
▁small est
▁plan n
▁def ect
▁pos it
▁Ar k
▁Bec ause,
▁dist ort
▁ret ired
over .
▁dead ly
▁thinking ?
▁prof ile.
ov ich
ox ,
▁dam ag
▁term s.
▁fig uring
▁class ified
▁question ?
▁red ness
▁cop s.
▁personal ity.
mm ?
▁cost .
▁Bar ry,
▁technolog ical
▁bill .
▁Fl etch
▁sour ce.
▁Eng lish,
▁respect ive
▁react ion.
▁smell .
▁smell ing
▁educ ated
▁Min istry
▁track .
▁Mc D
▁situation s,
▁Wor king
▁1, 5
▁vững .
▁ong oing
▁pin ch
▁đài .
▁lẻ .
▁sắt .
▁lung s.
▁tật ,
▁dollar s,
▁rat io
▁trưa ,
▁appl ies
▁mal es
▁promot ing
▁wid th
▁stem s
▁colleag ue
▁anal og
▁veh icles
▁Ken ya
▁disappear .
▁Bang l
▁Twit ter,
▁Nat al
▁vari able
▁arrang ement
▁profession als
▁dà y,
▁tort ure
▁smok e.
▁remed ies
▁Som al
▁Debb ie
▁neu rolog
▁trau ma
▁atmosp here.
▁micros cop
▁cater pill
3 3
E C
S t
k a.
m m.
s m
u ard
ò m
ó w,
ự ng
▁t ặc
▁t ale
▁c udd
▁th irty
▁s i
▁b ip
▁h ươ
▁l óc
▁v ow
▁k ali
▁ch uộng
▁w av
▁w ool
▁w olf
▁g ỉ
in i.
▁d orm
▁y es?
it is.
▁T uck
▁f iring
▁I B
▁C ụ
▁C ape
ch em
ay a
om n
▁A ch
▁Th ẩm
▁M oo
▁H allow
▁W .
▁Y i
▁Đ ấu
▁V ill
▁sa p
▁ra ises
th ood
▁sh a
▁" Qu
▁P am
▁he al.
▁G az
▁ne ural
▁me al,
ao ,
▁lo bb
▁( J
▁O ll
▁de als
▁out line
▁pro hib
▁hơn !
▁sp ont
ie ur
▁his .
▁bắt ,
▁tu ỵ
▁ngo an.
av or
▁ac etaminophen
▁un fortunately,
ass es
other apy
▁tất ,
ru b
▁X box
▁vi ,
▁long ?
▁start ed,
▁kill .
▁des ires
▁cons ists
▁count .
ys ter
▁bre w
▁pres cript
▁lợi ,
▁văn ,
▁bas e.
▁lead ers,
▁stud y,
▁200 1
▁200 4,
▁danh .
▁soc i
▁ngồi ,
▁ear ly,
▁vis ion.
▁dead !
▁gener al.
▁everything 's
▁saw .
▁Ex p
▁matter ?
▁cor al
▁deal t
▁medic ations,
▁chữ .
▁short .
▁short ly
▁ang ry,
▁stat ement.
▁design er
▁"N o
▁program s.
▁anim al.
▁norm al,
▁z oom
▁woman ?
▁black ,
▁En joy
▁ẩn ,
▁huy .
▁view ed
▁ident ifying
▁198 0,
▁circ uit
▁super v
▁access ible
▁tiệc ,
▁đự ng.
i- F
▁perform ance.
▁ngốc ,
▁Sar a.
for ward
▁effort .
▁mại ,
▁vill age.
▁respond ed
▁chai .
wood .
▁fair y
▁đức .
▁tax es
▁represent ing
▁spir its
▁associ ation
▁Carl os
▁reve ng
aph rag
▁cast le
▁finger print
▁dish es
▁vú .
▁occas ional
▁Sara h.
▁syn thetic
▁Chicag o.
▁dram atically
▁Eth ern
▁arrang ed
▁therefore ,
▁Cath olic
▁decad es.
▁cigare tte
▁grav ity
▁Girl s
▁sữ a,
▁depos it
▁troub les
▁Veg as
▁lụ a
▁Kam ień
▁furth er.
▁Choszcz no,
▁rhyth m
▁authent ic
f e
o on.
▁t ense
▁n ôn.
▁s el
▁s arc
▁s éc
▁b id
▁b úa
▁m a.
▁m ọt
▁l s
▁l ạy
▁g ẫu
▁d ess
on i
on ald
at ic.
▁nh ọc
en s,
▁o z
is er
▁f etch
or i
▁r o.
▁C yr
et ting
▁N ạn
ow er.
▁qu en,
▁Th áo
▁Th ừa
▁S ans
▁B ệ
▁B ah
▁x ướng
▁M ist
▁M ạch
▁H a
▁W arn
▁W rap
el and
▁for ce,
▁Ch en
▁st ar.
▁n't !
▁con !
▁Y e
▁V ern
ad ow
▁D ,
▁D H
▁D ần
▁D irect
th rough
▁sh ares
em ,
▁P ent
▁can n
▁G óc
st aff
▁so f
▁j og
op sy
▁su its
est ival
▁E ,
ag a
and o
▁al i
▁Kh ánh
▁2 )
▁2 1,
od e.
▁ca ke.
▁fe ared
▁ti re
▁trước ?
▁cl ue
▁she ep
iz ard
▁co i.
ial s
▁now ...
▁ngo ạn
▁dis m
▁dis infect
ob e
▁lif ting
▁xu .
▁first ?
ian s.
▁start ,
▁xuất ,
▁Al ab
▁Qu ick
▁hum an,
▁mon it
▁rep rodu
▁small .
▁phá ,
▁men u,
▁sub mit
▁dist ress
▁Z oom
▁sol o
▁nhạc )
▁prob iot
less ly
▁Ex amine
▁product ivity
▁Bl ock
▁quý .
▁Le ft
▁cond om
▁deal ,
▁plant ing
▁hộp ,
▁Gr ace
▁"S ave
▁chỉnh .
▁dev ice,
▁account able
▁Ad just
▁25 ,
▁invol ved,
▁Pet e,
▁warm ing
▁win ter.
▁enj oy.
▁object .
pr om
▁Christ ,
▁shall ow
▁bag ,
▁13 .
▁rul ing
▁treatment s.
▁luck y.
▁sus cept
▁grand child
▁obs c
▁"The y
▁arg ued
▁item s.
▁cook .
▁hyd rated
▁detail .
▁mại .
▁consum ed
▁"Đ ây
▁enter pris
▁sam ples
▁Lord .
▁roll ing
▁wood s.
▁opin ion,
▁character istic
▁đớ n,
▁detect ive
▁earl ier,
▁prison ers
▁reflect s
▁investig ate
▁investig ation.
▁prior it
-x in
▁crush ed
go ing
▁Mo z
▁Ber ke
▁appoint ment.
▁disord ers
▁mạc .
▁poll ution
▁D. C.
▁propert ies.
▁Iraq .
▁impl ications
▁Ap oll
▁Father .
▁magn etic
▁Marc el
▁champ ions
▁Expl ain
▁sle e
▁Scot t.
▁overwhelm ed
▁categ ories
▁scream ing
▁manip ulate
▁frame work
▁co- work
▁upst airs.
▁mirac le
▁Vall ey
▁Develop ment
▁Rev olution
▁phenomen on
▁assho le.
▁ye ast
▁caut ious
▁defe ated
▁Wars aw
▁deterg ent
▁Lyd ia
▁surre nder
▁Cudd y
▁Sever al
▁Exam ples
▁Bangl ades
▁dess ert
P oint
c ar
g ien
i ences
k ed
l ob
l ph
r ans
u ana
õ m
ử ng
▁ }
▁ Ð
▁ ice,
▁th ừng
▁th ắp
▁th i,
▁th ầy.
▁s ad.
▁b ùa
▁m omm
▁l ion
er ge
▁g oss
▁d ệt
▁p ace
▁the or
at i
▁tr aces
▁T ogether
▁ng ợp
▁I U
▁I b
▁I l
▁r ope
▁C ẩm
▁ph osph
ch lor
▁qu ay.
▁be et
▁B art
▁M ilitary
▁H us
▁H osp
▁on ion
▁W ester
▁W i-F
▁cho pped
▁V on
▁V ic
▁li ar
▁D J
▁D ây
▁D òng
▁L G
▁L ess
▁L uyện
▁K le
st an
▁lo ver
▁Nh a,
▁go at
ol er
▁O ak
▁ex agger
▁know n.
▁al right
▁Kh uyến
▁her d
▁tim ing
▁kho anh
ap .
ach el
▁Do anh
iz oph
▁been ?
▁St ress
▁St ock
▁Ph ục
▁Ph ẫu
▁phần ,
ave l
▁' ,
▁' k
▁per mit
anc y,
▁câu ,
▁dự ng,
▁giải .
▁4 50
ath an
▁gh ẻ
▁rec onst
▁car rot
▁dec iding
▁inst ance
▁thử ,
▁inv itation
▁set back
▁met a
▁aw ait
▁ké m,
▁nam .
▁Mar x
▁cat s.
▁stud ent.
▁loc ation,
▁Sp ort
▁dung ,
▁cent imet
▁bab ies.
▁clean se
▁tem ple
▁fore head
▁nạn ,
▁thái .
▁Gr ad
▁cou ples
▁cốc .
▁bi as
▁mừng ,
▁lim b
▁Bar ry.
▁fat al
▁gun ?
▁16 .
bo ard,
▁share .
▁flo at
▁tắt .
▁challeng e.
▁mê .
▁approach .
▁sốt ,
▁liệt ,
▁sold ier.
▁communic ation.
▁ann ounc
▁ninh .
▁straight forward
▁possib ilities
▁remind er
▁"L àm
▁log ical
▁bacter ia,
▁ce iling
▁victim .
▁nướng ,
▁hà o.
bur g.
▁install ation
▁DNA ,
▁"G i
▁gift s
▁introdu ction
▁yog a,
▁gre en,
▁drag ged
▁Ổ n
▁cris is,
▁switch ing
▁proud .
▁tật .
▁rồ ,
▁Mos es
▁tens ions
▁nur t
▁Reg ular
▁sad ness
▁fort une
▁hack er
▁partners hip
▁bul k
▁Germ ans
▁Met at
▁freez ing
▁Dadd y,
▁Fre edom
▁pursu ing
▁multip ly
▁Tyl er
▁conclus ion
▁Kl aus
▁privile ge
▁enab led
▁retire ment
▁triang le
▁synd rom
▁landsc ape
▁ul c
▁Cham ber
▁Dai ly
▁Obvious ly,
▁Shakespe are
▁Priv ate
▁Gray son
▁Boul ton
izoph ren
C N
S )
a ic
d a
f .
g ard
m ing
r on.
z al
▁ ếch
▁ ounce
▁t ã
▁n `
▁n áu
▁n ấm.
▁s ọc
▁s ome,
▁h e,
▁v ầy
er :
er ting
▁g rap
▁d í
▁p ist
▁p ause
▁the ories
▁y ��
▁o vere
it able
▁T O
▁T ỉ
▁T ob
▁I Q
▁I ng
▁r ên
▁gi ục
▁N ar
us e.
▁Th ích
▁be ans
▁B ag
▁B ird
▁x y
▁M e,
▁W ar,
▁ho .
▁st age,
os s.
▁Đ eo
▁D yl
▁D ifferent
ac ies
▁sh red
▁K elly
▁P S
▁1 )
▁họ ng.
▁Nh ỏ
▁go es.
▁R af
se y,
▁wor sen
▁ma j
▁Kh iến
▁Tr ải
▁We ek
▁nhất :
▁di aphrag
▁giờ !
▁int act
▁But ...
▁ag ing
ine 's
▁en lar
▁gr ams
▁inter vention
▁xu ôi
▁bo ard,
▁bố ?
▁person nel
▁said ?
▁dr ama
▁att acking
▁tra its
▁Al v
▁Al ong
▁chí n.
▁6 :
▁care er,
▁All en
▁el bow
▁hum ble
▁mức ,
▁sit e,
▁there. ..
erg y
▁stud ent,
▁mar g
▁chi êm
▁hom em
▁hold .
▁cur ve
▁dog s.
▁full .
▁coming ?
▁Ex cell
▁Re id
▁char ity
▁Pl us
▁cor on
▁cor rid
▁mem ory,
▁speak ,
▁hell 's
▁typ ing
iat or
▁mã .
▁design ,
▁land s
bb ing
▁bom bs
▁tả .
▁thăm .
▁dream ,
▁song ,
▁Frank en
▁16 ,
▁accept ance
▁14 0
▁method ,
▁Pol and,
▁los es
ett e,
▁lính .
▁bal ance.
▁kịch .
▁viol ence,
▁respond ing
▁behavior s.
▁Fin ish
▁"O n
▁virus es
▁sông .
▁born ,
▁target s
▁target ed
▁accom pany
▁init iate
▁Hen ry.
▁(M ac
▁liter ature
reg ular
▁scared ,
▁Rach el.
▁organiz ation.
▁Sal v
▁Sen ate
▁laptop .
▁bì .
▁Dem ocrat
▁Dann y.
▁witness ed
▁acqu aint
▁transport ation
▁Pri ze
▁Bost on.
▁tempt ation
▁abus ive
▁Budd y
▁Power Point
▁hông .
▁spect rum
▁đả o,
▁Lib rary
▁sinc e.
▁guilt y.
▁nause a,
▁philosoph y
▁sess ions
▁Camer on
▁Organ ization
▁treas ure
▁(W indow
▁Oft en,
▁kitt ens
▁entreprene ur
▁astron om
▁cin nam
▁reven ue
▁cert ific
▁Ari z
▁sib ling
wor king
▁Offic er
▁Oce an
▁entit led
▁respir atory
▁elabor ate
▁giế ng
7 9
f ly
g er,
i ê
j e
n i
r an
r ants
s ung
ớ p.
▁t ứ
▁n ách
▁n erves
▁b ung
▁b rib
▁b aked
▁h iên
▁ch àm
▁ch ém
▁g ro
▁g as,
▁d ạn
▁p us
▁p est
▁p uff
on ing
▁kh ít
▁f ier
▁I T
▁C it
ch ez
as ure
▁A be
▁be ans,
▁S ud
▁B ạch
▁H ood
▁W onder
▁Ch ống
▁Y ang
▁sa ck
ir o
ac ept
▁L uther
▁sh ine
▁K ate,
▁P yr
ur f
▁he at,
▁E qu
▁lo ans
▁Nh i
ell ig
um ing
es. "
▁one !
▁đị a,
▁tiế n.
▁man ner.
▁pr ison,
▁no ise.
▁other ?
▁over ?
▁bu gs
▁into .
▁bl ur
▁ac ute
▁part s.
▁part ially
▁gr ind
▁under t
▁show er,
▁better ?
▁sl ower
▁old er,
▁water ing
▁ind ul
▁7 1
▁8 4
▁Cl iff
▁cụ .
▁201 7.
▁lead .
▁fact s.
▁hy gien
▁exp ense
▁200 8.
▁sẵn ,
▁âm ,
▁lat ter
▁ban ana
▁hear ,
▁dạng ,
▁col ony
▁bit e.
▁sư ng.
ik e.
▁ru le.
▁Sc ient
▁Re ally
▁prov inc
▁18 4
▁18 5
▁idea ?
▁web ,
▁50 ,
▁$ 4
▁medic ation,
▁contin ent
▁hell o
▁"W ho
▁card board
▁ước .
▁cover .
▁serv ices,
▁Jo in
▁low ,
▁tụ ng
▁phone 's
▁En ough
▁six th
▁text ,
▁cool er
▁dri vers
▁lái .
▁giấc .
▁Ab s
▁ơi !
▁Tw enty
▁positive ly
▁select ing
▁mov ies,
▁super mark
▁corn ers
▁Christ opher
▁13 0
▁jud ging
▁Ed it
▁Sar a,
▁Ma '
▁Bill .
▁Mc L
▁60 %
▁emb edd
▁pregn ant,
▁ter ribly
▁gà .
▁doc ument.
▁smart .
▁civil ization
▁Mexic an
▁subst itute
▁complic ated.
▁musc le.
▁impress ive
▁bomb .
▁(s )
▁Sk ip
▁independ ence
▁Ell iot
▁degre es.
▁display ed
▁Nobody 's
▁contr acept
▁Tay lor
▁champ ion
▁trap .
▁reform s
▁"Nh ưng
▁alread y,
▁expens es
▁monitor ing
▁hab it.
▁atom s
▁wheel ch
▁frequent ly.
▁breed ing
▁guid ance
▁fright en
▁muscl es,
▁shir t.
▁shir ts
▁Connect ic
▁reinfor ce
▁inspir ation
▁Dist rict
▁ngọ t.
▁Cra ig
▁Cambod ia
▁persist ent
▁Mond ay
▁describ es
▁Fur th
▁Malays ia
▁midd le.
▁Breat he
▁grandp arent
▁abn ormal
▁vel oc
B ,
M ,
b lock
c ô
e !
h ái
k ?
p read
s a
v ascular
w arm
ầ ng
▁ ầm
▁c ẩm
▁th ốt
▁a quar
▁b acking
▁h ub
▁v on
▁v ọt
▁v ault
▁ch er
▁ch ửi
▁w ired
▁d ứt.
▁kh ốc
ing ton
or ic
▁C u
▁C ats
▁of ?
▁N Z
▁N ep
▁S ữa
ượ t.
▁x ị
▁M ông
▁M ap
▁cho re
out ,
▁st ove
▁V ist
▁D ear
▁D enn
ac es.
▁L A
▁L ối
▁L ED
▁sh ore
▁K ur
▁K ing.
▁P as
ur a.
▁as ton
▁he els
ant om
▁so ber
▁so il,
▁E van
▁R ang
▁R ud
au nt
se ud
▁F old
ig an
▁Tr ại
um e,
her .
un s
▁sp it
▁fe e
▁may or
▁Ng ăn
▁should .
▁bu ồm
▁ad hes
▁br ist
▁work sh
▁act ion,
▁sc ope
ish es
▁per ox
▁comp osed
▁Gi ấc
▁inc lus
▁under m
▁X uống
▁sm ugg
▁5 %
▁ro ad,
▁rel uct
▁rec yc
▁min erals
▁tiền ?
ne g
▁car !
▁luôn ,
▁own s
▁Al i
▁ass et
▁kind ,
▁reg ulation
▁inv iting
▁play er.
▁gl ut
ific ation.
▁mon keys
▁rep et
▁hair cut
▁open ly
▁Br ussel
▁away !
omm un
▁Americ an.
▁job s,
▁less en
ern ess
▁pat ri
▁Z ach
▁hom eless
▁12 5
▁Sp enc
▁sleep ing.
▁remember ing
▁"C ác
▁ref lex
▁Ý ,
▁comput ers.
ann y
▁khoá ,
▁elect ro
▁war f
▁sơ .
▁pleas ure.
▁yên ,
▁leav es,
▁dev ices.
▁invest ments
▁Will ,
▁huỷ .
▁stuff ed
▁sent ences
▁sens es
▁trộ m.
▁six ,
▁six .
▁lim iting
▁nhắn ,
▁chuột ,
▁finish .
▁fing er.
▁truy ền.
▁address ing
▁dig ging
▁Dav is
▁port ray
▁occur ring
▁Start ing
▁nắng ,
▁emb ass
▁indust ry,
▁mọc .
▁ver ify
▁Sw iss
▁"Đ ó
▁complex ity
▁irrit ation.
▁function al
▁influ enced
▁gar ment
▁then. ..
▁"V à
▁minim al
▁trial s
▁Mad ison
▁motiv ate
▁download ed
▁visual ize
▁regard ed
▁chest ,
▁clim bing
▁finger na
▁heal ing.
▁uý .
▁ge omet
▁brief ly
▁mons ter.
▁Khu ấy
▁Bor g
▁hook ed
▁frust ration
▁grain s,
▁Brazil ian
▁remov ed.
▁memor ies.
▁fired .
▁programm ing
▁(x )
▁(tr ên
▁pursu it
▁divor ce
▁intr ig
▁Hon est
▁Supp ose
▁tel escop
▁comprom ise
▁owners hip
▁Garc ia,
▁Rus sell
quar ters
▁Fion a
▁subsequ ent
▁collap se
▁guidel ines
▁paran oid
▁trium ph
▁unbel iev
D S
e ur
g o,
g irl
l ight,
é .
ị nh
▁ Ł
▁t ơi
▁t une
▁c ước
▁c õi
▁c erv
▁th ie
▁n ak
▁n ín
▁a u
▁b ời
▁b ic
▁b iếm
▁m iện
▁v ế
▁v âng
▁w iped
▁p ard
▁p ay.
on nect
re z
▁kh ớp.
en a.
ing ing
▁T ô
▁T an
▁T ạng
▁r ình
▁r ats
▁C er
▁C ười
ch in
om ing
▁N ửa
▁S O
▁S úng
▁S ound
▁B uff
▁B alt
▁x -
▁x ít
▁M iến
▁M ail
▁M ek
▁H az
▁W ind
▁W ipe
▁nó c
▁Ch app
out s.
▁st ink
▁st ew
▁với .
▁V ar
▁li bert
▁L il
▁K ý
▁K or
▁P ad
▁as ,
▁G ai
st ate
▁R út
▁R ever
au ,
se ction
▁F ren
ell e,
▁al ph
▁get ,
▁J up
▁pe er
▁tới ?
▁ever ,
▁over d
▁co at.
▁St u
▁work place
▁That 'll
▁bl ink
▁un ion
▁sc ab
▁pre jud
▁phát ,
▁ar t,
▁imp uls
ru it
▁inc on
▁happ ily
▁inter cept
▁let ter,
▁me. "
▁19 .
▁20 5
▁hand ?
▁quyết ,
▁att ending
▁cons ent
▁love ?
▁An ne
▁Sau di
▁hard est
ash a
▁kid s?
▁lead er.
▁Br ush
▁Ngh ỉ
▁tao !
▁school s.
▁meet ing,
▁New ton
▁sol ved
▁bit es
▁cent ers
▁cent er,
▁God !
▁heart s
▁chàng ,
▁fight s
▁expl icit
▁sal mon
▁protect s
▁Re ach
▁cam e.
▁sound ,
▁check s
▁tem p
▁lộ c
▁focus es
▁fall ,
▁suc cess,
iat ric
▁Co le
▁sever ely
▁land ed
▁ste pping
▁hon ored
▁others '
▁199 0,
▁199 8,
▁black mail
▁est imate
▁chồng ,
▁(1 5
▁oper ation.
▁nổ ,
▁ident ity.
▁mov ie,
▁16 0
▁patient 's
▁Sam sung
▁Pol and
▁chối ,
▁chặt .
▁Ed ,
▁mê ,
▁material s.
▁nợ .
▁Rep lace
▁huyết .
▁somebody 's
▁nguyện ,
▁employ ed
▁bird .
▁mì .
▁"c ó
▁daughter ?
▁ver b
▁path s
▁2. 5
▁sett ing.
▁gió ,
▁mộ ng.
▁releas e.
▁Ser ie
▁roll ed
▁drag ging
▁remo ves
▁mực .
▁married ?
▁reve nge
▁vegetab les.
▁tired ,
▁breast s
▁shop s
▁concept s
▁Des ign
▁lawy ers
▁injur ies
▁Jer sey.
▁xưa ,
▁Someone 's
▁concent rated
▁vot e.
▁calcul ated
▁consequ ences.
▁bond s
▁ngự a,
▁elev ated
▁toil et.
▁jack et
▁Ton y.
▁inflamm ation.
▁bedroom .
▁Emily .
▁"Không ,
▁Dadd y
▁potato es
▁vom iting
▁genu inely
▁gau ge
▁recon c
▁Oft en
▁Die go
▁NSA ID
▁Miam i
▁elder ly
▁Pu erto
▁thy roid
▁nghè o.
▁Emper or
▁YouTub e.
▁potass ium
▁orph an
▁sophistic ated
▁vod ka
▁Serious ly,
▁Answ er
- 30
9 )
Y D
b ound
c a.
e lect
o qu
p ://
r d
é s
ớ t.
▁ É
▁c ắn.
▁đ éo
▁b ới
▁m un
▁m ửa
▁m ister
▁l ù
▁l ầy
▁ch ổ
▁ch ips
▁w agon
at in
▁y a
▁kh ốn.
▁tr y,
en ail
▁T ak
▁f it.
▁f aint
or ld
▁C ust
▁C ắm
▁C arm
▁C ars
▁C ode
et ta
al og
▁A qu
ot s.
▁Th í
▁S ep
▁S ak
▁S uc
▁B our
▁B ảng
▁M ôi
▁M all
▁M uối
▁M ẫu
▁M add
▁M ama
▁H uy
▁it :
ir able
▁D ễ
▁D ream
▁sh rim
▁K H
▁K are
ur ance
▁G ill
▁G row
st ,
▁j un
▁( i.e.
▁Wh ose
▁R a's
▁O hi
▁F DA
▁wor m
▁wor ries
ers on.
ig ation
▁Tr av
▁J erem
▁ca v
▁ca ution
▁cậu !
▁pe e
▁more ?
▁ý :
sel y
ak es,
▁en act
▁Q aed
▁St ann
▁br ac
▁cont ent,
▁dis like
▁part ial
▁nhìn ,
▁ar c
▁X ếp
▁5 6
▁Well ...
▁4 6
▁4 9
▁person ?
▁bé o,
▁friend s?
ph one.
▁hoạt .
▁hướng ,
▁sl a
▁care ?
▁An imal
▁gen ius.
▁fin est
▁fin ance
▁fin ishing
▁years ?
▁Sh eld
▁trai ?
▁met er
ash i
▁Ngh i
▁next ,
▁disc ret
▁read ,
▁lat ely.
▁Ar ist
▁sub c
▁school s,
▁mar gin
▁"I 'll
▁"I 've
▁pat tern.
▁effect s,
▁stand .
▁human ity.
▁i M
▁God d
▁least .
▁prom ises
▁prom inent
▁break through
▁Ex act
▁else where.
▁18 th
▁cor rel
▁hút .
▁fil th
▁vai ,
▁trust worth
▁class ical
▁design ated
▁"N ó
▁Jo e,
▁invest ing
▁Will .
▁US A
▁par am
▁kem ,
▁Ab u
▁rơi .
▁ill us
▁stra ight,
▁infl ation
▁negative ly
▁hương ,
▁Per ry
▁polic y,
▁tomorrow ?
▁trà ,
▁determ ining
▁qual ity.
▁fix ing
ett i
▁danger ous,
▁crit er
▁arg uing
▁summ ar
▁Part ies
▁diet ary
▁khóc ,
▁hà .
▁capt ain.
▁breath s
▁fem ales
▁(v ỗ
▁everybody 's
▁drinking .
▁mộ .
▁film s
▁caught .
▁nail s.
▁gre et
▁mood ,
▁Mat t,
▁batt le.
▁Turn s
▁responsib ilities
▁Kore a,
▁invent ory
▁bể .
▁impress ed
▁distract ed
▁applic ations
▁strang ers
▁thỏ .
▁thro at,
▁vân .
▁Jer ry
▁Braz il,
▁Tex as,
▁Mont g
▁prompt ed.
▁dut ies
▁campa ign.
▁clothing ,
▁vong .
▁labor atory
▁Dann y,
▁weather .
▁Van ess
▁sword .
▁atom ic
▁mort g
▁carbohyd rate
▁nú m
▁carri er
▁obser ved
rie ve
▁Georg ia
▁Prom pt
▁Cop y
▁toothp aste
▁Ug anda
▁oat meal
▁"That 's
▁Osc ar
▁rehab ilit
▁Tal ib
▁mathemat ical
▁Ebol a
▁prolong ed
▁ske pt
▁publ ishing
▁halluc in
▁Stew art
▁​ ​
▁Educ ation
▁catast roph
▁mete or
▁Pyr zy
C h
P D
T :
b ell
c ed.
d ay?
n a.
r ange
y ll
à y,
ẩ ng
▁t iện.
▁c ush
▁n ương
▁n ặn
▁a -
▁m ách
▁l ou
▁l ining
▁v all
▁ch ằng
▁w elf
▁g ớm
▁p et.
▁p awn
on a,
▁tr ặc
▁to enail
en ol
▁o ct
it is,
▁T ỷ
▁f ount
▁r ì
▁là .
ed "
▁C ởi
▁C urt
▁of ...
qu ang
al ?
▁N an
▁qu ai
▁Th ẻ
▁S úc
▁B MI
▁B attle
▁M um
▁M ừng
▁H P
▁H og
▁do !
ut ed
▁Ch ung
▁Ch iều
▁st all
▁ngh i.
▁Y eah
▁L anc
th ink
▁K az
▁" con
▁P M:
▁so aked
▁ab o
ag ne
▁go al,
▁R O
▁R onn
▁O tt
▁F is
▁Kh an
▁may .
▁U su
▁ag ed
ine a
▁What ?
▁mu ôn
▁tu ông
he ad.
▁bu ý
▁now here.
iv ot
▁bl ue.
▁cont ag
▁feel ing,
▁dis gu
▁They 'd
ob ia
▁un it.
▁pre y
▁' I
▁X anh
▁come ?
▁comm ittee
▁bel ow.
▁vu a,
red ict
▁Am ber
▁happen ing?
▁water ?
▁sch izophren
▁201 4.
▁Br ight
▁exp ed
▁learn ing.
▁toà ,
▁mod est
▁tố ,
▁prom ising
▁life. ..
▁pret ending
▁ant is
▁jo kes
▁dem on
▁nhờ n
▁activ ated
▁step ,
▁neg at
▁expect ations.
▁stat istics
▁lệnh ,
▁intern et,
▁cư ,
▁sever ity
▁par aly
▁tắc ,
▁death s
▁bill s
▁object s,
▁negative .
▁soft ,
▁[ "
▁Nhật .
▁Find er
▁challeng es.
▁Per form
▁communic ations
▁arg uments
▁Cap it
▁rich ,
▁bò ,
▁cỏ .
▁spot s.
▁poor ly
▁ic on,
▁bắp .
▁install ing
▁gra pe
▁encour aged
▁den omin
▁âu ,
▁Kore a.
▁altern atives
▁Off er
▁suspect ed
▁antib acterial
▁mixt ure.
▁Ber lin.
▁particip ation
▁crack ed
▁und ers
▁Jer usal
▁0. 5
▁Dis k
▁resist ant
▁dut y.
▁loud .
▁Dar h
▁Iraq ,
▁Next ,
▁transform ed
▁Chicag o,
▁rum ors
▁equip ment.
▁đè n.
▁bast ard.
▁'N ếu
▁mel at
▁restrict ed
▁dos age
▁L. A.
▁Đo án
▁shif ting
▁nú i,
▁nause a
▁Brook lyn
▁depart ment.
▁gradu ated
▁compar ison
▁chlor ine
▁puzz le
▁Úc ,
▁Disc uss
▁repeated ly
▁Gall agh
▁horiz ontal
▁poet ry
▁refriger ator
▁Ni ềm
▁nutrition al
▁craw l
▁lự u
▁Perc y
▁dop amine
▁rệ p
▁Tib et
▁Zeal and
▁licens ed
▁tob acco
▁hẳ n.
▁Ide ally,
▁counc il
▁bamb oo
▁gree nh
▁n` t
▁Usu ally,
- M
- d
1 4
2 2
A A
b our
b uck
e ed.
h an
w all
ớ t,
▁h mm?
▁m all
▁l ảng
▁ch ê
▁d ense
on iac
re th
▁y a?
▁nh uy
▁tr ù
an ium
▁to a.
en os
▁T uyết
▁r oles
▁C L
ar in
ar s,
ar ate
om on
as a
as ma
et ary
qu er
qu is
▁A R
▁qu áng
▁qu ậy
▁qu it.
▁B and
▁B iên
▁M C
▁M orn
ent er
ut iful
▁st are
▁Đ C
ad i
▁ra cing
▁D ạy
ac le
▁L ag
ro vert
▁" to
il es.
▁se a,
▁me at,
▁so ?
pp ing,
▁ab road
▁E ug
▁Nh óc
▁de odor
▁wor ship
▁com ed
ig m
▁Kh í
▁Kh ối
▁Kh ám
▁đầu ?
▁sp at
▁sp ine
00 00
▁di verse
ment al
▁did ?
ff e
▁hel pl
▁ag es
ous y
▁back s
▁mu ff
▁en su
▁en cl
▁St ri
▁br ow
▁Ph ù
▁ac up
▁ac id,
▁feel ?
▁' qu
▁gặp ,
▁comp uls
▁ar ray
▁nghe ?
▁call ed.
▁X oa
▁There ,
▁4 0,
▁vi ễn.
ade qu
▁chắc ?
▁bài ,
▁Am bass
▁mat ching
▁quốc ,
oy d
▁ind irect
▁prot ests
▁Sh oot
▁201 3.
▁giao ,
▁kích .
▁200 9.
▁mom ,
▁power s.
▁build s
▁follow s
▁test s,
▁live ?
▁vis a
▁cắt .
▁ev apor
▁lắm !
