{"<pad>":0,"<unk>":1,"<s>":2,"</s>":3,"\b":4,"!":5,"\"":6,"#":7,"$":8,"%":9,"&":10,"'":11,"(":12,")":13,"*":14,"+":15,",":16,"-":17,".":18,"/":19,"0":20,"1":21,"2":22,"3":23,"4":24,"5":25,"6":26,"7":27,"8":28,"9":29,":":30,";":31,"<":32,"=":33,">":34,"?":35,"@":36,"A":37,"B":38,"C":39,"D":40,"E":41,"F":42,"G":43,"H":44,"I":45,"J":46,"K":47,"L":48,"M":49,"N":50,"O":51,"P":52,"Q":53,"R":54,"S":55,"T":56,"U":57,"V":58,"W":59,"X":60,"Y":61,"Z":62,"[":63,"\\":64,"]":65,"^":66,"_":67,"`":68,"a":69,"b":70,"c":71,"d":72,"e":73,"f":74,"g":75,"h":76,"i":77,"j":78,"k":79,"l":80,"m":81,"n":82,"o":83,"p":84,"q":85,"r":86,"s":87,"t":88,"u":89,"v":90,"w":91,"x":92,"y":93,"z":94,"{":95,"|":96,"}":97,"~":98,"":99,"":100,"":101,"":102,"¡":103,"¢":104,"£":105,"¤":106,"¥":107,"¦":108,"§":109,"©":110,"«":111,"¬":112,"­":113,"®":114,"°":115,"±":116,"¶":117,"·":118,"»":119,"¿":120,"À":121,"Á":122,"Â":123,"Ã":124,"Ä":125,"Å":126,"Ç":127,"È":128,"É":129,"Ê":130,"Ì":131,"Í":132,"Ð":133,"Ò":134,"Ó":135,"Ô":136,"Õ":137,"Ö":138,"×":139,"Ù":140,"Ú":141,"Ü":142,"Ý":143,"ß":144,"à":145,"á":146,"â":147,"ã":148,"ä":149,"å":150,"æ":151,"ç":152,"è":153,"é":154,"ê":155,"ë":156,"ì":157,"í":158,"î":159,"ï":160,"ð":161,"ñ":162,"ò":163,"ó":164,"ô":165,"õ":166,"ö":167,"÷":168,"ø":169,"ù":170,"ú":171,"û":172,"ü":173,"ý":174,"þ":175,"ā":176,"Ă":177,"ă":178,"ą":179,"ć":180,"Č":181,"č":182,"Đ":183,"đ":184,"Ē":185,"ē":186,"ę":187,"ě":188,"ĝ":189,"ġ":190,"Ĩ":191,"ĩ":192,"Ī":193,"ī":194,"İ":195,"ı":196,"Ł":197,"ł":198,"ń":199,"ŋ":200,"Ō":201,"ō":202,"ŏ":203,"ő":204,"ř":205,"Ś":206,"ś":207,"ş":208,"Š":209,"š":210,"Ũ":211,"ũ":212,"Ū":213,"ū":214,"ź":215,"Ż":216,"ż":217,"Ž":218,"ž":219,"Ơ":220,"ơ":221,"Ư":222,"ư":223,"ǁ":224,"ǃ":225,"ǎ":226,"ǐ":227,"ǔ":228,"ǧ":229,"ɑ":230,"ɒ":231,"ɔ":232,"ə":233,"ɛ":234,"ɡ":235,"ɣ":236,"ɪ":237,"ɲ":238,"ʃ":239,"ʊ":240,"ʌ":241,"ʒ":242,"ʻ":243,"ʼ":244,"ʿ":245,"ˈ":246,"ˌ":247,"ː":248,"˥":249,"˧":250,"̀":251,"́":252,"̃":253,"̅":254,"̈":255,"̉":256,"̣":257,"Α":258,"Δ":259,"Ε":260,"Η":261,"Ι":262,"Κ":263,"Μ":264,"Ν":265,"Ο":266,"Π":267,"Σ":268,"Τ":269,"Ω":270,"ά":271,"έ":272,"ή":273,"ί":274,"α":275,"β":276,"γ":277,"δ":278,"ε":279,"ζ":280,"η":281,"θ":282,"ι":283,"κ":284,"λ":285,"μ":286,"ν":287,"ξ":288,"ο":289,"π":290,"ρ":291,"ς":292,"σ":293,"τ":294,"υ":295,"φ":296,"χ":297,"ψ":298,"ω":299,"ό":300,"ύ":301,"А":302,"Б":303,"В":304,"Г":305,"Д":306,"З":307,"И":308,"Л":309,"М":310,"С":311,"У":312,"Ч":313,"Ш":314,"а":315,"в":316,"г":317,"д":318,"е":319,"ж":320,"з":321,"и":322,"й":323,"к":324,"л":325,"м":326,"н":327,"о":328,"п":329,"р":330,"с":331,"т":332,"у":333,"ф":334,"х":335,"ц":336,"ч":337,"ъ":338,"ы":339,"ю":340,"ё":341,"ա":342,"ե":343,"է":344,"հ":345,"մ":346,"յ":347,"ն":348,"տ":349,"ր":350,"ւ":351,"ֱ":352,"ִ":353,"ָ":354,"ּ":355,"א":356,"ג":357,"ה":358,"ו":359,"ט":360,"י":361,"ך":362,"ל":363,"נ":364,"ע":365,"ר":366,"أ":367,"إ":368,"ا":369,"ب":370,"ة":371,"ت":372,"ج":373,"ح":374,"د":375,"ر":376,"ز":377,"س":378,"ش":379,"ط":380,"ع":381,"غ":382,"ف":383,"ق":384,"ك":385,"ل":386,"م":387,"ن":388,"و":389,"ى":390,"ي":391,"َ":392,"ُ":393,"ِ":394,"ۀ":395,"ی":396,"ܐ":397,"ܙ":398,"ܝ":399,"ܠ":400,"ܢ":401,"ܩ":402,"ܵ":403,"ܸ":404,"ܼ":405,"क":406,"त":407,"न":408,"र":409,"ष":410,"्":411,"ਓ":412,"ਪ":413,"ਾ":414,"ก":415,"ง":416,"จ":417,"ฒ":418,"ด":419,"ท":420,"ธ":421,"น":422,"ม":423,"ร":424,"ล":425,"ว":426,"ศ":427,"ส":428,"ห":429,"ั":430,"า":431,"ิ":432,"ุ":433,"์":434,"ᤌ":435,"ᤐ":436,"ᤕ":437,"ᤠ":438,"ᤢ":439,"ᤰ":440,"ᤱ":441,"ᤴ":442,"ᵻ":443,"ṭ":444,"Ạ":445,"ạ":446,"Ả":447,"ả":448,"Ấ":449,"ấ":450,"Ầ":451,"ầ":452,"Ẩ":453,"ẩ":454,"Ẫ":455,"ẫ":456,"Ậ":457,"ậ":458,"Ắ":459,"ắ":460,"Ằ":461,"ằ":462,"Ẳ":463,"ẳ":464,"Ẵ":465,"ẵ":466,"Ặ":467,"ặ":468,"Ẹ":469,"ẹ":470,"Ẻ":471,"ẻ":472,"Ẽ":473,"ẽ":474,"Ế":475,"ế":476,"Ề":477,"ề":478,"Ể":479,"ể":480,"Ễ":481,"ễ":482,"Ệ":483,"ệ":484,"Ỉ":485,"ỉ":486,"Ị":487,"ị":488,"Ọ":489,"ọ":490,"Ỏ":491,"ỏ":492,"Ố":493,"ố":494,"Ồ":495,"ồ":496,"Ổ":497,"ổ":498,"Ỗ":499,"ỗ":500,"Ộ":501,"ộ":502,"Ớ":503,"ớ":504,"Ờ":505,"ờ":506,"Ở":507,"ở":508,"ỡ":509,"Ợ":510,"ợ":511,"Ụ":512,"ụ":513,"Ủ":514,"ủ":515,"Ứ":516,"ứ":517,"Ừ":518,"ừ":519,"Ử":520,"ử":521,"Ữ":522,"ữ":523,"Ự":524,"ự":525,"Ỳ":526,"ỳ":527,"Ỵ":528,"ỵ":529,"Ỷ":530,"ỷ":531,"Ỹ":532,"ỹ":533,"ἄ":534,"Ἄ":535,"ἱ":536,"ῦ":537,"​":538,"‎":539,"‐":540,"–":541,"―":542,"‘":543,"‟":544,"†":545,"‡":546,"•":547,"‭":548,"′":549,"⁄":550,"⁝":551,"⁡":552,"€":553,"←":554,"↑":555,"→":556,"↓":557,"↹":558,"⇧":559,"⇩":560,"⇬":561,"⇱":562,"∆":563,"∈":564,"∏":565,"∑":566,"−":567,"∗":568,"∘":569,"√":570,"∞":571,"∣":572,"∨":573,"≡":574,"≤":575,"≥":576,"⊂":577,"⊕":578,"⊞":579,"⋮":580,"⋯":581,"⌂":582,"⌘":583,"⌥":584,"⎙":585,"⏎":586,"⏭":587,"━":588,"┻":589,"╯":590,"▁":591,"■":592,"□":593,"△":594,"►":595,"▼":596,"☃":597,"☆":598,"☉":599,"☰":600,"☺":601,"♠":602,"♪":603,"⚙":604,"✓":605,"⟳":606,"、":607,"「":608,"」":609,"う":610,"お":611,"か":612,"が":613,"き":614,"く":615,"ぐ":616,"け":617,"こ":618,"し":619,"じ":620,"す":621,"せ":622,"ち":623,"つ":624,"で":625,"な":626,"の":627,"ぶ":628,"ぼ":629,"ま":630,"み":631,"も":632,"ゃ":633,"よ":634,"ら":635,"り":636,"る":637,"ん":638,"ア":639,"ィ":640,"イ":641,"ゥ":642,"ウ":643,"オ":644,"ガ":645,"ギ":646,"ク":647,"グ":648,"ケ":649,"コ":650,"ゴ":651,"ザ":652,"シ":653,"ジ":654,"ス":655,"ズ":656,"ゼ":657,"ソ":658,"タ":659,"ダ":660,"チ":661,"ッ":662,"テ":663,"デ":664,"ト":665,"ド":666,"ナ":667,"ニ":668,"ノ":669,"バ":670,"ビ":671,"ピ":672,"ブ":673,"ベ":674,"ホ":675,"マ":676,"ミ":677,"メ":678,"モ":679,"ャ":680,"ョ":681,"ラ":682,"リ":683,"ル":684,"ロ":685,"ワ":686,"ン":687,"・":688,"ー":689,"一":690,"三":691,"上":692,"不":693,"专":694,"中":695,"丸":696,"举":697,"之":698,"九":699,"亀":700,"了":701,"事":702,"京":703,"人":704,"什":705,"付":706,"会":707,"伟":708,"伽":709,"位":710,"何":711,"佛":712,"你":713,"俊":714,"信":715,"修":716,"偉":717,"偏":718,"停":719,"億":720,"光":721,"八":722,"关":723,"兼":724,"内":725,"军":726,"净":727,"刘":728,"创":729,"初":730,"創":731,"动":732,"化":733,"北":734,"十":735,"协":736,"南":737,"卵":738,"原":739,"句":740,"同":741,"名":742,"向":743,"吗":744,"吸":745,"员":746,"味":747,"呼":748,"喜":749,"噌":750,"器":751,"四":752,"国":753,"國":754,"園":755,"场":756,"坂":757,"城":758,"壬":759,"多":760,"大":761,"天":762,"太":763,"夫":764,"委":765,"威":766,"嫌":767,"子":768,"孤":769,"守":770,"宋":771,"实":772,"宮":773,"家":774,"寄":775,"寒":776,"寛":777,"實":778,"小":779,"尔":780,"尘":781,"山":782,"川":783,"州":784,"差":785,"常":786,"干":787,"平":788,"年":789,"幻":790,"庄":791,"庆":792,"府":793,"庵":794,"廊":795,"式":796,"张":797,"弾":798,"归":799,"彗":800,"従":801,"御":802,"徳":803,"忠":804,"思":805,"总":806,"息":807,"想":808,"愛":809,"慕":810,"慶":811,"战":812,"戰":813,"扉":814,"打":815,"扬":816,"抓":817,"授":818,"提":819,"搞":820,"據":821,"政":822,"敏":823,"教":824,"文":825,"料":826,"新":827,"族":828,"日":829,"昌":830,"明":831,"易":832,"星":833,"春":834,"是":835,"時":836,"晓":837,"普":838,"暫":839,"朝":840,"期":841,"机":842,"来":843,"東":844,"极":845,"枚":846,"柴":847,"标":848,"校":849,"株":850,"桂":851,"桐":852,"森":853,"業":854,"横":855,"機":856,"欣":857,"歡":858,"止":859,"正":860,"武":861,"死":862,"氏":863,"民":864,"求":865,"江":866,"沃":867,"沮":868,"派":869,"浒":870,"浜":871,"海":872,"渡":873,"温":874,"港":875,"湖":876,"滸":877,"漣":878,"漪":879,"濊":880,"濟":881,"瀬":882,"火":883,"炊":884,"照":885,"煮":886,"熙":887,"爾":888,"玆":889,"玉":890,"王":891,"理":892,"生":893,"産":894,"田":895,"男":896,"百":897,"的":898,"皇":899,"盛":900,"盟":901,"目":902,"眉":903,"磐":904,"社":905,"神":906,"秀":907,"管":908,"粥":909,"粹":910,"精":911,"納":912,"級":913,"紫":914,"紺":915,"絢":916,"統":917,"綸":918,"綾":919,"红":920,"级":921,"纶":922,"经":923,"继":924,"羅":925,"群":926,"耶":927,"职":928,"肉":929,"臈":930,"自":931,"舉":932,"舟":933,"艦":934,"芳":935,"若":936,"苦":937,"英":938,"茅":939,"茶":940,"草":941,"莽":942,"萨":943,"萬":944,"落":945,"薄":946,"薩":947,"藤":948,"處":949,"虞":950,"號":951,"行":952,"袁":953,"装":954,"裴":955,"見":956,"角":957,"語":958,"謝":959,"譜":960,"说":961,"调":962,"谷":963,"豆":964,"豪":965,"貊":966,"貴":967,"貸":968,"賀":969,"資":970,"贸":971,"赏":972,"赤":973,"走":974,"辻":975,"选":976,"造":977,"遊":978,"道":979,"選":980,"邑":981,"邡":982,"郎":983,"郡":984,"部":985,"都":986,"里":987,"野":988,"鎂":989,"鎮":990,"钉":991,"镁":992,"長":993,"长":994,"関":995,"陀":996,"限":997,"隊":998,"隠":999,"需":1000,"青":1001,"韆":1002,"韓":1003,"須":1004,"额":1005,"餘":1006,"館":1007,"香":1008,"骸":1009,"高":1010,"魚":1011,"鮮":1012,"鸢":1013,"鹰":1014,"麗":1015,"黑":1016,"龍":1017,"가":1018,"간":1019,"게":1020,"겨":1021,"고":1022,"골":1023,"교":1024,"구":1025,"국":1026,"군":1027,"귈":1028,"그":1029,"기":1030,"깐":1031,"깨":1032,"꾸":1033,"나":1034,"납":1035,"내":1036,"냐":1037,"너":1038,"네":1039,"넥":1040,"다":1041,"당":1042,"대":1043,"댕":1044,"덕":1045,"도":1046,"동":1047,"두":1048,"등":1049,"땡":1050,"라":1051,"락":1052,"랑":1053,"래":1054,"려":1055,"를":1056,"리":1057,"마":1058,"만":1059,"맛":1060,"맥":1061,"멸":1062,"목":1063,"못":1064,"미":1065,"민":1066,"바":1067,"방":1068,"백":1069,"밴":1070,"뱅":1071,"번":1072,"보":1073,"복":1074,"봉":1075,"부":1076,"북":1077,"비":1078,"사":1079,"산":1080,"살":1081,"상":1082,"생":1083,"석":1084,"선":1085,"설":1086,"소":1087,"쇼":1088,"숭":1089,"스":1090,"슨":1091,"습":1092,"시":1093,"식":1094,"신":1095,"실":1096,"아":1097,"안":1098,"야":1099,"양":1100,"어":1101,"억":1102,"엄":1103,"없":1104,"에":1105,"여":1106,"연":1107,"예":1108,"옥":1109,"왕":1110,"요":1111,"울":1112,"웃":1113,"육":1114,"윤":1115,"음":1116,"의":1117,"이":1118,"인":1119,"있":1120,"자":1121,"잔":1122,"잖":1123,"잘":1124,"잠":1125,"장":1126,"저":1127,"전":1128,"정":1129,"제":1130,"조":1131,"족":1132,"좋":1133,"주":1134,"죽":1135,"지":1136,"째":1137,"차":1138,"추":1139,"치":1140,"콜":1141,"투":1142,"틴":1143,"파":1144,"팥":1145,"프":1146,"한":1147,"해":1148,"혜":1149,"후":1150,"희":1151,"":1152,"️":1153,"﻿":1154,"�":1155,"𐎂":1156,"𐎗":1157,"𐎚":1158,"𐎜":1159,"𒀭":1160,"𒂗":1161,"𒆠":1162,"𒋀":1163,"𒍪":1164,"▁t":1165,"ng":1166,"▁c":1167,"▁th":1168,"▁n":1169,"▁đ":1170,"▁a":1171,"▁s":1172,"▁b":1173,"▁h":1174,"▁m":1175,"▁l":1176,"ou":1177,"▁v":1178,"er":1179,"▁k":1180,"▁ch":1181,"▁w":1182,"▁g":1183,"in":1184,"▁d":1185,"▁p":1186,"▁the":1187,"on":1188,"re":1189,"at":1190,"nh":1191,"▁y":1192,"▁nh":1193,"▁kh":1194,"▁tr":1195,"an":1196,"▁you":1197,"▁to":1198,"en":1199,"▁o":1200,"it":1201,"ing":1202,"is":1203,"▁T":1204,"▁f":1205,"▁ng":1206,"▁I":1207,"es":1208,"ông":1209,"or":1210,"ll":1211,"▁r":1212,"▁là":1213,"nd":1214,"ed":1215,"ôi":1216,"▁C":1217,"▁ph":1218,"ar":1219,"▁và":1220,"ch":1221,"▁in":1222,"ay":1223,"▁có":1224,"▁gi":1225,"▁of":1226,"▁-":1227,"om":1228,"ên":1229,"▁and":1230,"▁không":1231,"as":1232,"ve":1233,"et":1234,"qu":1235,"al":1236,"▁e":1237,"ạn":1238,"▁N":1239,"ột":1240,"iệ":1241,"ow":1242,"▁A":1243,"le":1244,"ời":1245,"ot":1246,"iế":1247,"▁qu":1248,"us":1249,"▁củ":1250,"▁của":1251,"ic":1252,"ới":1253,"▁Th":1254,"ác":1255,"▁tôi":1256,"▁một":1257,"▁be":1258,"▁S":1259,"▁ta":1260,"'s":1261,"ion":1262,"▁B":1263,"▁bạn":1264,"ượ":1265,"▁that":1266,"▁x":1267,"ong":1268,"ất":1269,"▁wh":1270,"▁M":1271,"▁H":1272,"▁it":1273,"▁nà":1274,"uy":1275,"▁ha":1276,"im":1277,"▁your":1278,"úng":1279,"id":1280,"▁re":1281,"▁do":1282,"e.":1283,"▁is":1284,"▁thể":1285,"▁on":1286,"ấy":1287,"ại":1288,"gh":1289,"▁W":1290,"ười":1291,"ent":1292,"el":1293,"▁đi":1294,"ược":1295,"▁nó":1296,"ut":1297,"▁sẽ":1298,"ct":1299,"ld":1300,"▁cho":1301,"▁đó":1302,"▁người":1303,"am":1304,"ải":1305,"▁đã":1306,"ều":1307,"▁được":1308,"▁for":1309,"ình":1310,"ần":1311,"ang":1312,"uố":1313,"ững":1314,"▁Ch":1315,"▁ho":1316,"out":1317,"'t":1318,"ere":1319,"▁st":1320,"▁n't":1321,"ây":1322,"▁với":1323,"▁ngh":1324,"▁con":1325,"▁Y":1326,"os":1327,"▁trong":1328,"ver":1329,"ke":1330,"▁Đ":1331,"▁như":1332,"▁này":1333,"▁V":1334,"▁những":1335,"ith":1336,"▁we":1337,"s.":1338,"▁để":1339,"▁an":1340,"▁cá":1341,"▁anh":1342,"ad":1343,"ill":1344,"ly":1345,"▁li":1346,"▁chúng":1347,"oo":1348,"▁sa":1349,"ght":1350,"▁làm":1351,"▁ra":1352,"▁with":1353,"ir":1354,"▁u":1355,"all":1356,"▁D":1357,"ac":1358,"▁L":1359,"▁các":1360,"ướ":1361,"ro":1362,"iết":1363,"ân":1364,"▁You":1365,"▁are":1366,"▁ở":1367,"▁phải":1368,"▁khi":1369,"th":1370,"▁sh":1371,"▁cả":1372,"em":1373,"▁K":1374,"▁mà":1375,"▁Tôi":1376,"ter":1377,"▁or":1378,"▁\"":1379,"▁have":1380,"▁P":1381,"ết":1382,"ur":1383,"if":1384,"e,":1385,"▁1":1386,"▁as":1387,"▁họ":1388,"▁he":1389,"▁can":1390,"▁this":1391,"▁not":1392,"n.":1393,"▁G":1394,"▁gì":1395,"il":1396,"▁ne":1397,"ằng":1398,"ước":1399,"ếu":1400,"ant":1401,"ến":1402,"s,":1403,"ould":1404,"ầu":1405,"st":1406,"y.":1407,"▁vào":1408,"▁se":1409,"▁was":1410,"ight":1411,"▁về":1412,"▁me":1413,"▁nói":1414,"ome":1415,"ật":1416,"▁I'":1417,"▁nhi":1418,"ation":1419,"ành":1420,"▁The":1421,"ườ":1422,"ực":1423,"▁lại":1424,"▁so":1425,"ust":1426,"ặc":1427,"..":1428,"ore":1429,"pp":1430,"y,":1431,"ường":1432,"▁fr":1433,"ồi":1434,"ài":1435,"▁đến":1436,"iệc":1437,"ao":1438,"ùng":1439,"▁ab":1440,"▁sự":1441,"▁biết":1442,"ơn":1443,"âu":1444,"iể":1445,"▁j":1446,"ươ":1447,"ce":1448,"'re":1449,"▁at":1450,"op":1451,"▁su":1452,"est":1453,"▁E":1454,"▁độ":1455,"ain":1456,"ul":1457,"ức":1458,"ống":1459,"▁lo":1460,"▁đang":1461,"▁Nh":1462,"iện":1463,"ối":1464,"▁cô":1465,"▁từ":1466,"ag":1467,"▁(":1468,"inh":1469,"▁Wh":1470,"▁go":1471,"▁R":1472,"and":1473,"ính":1474,"▁việc":1475,"▁kn":1476,"ol":1477,"uốn":1478,"uyệ":1479,"au":1480,"ận":1481,"▁thế":1482,"ũng":1483,"▁O":1484,"our":1485,"ản":1486,"se":1487,"▁F":1488,"▁ấy":1489,"▁em":1490,"▁us":1491,"▁đây":1492,"▁thấy":1493,"▁my":1494,"▁ex":1495,"ell":1496,"ương":1497,"àn":1498,"▁And":1499,"▁điều":1500,"àng":1501,"▁nghĩ":1502,"▁bị":1503,"▁what":1504,"ậu":1505,"▁will":1506,"iến":1507,"▁muốn":1508,"▁de":1509,"▁know":1510,"a.":1511,"art":1512,"▁wor":1513,"▁cũng":1514,"▁out":1515,"▁chỉ":1516,"▁nào":1517,"▁all":1518,"▁al":1519,"▁com":1520,"ung":1521,"ist":1522,"end":1523,"ích":1524,"▁It":1525,"ers":1526,"▁cần":1527,"▁about":1528,"át":1529,"ess":1530,"ab":1531,"king":1532,"▁ma":1533,"ăn":1534,"ăng":1535,"▁they":1536,"▁get":1537,"ig":1538,"▁Kh":1539,"iên":1540,"▁2":1541,"anh":1542,"ind":1543,"▁pro":1544,"ưa":1545,"▁Anh":1546,"▁Tr":1547,"▁cách":1548,"um":1549,"▁le":1550,"▁hoặc":1551,"▁rồi":1552,"ập":1553,"▁ông":1554,"▁mình":1555,"ọi":1556,"▁up":1557,"ắt":1558,"her":1559,"▁from":1560,"▁đầu":1561,"ally":1562,"▁nên":1563,"▁nhiều":1564,"ive":1565,"un":1566,"▁her":1567,"ền":1568,"ect":1569,"▁khác":1570,"▁J":1571,"▁if":1572,"uyện":1573,"êu":1574,"ơi":1575,"ái":1576,"òn":1577,"▁like":1578,"ack":1579,"res":1580,"▁dụ":1581,"▁I'm":1582,"▁vì":1583,"ood":1584,"▁trên":1585,"od":1586,"ắn":1587,"ate":1588,"▁ca":1589,"▁thì":1590,"ổi":1591,"ăm":1592,"ắc":1593,"▁but":1594,"úc":1595,"▁hơn":1596,"uộ":1597,"▁tim":1598,"▁rằng":1599,"one":1600,"es.":1601,"ri":1602,"▁just":1603,"▁want":1604,"▁sp":1605,"▁Và":1606,"ặt":1607,"▁cái":1608,"ard":1609,"▁sao":1610,"iệu":1611,"▁We":1612,"ãy":1613,"ort":1614,"ep":1615,"ra":1616,"áng":1617,"▁pl":1618,"ứng":1619,"▁Nếu":1620,"ai":1621,"▁fe":1622,"▁nhưng":1623,"ink":1624,"▁nhà":1625,"uộc":1626,"ậy":1627,"a,":1628,"▁If":1629,"ure":1630,"▁them":1631,"rou":1632,"▁rất":1633,"o,":1634,"ast":1635,"▁nhất":1636,"▁thành":1637,"▁quan":1638,"ỏi":1639,"▁còn":1640,"▁công":1641,"00":1642,"▁by":1643,"▁one":1644,"▁chuyện":1645,"▁Chúng":1646,"▁kho":1647,"▁nữ":1648,"▁đị":1649,"▁some":1650,"▁He":1651,"ook":1652,"ốt":1653,"nt":1654,"ìm":1655,"es,":1656,"ày":1657,"▁nếu":1658,"▁ti":1659,"ing.":1660,"▁any":1661,"ide":1662,"ng.":1663,"▁di":1664,"ẫn":1665,"▁không?":1666,"ec":1667,"▁cậu":1668,"iểu":1669,"ánh":1670,"ưng":1671,"▁cảm":1672,"▁him":1673,"▁giờ":1674,"án":1675,"▁pe":1676,"▁tiế":1677,"▁more":1678,"▁số":1679,"▁thứ":1680,"▁nước":1681,"ội":1682,"ấn":1683,"ục":1684,"use":1685,"ap":1686,"úp":1687,"ảo":1688,"ạo":1689,"▁need":1690,"▁hay":1691,"er.":1692,"ọn":1693,"▁there":1694,"▁may":1695,"▁tin":1696,"âm":1697,"▁U":1698,"òng":1699,"▁sau":1700,"▁thực":1701,"▁chính":1702,"▁who":1703,"ôn":1704,"ỗi":1705,"▁trước":1706,"▁when":1707,"▁động":1708,"▁lên":1709,"▁tìm":1710,"ie":1711,"ople":1712,"h,":1713,"ost":1714,"▁int":1715,"ment":1716,"▁giúp":1717,"▁năm":1718,"▁tự":1719,"▁đồ":1720,"ưở":1721,"ừng":1722,"▁tới":1723,"▁quy":1724,"áo":1725,"ip":1726,"êm":1727,"hing":1728,"▁bằng":1729,"▁This":1730,"▁học":1731,"▁thời":1732,"ear":1733,"▁did":1734,"reat":1735,"ven":1736,"▁man":1737,"...":1738,"▁cl":1739,"▁Bạn":1740,"▁ever":1741,"▁think":1742,"▁dụng":1743,"▁Không":1744,"ách":1745,"ấp":1746,"ud":1747,"▁people":1748,"út":1749,"▁cơ":1750,"▁im":1751,"▁oth":1752,"▁lu":1753,"▁đâu":1754,"ose":1755,"▁But":1756,"ưởng":1757,"oc":1758,"▁theo":1759,"▁định":1760,"▁you're":1761,"ff":1762,"▁would":1763,"ich":1764,"▁has":1765,"▁hiện":1766,"▁Có":1767,"▁right":1768,"ia":1769,"iệt":1770,"▁it's":1771,"ach":1772,"▁hel":1773,"ick":1774,"▁Nhưng":1775,"▁see":1776,"▁nhận":1777,"▁Do":1778,"áp":1779,"▁It's":1780,"▁ai":1781,"ame":1782,"▁ý":1783,"uốc":1784,"▁ag":1785,"ed.":1786,"ine":1787,"pt":1788,"▁mọi":1789,"▁What":1790,"ay.":1791,"ượng":1792,"▁make":1793,"ble":1794,"ấu":1795,"▁thu":1796,"▁cứ":1797,"▁quá":1798,"▁bec":1799,"ause":1800,"▁tốt":1801,"▁his":1802,"▁got":1803,"▁nhân":1804,"▁Ng":1805,"▁she":1806,"act":1807,"▁thường":1808,"ous":1809,"iz":1810,"pl":1811,"ọng":1812,"ạt":1813,"ity":1814,"▁our":1815,"▁help":1816,"▁cùng":1817,"ạnh":1818,"▁cuộc":1819,"ies":1820,"▁sống":1821,"▁how":1822,"▁pr":1823,"▁thích":1824,"▁were":1825,"sel":1826,"▁back":1827,"omet":1828,"▁mu":1829,"uyên":1830,"▁đó.":1831,"are":1832,"▁bắt":1833,"▁no":1834,"ợp":1835,"ay,":1836,"▁má":1837,"▁thật":1838,"▁In":1839,"▁tại":1840,"▁tu":1841,"m.":1842,"▁could":1843,"▁you.":1844,"▁other":1845,"▁their":1846,"▁had":1847,"▁lớ":1848,"▁mới":1849,"ber":1850,"ak":1851,"▁thing":1852,"▁3":1853,"▁over":1854,"▁bản":1855,"▁hai":1856,"▁hợp":1857,"▁ăn":1858,"▁en":1859,"own":1860,"he":1861,"ry":1862,"▁should":1863,"▁bu":1864,"ốc":1865,"▁đề":1866,"▁co":1867,"▁So":1868,"ảng":1869,"▁off":1870,"per":1871,"▁ngày":1872,"ial":1873,"▁been":1874,"▁Q":1875,"ice":1876,"▁hãy":1877,"▁ad":1878,"▁bao":1879,"▁than":1880,"▁St":1881,"▁gia":1882,"ảm":1883,"▁qua":1884,"▁br":1885,"'ll":1886,"▁hình":1887,"▁Ph":1888,"▁into":1889,"ửa":1890,"▁it.":1891,"▁here":1892,"▁Nó":1893,"óc":1894,"▁now":1895,"▁gian":1896,"iv":1897,"ởi":1898,"▁dùng":1899,"▁every":1900,"▁trở":1901,"itt":1902,"▁hành":1903,"▁work":1904,"▁going":1905,"ace":1906,"uống":1907,"▁này.":1908,"▁time":1909,"ặp":1910,"▁That":1911,"▁ngo":1912,"▁vậy":1913,"ắng":1914,"▁mặt":1915,"▁bl":1916,"ẳng":1917,"▁say":1918,"▁đấy":1919,"▁hàng":1920,"na":1921,"▁cont":1922,"▁giữ":1923,"▁--":1924,"▁somet":1925,"▁chưa":1926,"av":1927,"▁xem":1928,"ìn":1929,"▁ac":1930,"▁chứ":1931,"▁lý":1932,"ress":1933,"▁nhau":1934,"▁good":1935,"▁take":1936,"▁feel":1937,"▁Cô":1938,"og":1939,"▁bộ":1940,"▁dis":1941,"▁act":1942,"▁Em":1943,"▁tiếp":1944,"ạng":1945,"so":1946,"▁They":1947,"▁bảo":1948,"▁part":1949,"self":1950,"ile":1951,"ob":1952,"▁sinh":1953,"▁un":1954,"o.":1955,"▁vẫn":1956,"▁năng":1957,"▁loại":1958,"▁these":1959,"▁te":1960,"▁phần":1961,"▁sử":1962,"▁giới":1963,"▁kết":1964,"ệnh":1965,"▁tho":1966,"▁đối":1967,"▁sc":1968,"▁pre":1969,"age":1970,"ass":1971,"ery":1972,"ảnh":1973,"▁thông":1974,"ans":1975,"▁which":1976,"▁then":1977,"▁lần":1978,"▁year":1979,"▁tình":1980,"▁tính":1981,"ave":1982,"▁tw":1983,"▁Ô":1984,"▁way":1985,"▁nhiên":1986,"▁thay":1987,"other":1988,"▁rồi.":1989,"ish":1990,"▁yêu":1991,"ound":1992,"▁bet":1993,"▁tạo":1994,"ond":1995,"▁Một":1996,"▁res":1997,"▁also":1998,"able":1999,"▁trình":2000,"▁'":2001,"▁look":2002,"ting":2003,"ảy":2004,"▁toàn":2005,"▁app":2006,"ồn":2007,"▁đổi":2008,"▁thôi":2009,"iệm":2010,"▁tay":2011,"ẩn":2012,"▁tập":2013,"'ve":2014,"ạch":2015,"ild":2016,"ạc":2017,"▁phát":2018,"▁tất":2019,"▁bất":2020,"ount":2021,"▁per":2022,"▁bà":2023,"▁thức":2024,"▁Con":2025,"alk":2026,"nder":2027,"▁bỏ":2028,"ịch":2029,"▁only":2030,"▁thân":2031,"▁gặp":2032,"ing,":2033,"way":2034,"er,":2035,"▁bên":2036,"▁đó,":2037,"ical":2038,"▁gr":2039,"▁tâm":2040,"▁nơi":2041,"▁trường":2042,"ions":2043,"▁nhìn":2044,"▁comp":2045,"▁lúc":2046,"irst":2047,"ough":2048,"▁wat":2049,"iều":2050,"▁đồng":2051,"ển":2052,"fore":2053,"ite":2054,"orm":2055,"▁tell":2056,"▁vấn":2057,"▁because":2058,"fer":2059,"▁ar":2060,"round":2061,"▁hệ":2062,"▁even":2063,"ult":2064,"▁trọng":2065,"eep":2066,"▁máy":2067,"▁đường":2068,"▁vị":2069,"▁find":2070,"ign":2071,"fter":2072,"▁imp":2073,"▁Đó":2074,"▁tế":2075,"▁tôi.":2076,"▁where":2077,"▁gọi":2078,"ừa":2079,"anc":2080,"ám":2081,"▁Ông":2082,"▁nghe":2083,"▁very":2084,"▁Gi":2085,"▁hỏi":2086,"oss":2087,"▁am":2088,"▁vài":2089,"▁call":2090,"ving":2091,"▁down":2092,"▁lif":2093,"▁vụ":2094,"▁Ta":2095,"▁hội":2096,"ire":2097,"▁quả":2098,"▁lớn":2099,"iểm":2100,"▁sĩ":2101,"▁something":2102,"▁hết":2103,"▁new":2104,"▁hiểu":2105,"ẩm":2106,"▁câu":2107,"▁đưa":2108,"▁viên":2109,"▁chết":2110,"▁đều":2111,"ree":2112,"ed,":2113,"ord":2114,"▁vậ":2115,"▁này,":2116,"ru":2117,"ens":2118,"▁inc":2119,"urn":2120,"ue":2121,"▁pers":2122,"ưới":2123,"▁Hãy":2124,"▁hắn":2125,"▁phí":2126,"▁trị":2127,"ely":2128,"▁happ":2129,"ợi":2130,"▁inter":2131,"▁rem":2132,"▁mo":2133,"▁lời":2134,"▁let":2135,"▁me.":2136,"▁under":2137,"▁19":2138,"ase":2139,"ít":2140,"▁X":2141,"▁tên":2142,"▁sm":2143,"ơn.":2144,"▁ngoài":2145,"ầm":2146,"▁gon":2147,"▁xu":2148,"enc":2149,"▁fl":2150,"▁There":2151,"▁đúng":2152,"▁dự":2153,"▁does":2154,"ail":2155,"▁đo":2156,"ion.":2157,"du":2158,"▁first":2159,"▁really":2160,"▁khu":2161,"▁5":2162,"▁try":2163,"▁khỏi":2164,"▁chất":2165,"▁Đây":2166,"▁much":2167,"▁lượng":2168,"▁mất":2169,"ck":2170,"▁điể":2171,"▁before":2172,"▁chuy":2173,"▁cố":2174,"▁Well":2175,"▁mẹ":2176,"▁two":2177,"▁ảnh":2178,"▁20":2179,"iển":2180,"▁too":2181,"ft":2182,"uối":2183,"ary":2184,"▁use":2185,"▁từng":2186,"▁bo":2187,"▁dif":2188,"oth":2189,"▁How":2190,"ọc":2191,"▁chọn":2192,"▁bởi":2193,"▁giải":2194,"ép":2195,"▁bố":2196,"▁come":2197,"ét":2198,"▁hiệu":2199,"ge":2200,"áu":2201,"▁đi.":2202,"▁pháp":2203,"▁4":2204,"▁vật":2205,"▁thuốc":2206,"▁cao":2207,"▁person":2208,"▁vi":2209,"▁tác":2210,"▁Khi":2211,"▁bệnh":2212,"ướng":2213,"int":2214,"▁liệu":2215,"▁phòng":2216,"▁nhỏ":2217,"▁điểm":2218,"▁long":2219,"▁chị":2220,"ittle":2221,"▁thiết":2222,"amp":2223,"▁She":2224,"ence":2225,"ea":2226,"ody":2227,"▁tiêu":2228,"▁gonna":2229,"▁khiến":2230,"▁khó":2231,"ắp":2232,"▁chiế":2233,"▁fri":2234,"▁hơn.":2235,"▁bé":2236,"ated":2237,"▁à":2238,"▁said":2239,"ations":2240,"ian":2241,"▁I'll":2242,"ark":2243,"▁Cậu":2244,"▁liên":2245,"ắm":2246,"i.":2247,"▁start":2248,"▁Các":2249,"▁friend":2250,"▁cầu":2251,"▁Well,":2252,"▁chủ":2253,"▁ngay":2254,"▁day":2255,"ade":2256,"▁lấy":2257,"wn":2258,"óng":2259,"▁lực":2260,"▁little":2261,"▁mỗi":2262,"▁chứng":2263,"▁hoàn":2264,"ub":2265,"▁again":2266,"rough":2267,"get":2268,"ễn":2269,"iệp":2270,"▁after":2271,"▁ro":2272,"▁dr":2273,"▁rel":2274,"▁tưởng":2275,"ict":2276,"ew":2277,"▁bạn.":2278,"▁biệt":2279,"igh":2280,"▁trẻ":2281,"ually":2282,"▁tổ":2283,"▁comm":2284,"ought":2285,"ath":2286,"▁thêm":2287,"▁gh":2288,"▁you,":2289,"▁yourself":2290,"▁Vậy":2291,"▁cr":2292,"▁never":2293,"▁hand":2294,"▁through":2295,"ấm":2296,"▁wr":2297,"▁sure":2298,"▁kinh":2299,"▁rec":2300,"▁giá":2301,"▁keep":2302,"▁Họ":2303,"xt":2304,"▁tiên":2305,"iss":2306,"▁cứu":2307,"▁gây":2308,"ful":2309,"▁most":2310,"ồng":2311,"▁đây.":2312,"▁min":2313,"▁tiền":2314,"ather":2315,"cess":2316,"▁po":2317,"▁that's":2318,"ạm":2319,"▁chắc":2320,"an,":2321,"▁inf":2322,"▁chu":2323,"we":2324,"▁Ho":2325,"▁sao?":2326,"thing":2327,"▁world":2328,"i,":2329,"ank":2330,"▁around":2331,"ull":2332,"▁quyết":2333,"ne":2334,"ộng":2335,"▁thương":2336,"▁might":2337,"▁hoá":2338,"▁sát":2339,"▁sy":2340,"ool":2341,"▁trung":2342,"ance":2343,"▁well":2344,"▁sáng":2345,"▁mạnh":2346,"▁xuất":2347,"▁sec":2348,"vel":2349,"▁nhớ":2350,"▁bình":2351,"▁chiến":2352,"▁att":2353,"▁nữa.":2354,"▁That's":2355,"▁kill":2356,"▁nghĩa":2357,"ock":2358,"▁Now":2359,"be":2360,"▁chú":2361,"▁You're":2362,"▁đặt":2363,"pe":2364,"▁chuyển":2365,"ily":2366,"▁bel":2367,"▁thống":2368,"▁As":2369,"▁10":2370,"on.":2371,"ition":2372,"▁still":2373,"▁sản":2374,"▁things":2375,"▁phương":2376,"▁chơi":2377,"▁talk":2378,"▁ít":2379,"▁giống":2380,"▁quyền":2381,"▁Quốc":2382,"▁xảy":2383,"▁car":2384,"▁thị":2385,"▁phụ":2386,"▁chang":2387,"▁I've":2388,"▁giết":2389,"▁đấy.":2390,"▁ty":2391,"▁luôn":2392,"▁phẩm":2393,"erm":2394,"▁For":2395,").":2396,"▁xe":2397,"uyệt":2398,"ower":2399,"ạy":2400,"ph":2401,"▁ta.":2402,"▁giảm":2403,"▁mình.":2404,"▁put":2405,"▁dưới":2406,"▁guy":2407,"▁lẽ":2408,"▁vu":2409,"▁those":2410,"▁sách":2411,"an.":2412,"▁gần":2413,"red":2414,"▁sk":2415,"▁ứng":2416,"▁differ":2417,"▁here.":2418,"▁give":2419,"▁des":2420,"▁đâu.":2421,"▁đánh":2422,"▁bác":2423,"▁khoảng":2424,"▁trả":2425,"▁When":2426,"▁dẫn":2427,"▁dễ":2428,"▁tăng":2429,"▁cle":2430,"ib":2431,"▁nữa":2432,"ved":2433,"orn":2434,"▁chế":2435,"▁mang":2436,"▁sức":2437,"ious":2438,"▁bài":2439,"▁being":2440,"▁thought":2441,"en.":2442,"▁Những":2443,"▁tiếng":2444,"▁Trung":2445,"▁thôi.":2446,"▁cây":2447,"ation.":2448,"ẹp":2449,"▁ser":2450,"▁tương":2451,"▁tra":2452,"▁báo":2453,"▁điện":2454,"▁xác":2455,"▁kỳ":2456,"ese":2457,"▁kiểm":2458,"▁đủ":2459,"▁đại":2460,"ons":2461,"▁cons":2462,"ào":2463,"▁lập":2464,"▁cấp":2465,"ữa":2466,"▁da":2467,"▁đơn":2468,"▁dec":2469,"ible":2470,"ằm":2471,"▁lot":2472,"▁à?":2473,"▁many":2474,"▁đặc":2475,"ever":2476,"▁hu":2477,"en,":2478,"▁trí":2479,"ake":2480,"ves":2481,"▁gái":2482,"▁Điều":2483,"ứa":2484,"▁vừa":2485,"▁hoạt":2486,"▁show":2487,"▁own":2488,"▁supp":2489,"▁phía":2490,"uyền":2491,"▁fo":2492,"▁đất":2493,"▁chẳng":2494,"▁ask":2495,"▁great":2496,"▁better":2497,"ual":2498,"ert":2499,"▁màu":2500,"▁kế":2501,"▁Am":2502,"ating":2503,"▁dân":2504,"▁inst":2505,"▁lỗi":2506,"▁biến":2507,"arn":2508,"▁tài":2509,"▁why":2510,"▁rồi,":2511,"▁Chin":2512,"ưu":2513,"▁Mỹ":2514,"▁doing":2515,"▁tháng":2516,"aught":2517,"hip":2518,"ầy":2519,"▁such":2520,"▁Al":2521,"vent":2522,"▁chí":2523,"▁Để":2524,"▁vô":2525,"▁Trong":2526,"▁tớ":2527,"▁đau":2528,"▁chứ?":2529,"ậm":2530,"pect":2531,"▁Oh,":2532,"▁chiếc":2533,"▁dù":2534,"les":2535,"▁khác.":2536,"▁xuống":2537,"ors":2538,"▁sur":2539,"▁real":2540,"▁add":2541,"▁hướng":2542,"▁cuối":2543,"▁end":2544,"▁chân":2545,"iet":2546,"▁6":2547,"▁vệ":2548,"▁chỗ":2549,"ise":2550,"▁đáng":2551,"ek":2552,"▁sl":2553,"▁love":2554,"eah,":2555,"▁its":2556,"▁ass":2557,"▁giữa":2558,"▁care":2559,"ady":2560,"▁tư":2561,"aw":2562,"▁high":2563,"▁khả":2564,"▁tối":2565,"▁nó.":2566,"ient":2567,"▁med":2568,"ôm":2569,"▁uống":2570,"▁cổ":2571,"▁trang":2572,"àm":2573,"▁rõ":2574,"▁op":2575,"▁mat":2576,"▁mục":2577,"▁mắt":2578,"▁acc":2579,"▁ins":2580,"▁Vì":2581,".\"":2582,"▁child":2583,"▁My":2584,"ory":2585,"▁last":2586,"▁chút":2587,"ident":2588,"▁được.":2589,"▁An":2590,"'d":2591,"▁cảnh":2592,"iếm":2593,"▁trò":2594,"▁Đừng":2595,"▁tranh":2596,"▁mở":2597,"▁,":2598,"ways":2599,"▁ổ":2600,"▁Be":2601,"▁quốc":2602,"▁gu":2603,"▁ngủ":2604,"le,":2605,"▁kẻ":2606,"ix":2607,"▁/":2608,"▁we're":2609,"▁Is":2610,"▁No,":2611,"▁fam":2612,"▁thư":2613,"▁vẻ":2614,"▁tuyệt":2615,"▁cửa":2616,"▁hạn":2617,"▁count":2618,"▁tục":2619,"▁thử":2620,"▁suy":2621,"▁made":2622,"on,":2623,"▁nhanh":2624,"▁different":2625,"▁gen":2626,"▁nguyên":2627,"000":2628,"▁kind":2629,"lect":2630,"▁anh.":2631,"▁belie":2632,"▁str":2633,"ward":2634,"ember":2635,"▁old":2636,"▁đời":2637,"▁fin":2638,"t.":2639,"▁tượng":2640,"▁import":2641,"▁thuật":2642,"▁diễn":2643,"▁All":2644,"▁vậy.":2645,"▁tiến":2646,"ular":2647,"▁happen":2648,"▁ther":2649,"▁quay":2650,"▁tôi,":2651,"ng,":2652,"▁reg":2653,"▁pol":2654,"▁viết":2655,"▁el":2656,"up":2657,"▁same":2658,"ựa":2659,"▁Why":2660,"ract":2661,"oy":2662,"▁nay":2663,"▁giác":2664,"▁tóc":2665,"▁Yeah,":2666,"▁must":2667,"▁Your":2668,"▁Qu":2669,"▁inv":2670,"▁water":2671,"▁each":2672,"ait":2673,"▁Let":2674,"▁phân":2675,"or.":2676,"▁–":2677,"▁tinh":2678,"▁head":2679,"▁ide":2680,"▁thần":2681,"▁wom":2682,"▁ind":2683,"▁chức":2684,"▁few":2685,"▁kể":2686,"▁best":2687,"▁khí":2688,"▁proble":2689,"▁dài":2690,"vers":2691,"▁gắng":2692,"▁cháu":2693,"▁nghiệp":2694,"▁it,":2695,"kes":2696,"▁dịch":2697,"ject":2698,"ative":2699,"arm":2700,"▁chịu":2701,"▁vực":2702,"gg":2703,"ys":2704,"▁To":2705,"▁duy":2706,"rl":2707,"▁him.":2708,"▁thú":2709,"▁mày":2710,"▁He's":2711,"uyết":2712,"▁night":2713,"▁minut":2714,"ón":2715,"ize":2716,"tern":2717,"▁life":2718,"oid":2719,"▁phép":2720,"▁years":2721,"▁prot":2722,"▁phút":2723,"▁big":2724,"ffect":2725,"▁gì?":2726,"▁tuần":2727,"▁Sh":2728,"▁he's":2729,"▁Mr":2730,"▁nghi":2731,"▁sợ":2732,"▁Không,":2733,"ates":2734,"▁lâu":2735,"▁mà.":2736,"▁another":2737,"▁that.":2738,"▁Un":2739,"▁mua":2740,"▁xin":2741,"▁set":2742,"▁bre":2743,"▁càng":2744,"▁đẹp":2745,"stand":2746,"▁pres":2747,"▁always":2748,"▁them.":2749,"▁play":2750,"▁hộ":2751,"ty":2752,"▁trai":2753,"alth":2754,"▁cực":2755,"▁important":2756,"▁sch":2757,"ion,":2758,"ốn":2759,"▁ơn":2760,"▁gl":2761,"▁nghiệm":2762,"row":2763,"▁tử":2764,"▁me,":2765,"ific":2766,"oh":2767,"óm":2768,"air":2769,"▁while":2770,"olog":2771,"▁xúc":2772,"▁ra.":2773,"▁hum":2774,"ươi":2775,"àu":2776,"▁num":2777,"▁mức":2778,"▁lã":2779,"▁vui":2780,"▁ri":2781,"▁ngu":2782,"▁bọn":2783,"▁đừng":2784,"▁Cho":2785,"▁Sao":2786,"▁Sau":2787,"▁đình":2788,"▁turn":2789,"ooking":2790,"▁met":2791,"▁food":2792,"▁7":2793,"der":2794,"ee":2795,"ềm":2796,"▁dành":2797,"ork":2798,"▁tham":2799,"ren":2800,"▁phục":2801,"▁phản":2802,"▁tuổi":2803,"),":2804,"lud":2805,"ott":2806,"▁Chỉ":2807,"▁girl":2808,"▁produ":2809,"▁actually":2810,"▁triển":2811,"▁found":2812,"▁Người":2813,"▁run":2814,"▁minh":2815,"▁wo":2816,"▁\"T":2817,"▁sit":2818,"▁thuộc":2819,"▁spec":2820,"ếp":2821,"▁mon":2822,"▁list":2823,"▁ấy.":2824,"ưỡ":2825,"▁sim":2826,"▁nhiên,":2827,"▁vậy,":2828,"▁week":2829,"▁hard":2830,"▁ba":2831,"▁lại.":2832,"▁ent":2833,"ash":2834,"▁ob":2835,"▁you?":2836,"▁someone":2837,"▁8":2838,"▁aw":2839,"iếu":2840,"▁tích":2841,"▁ey":2842,"aughter":2843,"▁know,":2844,"▁left":2845,"▁mối":2846,"m,":2847,"▁bàn":2848,"alking":2849,"ly,":2850,"▁used":2851,"ity.":2852,"et.":2853,"▁On":2854,"▁enough":2855,"▁Just":2856,"▁mean":2857,"▁rep":2858,"▁nào.":2859,"▁cour":2860,"al.":2861,"ove":2862,"▁địa":2863,"▁kid":2864,"▁Cl":2865,"▁quest":2866,"▁exper":2867,"▁sign":2868,"▁Fr":2869,"▁lòng":2870,"▁mù":2871,"▁quân":2872,"▁Chú":2873,"▁nằm":2874,"▁without":2875,"▁triệu":2876,"▁quanh":2877,"ween":2878,"▁xử":2879,"▁lợi":2880,"▁cụ":2881,"▁small":2882,"ead":2883,"▁treat":2884,"▁three":2885,"ider":2886,"▁ké":2887,"▁poss":2888,"ãi":2889,"▁dấu":2890,"êng":2891,"▁time.":2892,"▁sw":2893,"▁pain":2894,"▁unt":2895,"▁plan":2896,"arl":2897,"▁getting":2898,"▁place":2899,"▁kiếm":2900,"▁eas":2901,"ies.":2902,"▁vùng":2903,"▁there's":2904,"▁biểu":2905,"▁văn":2906,"▁không,":2907,"ctor":2908,"▁chó":2909,"▁tránh":2910,"▁giả":2911,"in.":2912,"ied":2913,"▁bus":2914,"stem":2915,"▁between":2916,"▁told":2917,"▁201":2918,"▁bas":2919,"▁toget":2920,"▁compl":2921,"▁together":2922,"▁examp":2923,"ly.":2924,"▁nam":2925,"▁Mar":2926,"▁bước":2927,"▁thoại":2928,"le.":2929,"▁cat":2930,"▁understand":2931,"eric":2932,"▁bán":2933,"▁trợ":2934,"▁ngài":2935,"▁xa":2936,"▁9":2937,"ẫu":2938,"▁họ.":2939,"▁mind":2940,"▁hour":2941,"▁hair":2942,"▁đi,":2943,"ẵn":2944,"▁ngà":2945,"▁lead":2946,"llow":2947,"▁there.":2948,"▁kiến":2949,"▁includ":2950,"▁they're":2951,"erg":2952,"ric":2953,"▁Not":2954,"ẩy":2955,"▁mấy":2956,"▁đây,":2957,"▁đứa":2958,"▁truyền":2959,"▁conf":2960,"▁you'll":2961,"▁form":2962,"▁fact":2963,"▁giao":2964,"▁stud":2965,"az":2966,"ited":2967,"▁open":2968,"uring":2969,"▁this.":2970,"▁ext":2971,"▁now.":2972,"▁giáo":2973,"▁beg":2974,"▁beh":2975,"▁mạng":2976,"ồm":2977,"▁both":2978,"cept":2979,"▁believe":2980,"one.":2981,"▁May":2982,"▁khoẻ":2983,"inking":2984,"▁you've":2985,"▁Look":2986,"▁looking":2987,"▁phá":2988,"uc":2989,"▁thủ":2990,"▁kích":2991,"ings":2992,"▁Br":2993,"ier":2994,"eck":2995,"▁We're":2996,"▁luật":2997,"▁Ngh":2998,"ince":2999,"▁hy":3000,"ont":3001,"▁Hắn":3002,"▁away":3003,"ret":3004,"èo":3005,"▁dầu":3006,"\".":3007,"ush":3008,"▁nổi":3009,"▁tao":3010,"▁until":3011,"▁exp":3012,"▁learn":3013,"▁family":3014,"▁health":3015,"▁There's":3016,"body":3017,"▁rest":3018,"▁next":3019,"▁200":3020,"▁nhập":3021,"▁stay":3022,"▁av":3023,"▁trạng":3024,"▁vọng":3025,"ia.":3026,"▁body":3027,"▁khá":3028,"▁interest":3029,"ner":3030,"▁disc":3031,"▁ra,":3032,"ation,":3033,"▁nhé":3034,"ines":3035,"▁move":3036,"▁mone":3037,"▁hả":3038,"omm":3039,"ạp":3040,"▁leave":3041,"▁second":3042,"▁men":3043,"▁hơi":3044,"▁problem":3045,"▁sẵn":3046,"▁bad":3047,"▁đạo":3048,"ally,":3049,"▁đôi":3050,"▁cười":3051,"▁áo":3052,"leas":3053,"▁anything":3054,"▁Làm":3055,"▁nhau.":3056,"▁30":3057,"▁cal":3058,"rop":3059,"ượt":3060,"▁danh":3061,"▁âm":3062,"▁cả.":3063,"▁cha":3064,"▁system":3065,"▁stop":3066,"▁đàn":3067,"▁chống":3068,"▁máu":3069,"▁trái":3070,"▁vậy?":3071,"▁point":3072,"▁áp":3073,"▁ok":3074,"eg":3075,"▁def":3076,"▁Americ":3077,"▁read":3078,"▁yếu":3079,"▁det":3080,"▁phố":3081,"▁word":3082,"ction":3083,"▁trying":3084,"▁hỗ":3085,"iếng":3086,"▁using":3087,"▁mặc":3088,"ents":3089,"▁up.":3090,"▁chắn":3091,"▁nhiệm":3092,"▁không.":3093,"▁lat":3094,"▁vết":3095,"▁cre":3096,"▁thanh":3097,"▁hưởng":3098,"als":3099,"▁người.":3100,"▁light":3101,"▁đêm":3102,"ặng":3103,"▁Được":3104,"▁đứng":3105,"ĩnh":3106,"▁pos":3107,"▁called":3108,"▁vòng":3109,"▁gồm":3110,"▁(L":3111,"▁chuyên":3112,"leep":3113,"▁lớp":3114,"▁hôm":3115,"▁buổi":3116,"▁bây":3117,"uốt":3118,"▁lik":3119,"▁ban":3120,"▁mi":3121,"▁top":3122,"▁grow":3123,"ef":3124,"▁able":3125,"ten":3126,"▁15":3127,"▁sạch":3128,"▁hear":3129,"▁ích":3130,"▁Tuy":3131,"ace.":3132,"▁khăn":3133,"▁dep":3134,"▁out.":3135,"▁hoạch":3136,"lic":3137,"▁Ar":3138,"ice.":3139,"▁tội":3140,"▁job":3141,"▁Can":3142,"▁sub":3143,"▁cân":3144,"▁bay":3145,"▁less":3146,"erc":3147,"▁school":3148,"▁Some":3149,"▁mar":3150,"▁sở":3151,"▁phủ":3152,"▁soc":3153,"▁Tớ":3154,"▁thẳng":3155,"▁đội":3156,"▁trưởng":3157,"▁xét":3158,"▁xã":3159,"ouse":3160,"ational":3161,"▁\"I":3162,"h.":3163,"▁Bec":3164,"▁room":3165,"▁chạy":3166,"▁mom":3167,"▁ngồi":3168,"▁lịch":3169,"▁wait":3170,"▁Thế":3171,"▁meet":3172,"▁thúc":3173,"▁Mr.":3174,"▁đọc":3175,"▁chia":3176,"velop":3177,"▁making":3178,"▁China":3179,"▁power":3180,"▁sắp":3181,"▁Are":3182,"ern":3183,"▁án":3184,"▁Now,":3185,"▁chi":3186,"▁nghiên":3187,"▁Giờ":3188,"▁tiết":3189,"rol":3190,"▁ear":3191,"▁chung":3192,"ia,":3193,"▁gì.":3194,"▁pat":3195,"▁build":3196,"▁nguy":3197,"▁Ok":3198,"▁là,":3199,"▁I'd":3200,"▁trông":3201,"▁talking":3202,"▁cung":3203,"▁độc":3204,"▁follow":3205,"▁trời":3206,"▁came":3207,"▁trans":3208,"s?":3209,"▁nhóm":3210,"ủng":3211,"▁alre":3212,"▁ngăn":3213,"▁number":3214,"▁nguồn":3215,"ning":3216,"▁So,":3217,"ax":3218,"▁đảm":3219,"▁dist":3220,"con":3221,"dd":3222,"▁cạnh":3223,"▁bạn,":3224,"aughter)":3225,"▁nghệ":3226,"▁mật":3227,"▁effect":3228,"ially":3229,"▁New":3230,"▁(Laughter)":3231,"▁fun":3232,"its":3233,"ilit":3234,"▁name":3235,"▁đá":3236,"▁loc":3237,"ent.":3238,"▁wanted":3239,"▁resp":3240,"▁toà":3241,"▁riêng":3242,"▁blood":3243,"ey":3244,"▁dạng":3245,"▁home":3246,"ãn":3247,"▁Z":3248,"▁Hey,":3249,"ỉnh":3250,"▁đầy":3251,"▁pass":3252,"▁These":3253,"▁tod":3254,"▁hom":3255,"ared":3256,"▁sol":3257,"arch":3258,"▁ret":3259,"▁No":3260,"▁coll":3261,"ably":3262,"over":3263,"ão":3264,"▁seem":3265,"ram":3266,"▁nhắc":3267,"oun":3268,"▁đấu":3269,"▁thế.":3270,"▁sâu":3271,"▁father":3272,"▁Phải":3273,"ces":3274,"▁luận":3275,"▁allow":3276,"▁cut":3277,"ure.":3278,"ửi":3279,"▁lựa":3280,"▁khách":3281,"▁mus":3282,"▁stand":3283,"▁nào,":3284,"ple":3285,"▁xo":3286,"▁reas":3287,"▁doctor":3288,"▁tệ":3289,"▁vời":3290,"▁Nam":3291,"▁chuẩn":3292,"t,":3293,"▁test":3294,"▁month":3295,"ional":3296,"▁live":3297,"▁tức":3298,"▁dục":3299,"▁hơn,":3300,"▁lar":3301,"▁Because":3302,"▁12":3303,"▁Sp":3304,"ar.":3305,"▁kiểu":3306,"▁phim":3307,"▁Ví":3308,"▁Get":3309,"▁es":3310,"▁us.":3311,"▁lạc":3312,"▁ghi":3313,"▁col":3314,"▁hồi":3315,"▁example,":3316,"ine.":3317,"▁done":3318,"elf":3319,"▁Did":3320,"▁vũ":3321,"▁dung":3322,"▁hold":3323,"rect":3324,"ister":3325,"▁vis":3326,"▁kì":3327,"▁khác,":3328,"▁thằng":3329,"▁chờ":3330,"▁change":3331,"▁bit":3332,"▁cur":3333,"▁human":3334,"▁skin":3335,"led":3336,"ers.":3337,"ird":3338,"▁kéo":3339,"▁đu":3340,"▁i":3341,"▁nhạc":3342,"▁experi":3343,"▁inform":3344,"▁dead":3345,"▁Tất":3346,"ically":3347,"▁hại":3348,"ưỡng":3349,"▁lệ":3350,"▁do.":3351,"▁gener":3352,"▁whole":3353,"▁spe":3354,"ies,":3355,"▁bring":3356,"▁tuy":3357,"iel":3358,"ry,":3359,"ike":3360,"▁kỹ":3361,"▁đoán":3362,"▁cent":3363,"outh":3364,"▁nothing":3365,"▁mô":3366,"▁Cái":3367,"▁Việc":3368,"▁nat":3369,"▁cộng":3370,"▁phi":3371,"▁Se":3372,"▁soát":3373,"iew":3374,"▁nhiễ":3375,"▁relations":3376,"ữu":3377,"▁it?":3378,"▁mod":3379,"▁xấu":3380,"▁already":3381,"▁develop":3382,"▁that,":3383,"▁quần":3384,"▁God":3385,"ness":3386,"▁dữ":3387,"▁Then":3388,"▁heart":3389,"ry.":3390,"▁sleep":3391,"▁on,":3392,"▁her.":3393,"age.":3394,"ắn.":3395,"▁thậm":3396,"▁hữu":3397,"▁che":3398,"▁quen":3399,"▁dựng":3400,"▁phạm":3401,"▁chương":3402,"ặn":3403,"▁Where":3404,"▁đoạn":3405,"wh":3406,"▁hạt":3407,"▁trực":3408,"▁Or":3409,"úi":3410,"▁xây":3411,",000":3412,"iness":3413,"▁Who":3414,"▁remember":3415,"▁đóng":3416,"▁cử":3417,"cc":3418,"ility":3419,"▁perf":3420,"inc":3421,"▁hả?":3422,"▁having":3423,"▁become":3424,"▁tố":3425,"▁kiện":3426,"▁Mẹ":3427,"ertain":3428,"▁tí":3429,"▁phù":3430,"▁sư":3431,"▁lưu":3432,"▁cắt":3433,"▁bức":3434,"▁leg":3435,"br":3436,"▁least":3437,"ps":3438,"▁chàng":3439,"any":3440,"▁possible":3441,"▁bab":3442,"▁wrong":3443,"▁chấp":3444,"▁went":3445,"▁\"C":3446,"fort":3447,"▁taking":3448,"▁fight":3449,"▁saf":3450,"indow":3451,"▁ref":3452,"▁mình,":3453,"▁bóng":3454,"▁loài":3455,"▁chưa?":3456,"▁Tại":3457,"▁me?":3458,"gan":3459,"▁creat":3460,"▁expl":3461,"ỏng":3462,"▁prom":3463,"itive":3464,"ger":3465,"▁ev":3466,"▁One":3467,"▁working":3468,"▁At":3469,"▁air":3470,"▁vide":3471,"▁kia":3472,"▁khoa":3473,"ars":3474,"land":3475,"▁miss":3476,"▁sai":3477,"▁sang":3478,"▁diện":3479,"▁break":3480,"▁often":3481,"▁everything":3482,"▁sàng":3483,"alf":3484,"vern":3485,"ik":3486,"▁băng":3487,"▁trải":3488,"▁Bây":3489,"▁prog":3490,"▁hồ":3491,"▁means":3492,"su":3493,"▁lắng":3494,"▁nữa,":3495,"▁Còn":3496,"chn":3497,"▁Try":3498,"▁clean":3499,"▁nói,":3500,"▁life.":3501,"▁conc":3502,"▁sal":3503,"▁lắm":3504,"▁nhẹ":3505,"uss":3506,"▁nền":3507,"ense":3508,"▁relationship":3509,"▁mái":3510,"amin":3511,"▁fre":3512,"▁book":3513,"▁ký":3514,"▁nào?":3515,"▁tàu":3516,"▁xuyên":3517,"▁dog":3518,"▁right?":3519,"▁took":3520,"▁Bà":3521,"▁govern":3522,"io":3523,"▁rộng":3524,"▁cải":3525,"▁đạt":3526,"ether":3527,"lease":3528,"osed":3529,"▁rối":3530,"ẩu":3531,"▁thưa":3532,"▁watch":3533,"▁căn":3534,"▁mong":3535,"ution":3536,"▁em.":3537,"sw":3538,"▁ru":3539,"▁thinking":3540,"▁Make":3541,"▁ràng":3542,"conom":3543,"▁món":3544,"▁pay":3545,"▁incre":3546,"▁Come":3547,"▁xung":3548,"very":3549,"▁hoa":3550,"n,":3551,"▁cas":3552,"▁past":3553,"▁giấy":3554,"▁sho":3555,"ment.":3556,"▁full":3557,"▁saw":3558,"▁coming":3559,"▁prob":3560,"▁ris":3561,"less":3562,"ris":3563,"▁stre":3564,"▁Ex":3565,"▁Sc":3566,"▁prof":3567,"▁hoà":3568,"▁pret":3569,"▁here,":3570,"▁Ý":3571,"ments":3572,"▁against":3573,"▁matter":3574,"ói":3575,"▁oil":3576,"▁Use":3577,"▁complet":3578,"▁thất":3579,"ities":3580,"▁quên":3581,"▁chứa":3582,"▁trùng":3583,"ime":3584,"▁else":3585,"ắm.":3586,"▁đông":3587,"▁level":3588,"▁thuyết":3589,"▁khô":3590,"▁product":3591,"nect":3592,"▁Joh":3593,"▁commun":3594,"▁Ở":3595,"ement":3596,"ale":3597,"▁ant":3598,"▁order":3599,"▁chúng.":3600,"▁nhất.":3601,"▁suốt":3602,"▁begin":3603,"▁protect":3604,"itch":3605,"or,":3606,"▁ngữ":3607,"▁Re":3608,"ate.":3609,"▁pur":3610,"ever,":3611,"▁bánh":3612,"▁prov":3613,"▁control":3614,"▁makes":3615,"▁dụ,":3616,"▁partic":3617,"▁đô":3618,"et,":3619,"ics":3620,"ov":3621,"▁nghị":3622,"▁right,":3623,"▁cause":3624,"ổng":3625,"ling":3626,"▁mèo":3627,"▁dị":3628,"▁đấy,":3629,"▁what's":3630,"▁nhiễm":3631,"ural":3632,"▁đỡ":3633,"▁mother":3634,"▁ngoại":3635,"orth":3636,"▁lạnh":3637,"▁four":3638,"▁nội":3639,"▁eat":3640,"▁18":3641,"▁ngày.":3642,"▁sor":3643,"▁side":3644,"▁Ai":3645,"▁cánh":3646,"▁gửi":3647,"ocus":3648,"▁time,":3649,"▁biển":3650,"▁brain":3651,"▁idea":3652,"▁comput":3653,"ah":3654,"▁thi":3655,"aster":3656,"arent":3657,"▁mill":3658,"▁ta,":3659,"▁seen":3660,"▁during":3661,"▁support":3662,"ex":3663,"▁char":3664,"▁imm":3665,"rib":3666,"▁press":3667,"▁web":3668,"▁pub":3669,"▁giản":3670,"uff":3671,"▁nhiệt":3672,"▁Go":3673,"▁lá":3674,"▁dây":3675,"▁Mày":3676,"▁day.":3677,"▁đợi":3678,"ive.":3679,"▁Xin":3680,"▁once":3681,"ken":3682,"▁Mọi":3683,"▁thể.":3684,"▁cam":3685,"▁thoát":3686,"▁Maybe":3687,"▁econom":3688,"▁ổn":3689,"▁lãnh":3690,"▁law":3691,"▁Let's":3692,"▁opt":3693,"▁walk":3694,"▁ngươi":3695,"▁lại,":3696,"in,":3697,"▁Hoa":3698,"▁thiếu":3699,"▁Take":3700,"ital":3701,"ượu":3702,"▁mark":3703,"ton":3704,"▁sym":3705,"▁hur":3706,"iếp":3707,"▁opp":3708,"▁100":3709,"▁techn":3710,"▁Pl":3711,"ity,":3712,"own.":3713,"▁again.":3714,"▁tre":3715,"ced":3716,"ized":3717,"▁art":3718,"ers,":3719,"imes":3720,"▁consider":3721,"▁requ":3722,"▁(C":3723,"▁sound":3724,"▁pot":3725,"▁môi":3726,"▁nối":3727,"▁she's":3728,"y?":3729,"ions.":3730,"▁cáo":3731,"▁hiểm":3732,"▁lau":3733,"ures":3734,"▁Okay,":3735,"▁Nói":3736,"▁since":3737,"uth":3738,"rat":3739,"ouch":3740,"ending":3741,"▁val":3742,"▁Thật":3743,"ump":3744,"uck":3745,"▁answ":3746,"man":3747,"▁ánh":3748,"▁tốt.":3749,"▁check":3750,"▁caus":3751,"▁They're":3752,"▁grou":3753,"▁vợ":3754,"▁(T":3755,"▁friends":3756,"▁doanh":3757,"▁tem":3758,"▁thiện":3759,"iện.":3760,"▁clear":3761,"▁kỷ":3762,"▁Bl":3763,"▁khoản":3764,"▁quý":3765,"▁lai":3766,"▁dàng":3767,"▁Như":3768,"▁vượt":3769,"▁bụ":3770,"▁đế":3771,"▁arm":3772,"ide.":3773,"▁imag":3774,"▁situ":3775,"▁sớ":3776,"▁free":3777,"▁feeling":3778,"▁cor":3779,"▁mean,":3780,"▁What's":3781,"▁hầu":3782,"▁căng":3783,"▁nghỉ":3784,"▁Le":3785,"▁hút":3786,"▁mũ":3787,"err":3788,"▁jo":3789,"▁trì":3790,"▁rượu":3791,"▁chăm":3792,"▁back.":3793,"▁that?":3794,"▁Every":3795,"▁fore":3796,"▁viện":3797,"▁rời":3798,"ets":3799,"▁probably":3800,"▁hạ":3801,"att":3802,"▁thở":3803,"▁quản":3804,"▁Pr":3805,"se.":3806,"▁dem":3807,"▁súng":3808,"▁lộ":3809,"ention":3810,"▁đem":3811,"▁nhiêu":3812,"▁avoid":3813,"▁del":3814,"▁Yes,":3815,"▁maybe":3816,"▁cond":3817,"▁bữa":3818,"▁nhờ":3819,"▁luyện":3820,"▁pri":3821,"▁is,":3822,"▁deal":3823,"▁on.":3824,"▁sắc":3825,"anna":3826,"▁ed":3827,"▁cell":3828,"sp":3829,"▁ngôi":3830,"áy":3831,"▁nạn":3832,"▁She's":3833,"▁tổng":3834,"ta":3835,"▁ví":3836,"▁plant":3837,"▁adv":3838,"nam":3839,"ield":3840,"ruct":3841,"▁face":3842,"ream":3843,"ium":3844,"▁half":3845,"▁phys":3846,"▁hôn":3847,"▁50":3848,"▁$":3849,"▁hot":3850,"▁five":3851,"▁fut":3852,"▁far":3853,"ox":3854,"▁thế?":3855,"ẹn":3856,"▁lang":3857,"pped":3858,"▁bắn":3859,"▁Bố":3860,"ay?":3861,"▁nghiêm":3862,"▁certain":3863,"▁pop":3864,"▁quick":3865,"min":3866,"▁knew":3867,"raw":3868,"▁train":3869,"▁activ":3870,"▁Tao":3871,"idd":3872,"▁thái":3873,"▁tấn":3874,"▁cô.":3875,"▁fil":3876,"lex":3877,"▁Chúa":3878,"▁bè":3879,"▁direct":3880,"▁hạnh":3881,"▁lắm.":3882,"reen":3883,"▁buồn":3884,"▁bott":3885,"▁mess":3886,"▁mem":3887,"iver":3888,"ann":3889,"▁bro":3890,"▁trừ":3891,"▁làm.":3892,"▁cũ":3893,"▁United":3894,"òi":3895,"▁sing":3896,"▁said,":3897,"▁likely":3898,"▁buộc":3899,"▁polit":3900,"▁xanh":3901,"▁heard":3902,"▁medic":3903,"▁nhỉ":3904,"▁anh,":3905,"▁người,":3906,"▁đỏ":3907,"ho":3908,"▁trách":3909,"▁nhà.":3910,"▁this,":3911,"▁reason":3912,"▁breat":3913,"▁cap":3914,"▁self":3915,"▁redu":3916,"▁vai":3917,"▁contin":3918,"ọng.":3919,"▁coi":3920,"▁dam":3921,"▁focus":3922,"nes":3923,"▁cà":3924,"▁khoá":3925,"▁miệ":3926,"▁Ind":3927,"aut":3928,"fic":3929,"▁não":3930,"yl":3931,"▁exact":3932,"▁outs":3933,"ure,":3934,"▁cơn":3935,"▁money":3936,"ót":3937,"ence.":3938,"▁connect":3939,"tain":3940,"▁too.":3941,"▁one.":3942,"ying":3943,"▁chữ":3944,"▁xong":3945,"▁rửa":3946,"al,":3947,"▁main":3948,"▁now,":3949,"▁result":3950,"ight.":3951,"▁đổ":3952,"iting":3953,"▁Have":3954,"▁step":3955,"▁instead":3956,"▁children":3957,"ein":3958,"▁sóc":3959,"app":3960,"▁đẩy":3961,"▁within":3962,"▁speak":3963,"▁hist":3964,"▁times":3965,"▁deep":3966,"▁strong":3967,"\",":3968,"cent":3969,"ụp":3970,"▁stor":3971,"▁term":3972,"▁ông.":3973,"▁buy":3974,"▁house":3975,"▁Với":3976,"▁khám":3977,"▁Tìm":3978,"▁elect":3979,"▁mắc":3980,"▁fall":3981,"▁fac":3982,"▁Dr":3983,"ug":3984,"▁trust":3985,"▁teach":3986,"▁ngờ":3987,"âng,":3988,"▁neg":3989,"▁morn":3990,"▁De":3991,"▁hell":3992,"▁risk":3993,"▁kê":3994,"▁nóng":3995,"▁plac":3996,"one,":3997,"ither":3998,"▁Cháu":3999,"▁war":4000,"▁young":4001,"▁typ":4002,"ăn.":4003,"▁mẫu":4004,"▁business":4005,"▁way.":4006,"▁pretty":4007,"ange":4008,"õi":4009,"▁dạy":4010,"▁tiểu":4011,"▁ni":4012,"▁organ":4013,"▁fig":4014,"▁near":4015,"▁process":4016,"▁guys":4017,"ấc":4018,"▁hề":4019,"▁dat":4020,"▁Har":4021,"▁Pe":4022,"ecially":4023,"S.":4024,"▁equ":4025,"▁trước.":4026,"0.":4027,"▁lạ":4028,"▁social":4029,"▁bí":4030,"▁phê":4031,"▁After":4032,"▁common":4033,"▁eng":4034,"▁nu":4035,"▁lành":4036,"▁giờ,":4037,"▁màn":4038,"▁clos":4039,"▁drink":4040,"▁sir":4041,"ance.":4042,"aring":4043,"▁in.":4044,"▁thiên":4045,"ficult":4046,"▁whether":4047,"▁short":4048,"▁appro":4049,"▁vận":4050,"▁thế,":4051,"▁lost":4052,"enn":4053,"▁Sự":4054,"▁tổn":4055,"▁Dùng":4056,"▁\"W":4057,"▁video":4058,"▁sơ":4059,"èn":4060,"▁hậu":4061,"▁expect":4062,"▁needs":4063,"▁started":4064,"▁bar":4065,"▁myself":4066,"▁listen":4067,"▁Nghe":4068,"▁ô":4069,"▁down.":4070,"▁tồn":4071,"▁đe":4072,"▁With":4073,"▁Keep":4074,"ists":4075,"▁hộp":4076,"lo":4077,"▁comes":4078,"▁thấp":4079,"▁nỗi":4080,"▁suc":4081,"▁difficult":4082,"▁bang":4083,"▁women":4084,"▁Kỳ":4085,"iat":4086,"most":4087,"ice,":4088,"ron":4089,"▁xếp":4090,"▁emot":4091,"▁bào":4092,"ering":4093,"hing.":4094,"▁chết.":4095,"▁ang":4096,"▁include":4097,"te":4098,"el.":4099,"▁cuốn":4100,"sh":4101,"▁gì,":4102,"▁contain":4103,"ices":4104,"▁boy":4105,"▁minutes":4106,"▁cập":4107,"▁though":4108,"▁phúc":4109,"ently":4110,"▁vir":4111,"▁nó,":4112,"▁class":4113,"▁pleas":4114,"▁khẩu":4115,"▁stat":4116,"▁dần":4117,"▁già":4118,"▁card":4119,"ận.":4120,"▁mã":4121,"▁gã":4122,"▁yên":4123,"▁event":4124,"▁ap":4125,"▁lệnh":4126,"▁pick":4127,"▁Chắc":4128,"▁Đại":4129,"0,":4130,"▁nửa":4131,"▁here?":4132,"▁con.":4133,"▁Rem":4134,"ili":4135,"▁box":4136,"ộc":4137,"▁question":4138,"▁App":4139,"ured":4140,"▁tôn":4141,"▁up,":4142,"▁design":4143,"▁chữa":4144,"▁close":4145,"▁red":4146,"▁Đi":4147,"▁Gr":4148,"▁đâu?":4149,"▁khủng":4150,"ife":4151,"lish":4152,"▁bod":4153,"▁American":4154,"▁Co":4155,"▁intern":4156,"▁pap":4157,"▁sớm":4158,"▁cư":4159,"▁know.":4160,"▁esp":4161,"raz":4162,"▁John":4163,"ine,":4164,"ins":4165,"▁Nà":4166,"▁appear":4167,"iron":4168,"avi":4169,"se,":4170,"▁leav":4171,"cle":4172,"und":4173,"erv":4174,"▁man.":4175,"▁government":4176,"▁\"S":4177,"ouble":4178,"ùa":4179,"▁group":4180,"▁Bọn":4181,"inal":4182,"▁sổ":4183,"ried":4184,"▁cop":4185,"ask":4186,"▁infect":4187,"▁đây?":4188,"▁exerc":4189,"iêu":4190,"▁ước":4191,"ism":4192,"▁chỉnh":4193,"com":4194,"▁mơ":4195,"▁prevent":4196,"▁=":4197,"it.":4198,"▁ben":4199,"▁we've":4200,"ote":4201,"▁\"N":4202,"▁Dù":4203,"▁biết.":4204,"ad.":4205,"▁beaut":4206,"▁You'll":4207,"▁cover":4208,"▁saying":4209,"▁serv":4210,"work":4211,"▁sex":4212,"▁brother":4213,"▁răng":4214,"▁nuôi":4215,"▁sever":4216,"at.":4217,"▁\"A":4218,"▁say,":4219,"rug":4220,"▁wond":4221,"▁toán":4222,"▁Pro":4223,"▁pict":4224,"▁const":4225,"▁area":4226,"ptom":4227,"▁dưỡng":4228,"▁dry":4229,"▁store":4230,"▁along":4231,"▁parent":4232,"▁mới.":4233,"▁bại":4234,"▁inside":4235,"▁Here":4236,"▁biết,":4237,"ired":4238,"▁program":4239,"▁mời":4240,"▁exc":4241,"▁public":4242,"▁Cha":4243,"▁Á":4244,"▁tạp":4245,"▁thận":4246,"▁dev":4247,"▁amount":4248,"▁ve":4249,"eral":4250,"▁occ":4251,"acter":4252,"âng":4253,"▁đa":4254,"▁tai":4255,"▁nhé.":4256,"▁Jo":4257,"▁days":4258,"▁create":4259,"▁dừng":4260,"▁anim":4261,"ie.":4262,"ền.":4263,"▁proper":4264,"▁invest":4265,"▁đột":4266,"▁land":4267,"▁Bởi":4268,"▁điên":4269,"▁ste":4270,"ther":4271,"▁lông":4272,"▁hon":4273,"▁Even":4274,"▁Thank":4275,"▁happened":4276,"▁email":4277,"aps":4278,"▁Đúng":4279,"ọt":4280,"▁pract":4281,"▁Will":4282,"▁percent":4283,"▁information":4284,"▁especially":4285,"▁go.":4286,"ic.":4287,"▁huỷ":4288,"▁US":4289,"▁Ừ":4290,"▁nhật":4291,"ngth":4292,"▁low":4293,"▁behind":4294,"▁tụ":4295,"▁nặng":4296,"▁reach":4297,"rew":4298,"▁khai":4299,"▁dựa":4300,"line":4301,"ớt":4302,"▁Ngo":4303,"▁team":4304,"▁Thực":4305,"▁wanna":4306,"▁ngôn":4307,"▁killed":4308,"▁norm":4309,"▁kính":4310,"▁Vâng,":4311,"▁thịt":4312,"▁var":4313,"▁personal":4314,"ivers":4315,"▁par":4316,"▁cậu.":4317,"▁convers":4318,"▁tắc":4319,"▁Mặc":4320,"▁stuff":4321,"▁ton":4322,"▁Rồi":4323,"▁giây":4324,"▁sent":4325,"▁gave":4326,"▁usually":4327,"▁sẻ":4328,"eth":4329,"▁Nên":4330,"▁touch":4331,"▁hấp":4332,"▁hope":4333,"▁However,":4334,"rent":4335,"▁others":4336,"▁special":4337,"▁Phải,":4338,"▁people.":4339,"▁thoải":4340,"▁hẹn":4341,"▁them,":4342,"▁symptom":4343,"▁Ro":4344,"▁tù":4345,"▁wants":4346,"as.":4347,"▁mùi":4348,"▁sens":4349,"▁cou":4350,"▁kem":4351,"▁gam":4352,"▁thảo":4353,"▁Bắc":4354,"▁cốc":4355,"▁rather":4356,"ie,":4357,"?\"":4358,"▁phot":4359,"▁tỏ":4360,"▁tải":4361,"▁thụ":4362,"▁hous":4363,"▁199":4364,"▁Đông":4365,"▁lab":4366,"▁đầu.":4367,"▁right.":4368,"ĩa":4369,"▁Đức":4370,"thing.":4371,"▁cir":4372,"▁tuỳ":4373,"▁trắng":4374,"▁contact":4375,"▁11":4376,"orrow":4377,"▁nhau,":4378,"▁tận":4379,"▁death":4380,"▁known":4381,"▁đích":4382,"▁châu":4383,"▁okay?":4384,"▁mạch":4385,"pping":4386,"bb":4387,"▁z":4388,"now":4389,"is.":4390,"▁loạn":4391,"▁account":4392,"▁nay,":4393,"▁York":4394,"▁asked":4395,"▁entire":4396,"▁world.":4397,"▁đuổi":4398,"▁fav":4399,"▁Inst":4400,"▁woman":4401,"▁moment":4402,"eng":4403,"▁du":4404,"▁front":4405,"▁there,":4406,"▁bi":4407,"▁slow":4408,"▁tín":4409,"▁tĩnh":4410,"▁hands":4411,"▁black":4412,"ross":4413,"▁thai":4414,"▁swe":4415,"us,":4416,"▁trao":4417,"▁Car":4418,"▁phổ":4419,"▁Chinese":4420,"▁Là":4421,"▁almost":4422,"▁thắng":4423,"▁save":4424,"▁particular":4425,"▁+":4426,"where":4427,"▁chiều":4428,"▁Chr":4429,"ch.":4430,"▁sống.":4431,"▁mùa":4432,"▁pull":4433,"▁mag":4434,"▁lí":4435,"▁hát":4436,"ages":4437,"▁behavi":4438,"▁túi":4439,"▁Thay":4440,"ries":4441,"▁Any":4442,"▁gets":4443,"▁Ad":4444,"▁home.":4445,"▁Hai":4446,"▁nước.":4447,"▁tru":4448,"ok":4449,"▁sửa":4450,"ter.":4451,"ance,":4452,"▁Af":4453,"▁thả":4454,"▁bổ":4455,"▁you'd":4456,"uyện.":4457,"▁energ":4458,"▁dối":4459,"▁trộ":4460,"▁bom":4461,"▁phone":4462,"ential":4463,"▁return":4464,"▁est":4465,"▁khắc":4466,"▁anyone":4467,"▁respons":4468,",\"":4469,"itamin":4470,"ứt":4471,"▁ạ":4472,"▁lên.":4473,"▁dõi":4474,"▁drug":4475,"▁Once":4476,"▁25":4477,"▁gotta":4478,"▁impro":4479,"▁tầm":4480,"▁\"H":4481,"▁langu":4482,"▁simp":4483,"▁chim":4484,"▁chồng":4485,"ined":4486,"▁nhu":4487,"▁la":4488,"▁thank":4489,"▁invol":4490,"▁quite":4491,"▁country":4492,"▁tấm":4493,"ts":4494,"▁ống":4495,"▁exactly":4496,"óp":4497,"▁Công":4498,"▁đăng":4499,"▁đám":4500,"▁sort":4501,"▁vo":4502,"▁góc":4503,"▁En":4504,"▁U.":4505,"▁necess":4506,"▁Good":4507,"▁phong":4508,"mm":4509,"▁cost":4510,"▁mil":4511,"ười)":4512,"▁\"M":4513,"'.":4514,"▁đảo":4515,"▁mừng":4516,"ify":4517,"▁says":4518,"▁Việt":4519,"▁window":4520,"▁Tây":4521,"▁We'll":4522,"ivid":4523,"▁six":4524,"▁giỏi":4525,"▁cold":4526,"▁everyone":4527,"▁text":4528,"able.":4529,"▁tiện":4530,"▁thập":4531,"▁kí":4532,"▁toward":4533,"els":4534,"▁shot":4535,"▁cường":4536,"▁được,":4537,"▁Lu":4538,"▁nói.":4539,"iqu":4540,"▁cool":4541,"ator":4542,"▁Pet":4543,"▁report":4544,"▁Jack":4545,"bers":4546,"▁bầu":4547,"▁comfort":4548,"▁bed":4549,"▁hours":4550,"▁day,":4551,"▁ngược":4552,"▁Ge":4553,"▁let's":4554,"▁miệng":4555,"ight,":4556,"▁hứng":4557,"▁chạm":4558,"▁hắn.":4559,"▁Ba":4560,"▁million":4561,"▁several":4562,"ral":4563,"▁ẩn":4564,"▁is.":4565,"▁Chính":4566,"▁wish":4567,"ided":4568,"▁issu":4569,"▁Viet":4570,"▁him,":4571,"▁rob":4572,"▁Was":4573,"▁trọng.":4574,"▁ngắn":4575,"us.":4576,"▁soon":4577,"▁Intern":4578,"▁dri":4579,"▁well.":4580,"▁specific":4581,"▁À":4582,"▁nay.":4583,"▁dest":4584,"▁lái":4585,"▁Comm":4586,"ations.":4587,"▁học.":4588,"itting":4589,"èm":4590,"▁warm":4591,"ilt":4592,"▁nhiều.":4593,"▁years.":4594,"er's":4595,"▁khởi":4596,"el,":4597,"▁Từ":4598,"▁tắm":4599,"▁burn":4600,"▁tả":4601,"▁abs":4602,"ute":4603,"cri":4604,"ev":4605,"▁họ,":4606,"room":4607,"▁khắp":4608,"▁thể,":4609,"▁lim":4610,"▁chảy":4611,"▁chặn":4612,"▁ready":4613,"▁we'll":4614,"▁\"B":4615,"▁cận":4616,"▁tỉnh":4617,"▁cầm":4618,"▁dang":4619,"▁giấc":4620,"▁profess":4621,"▁nhắn":4622,"gar":4623,"iate":4624,"u.":4625,"▁Bar":4626,"▁fat":4627,"▁remain":4628,"▁thăm":4629,"▁thừa":4630,"▁bột":4631,"rem":4632,"▁Mình":4633,"▁story":4634,"▁You've":4635,"▁meth":4636,"▁Look,":4637,"ortun":4638,"▁By":4639,"▁spr":4640,"▁niềm":4641,"iful":4642,"▁ly":4643,"▁fire":4644,"▁chuyến":4645,"▁dòng":4646,"▁kháng":4647,"▁this?":4648,"▁Vietnam":4649,"▁large":4650,"▁Tell":4651,"▁Lo":4652,"▁Theo":4653,"raph":4654,"▁ways":4655,"▁dream":4656,"▁đâu,":4657,"▁like,":4658,"riend":4659,"▁cloth":4660,"▁well,":4661,"cl":4662,"▁tây":4663,"iety":4664,"▁hang":4665,"▁Chị":4666,"▁Nhiều":4667,"▁type":4668,"vious":4669,"▁(1":4670,"▁tốc":4671,"▁out,":4672,"jor":4673,"▁thù":4674,"read":4675,"ision":4676,"▁attack":4677,"▁linh":4678,"▁giận":4679,"▁Ab":4680,"▁Av":4681,"▁looks":4682,"▁oper":4683,"▁click":4684,"▁Này,":4685,"▁tái":4686,"▁nhảy":4687,"▁trận":4688,"▁remove":4689,"h?":4690,"▁rơi":4691,"amm":4692,"▁away.":4693,"▁case":4694,"▁ngừng":4695,"▁giờ.":4696,"▁song":4697,"▁nhất,":4698,"▁work.":4699,"▁ơi":4700,"▁huống":4701,"sy":4702,"▁mot":4703,"▁sun":4704,"▁outside":4705,"▁record":4706,"▁Frank":4707,"▁nhỉ?":4708,"▁send":4709,"▁fail":4710,"▁(A":4711,"raid":4712,"▁eff":4713,"▁Tw":4714,"▁offic":4715,"▁dark":4716,"▁tom":4717,"irm":4718,"▁present":4719,"▁positive":4720,"▁technolog":4721,"▁to.":4722,"▁chuột":4723,"▁pow":4724,"▁quái":4725,"ic,":4726,"irr":4727,"▁vẽ":4728,"ogn":4729,"▁eyes":4730,"▁miễn":4731,"▁env":4732,"▁water.":4733,"▁af":4734,"ison":4735,"ịp":4736,"▁son":4737,"▁across":4738,"▁thôi,":4739,"to":4740,"▁do,":4741,"▁lỗ":4742,"ered":4743,"▁dính":4744,"▁Su":4745,"ides":4746,"umb":4747,"ones":4748,"▁thing.":4749,"▁bill":4750,"▁key":4751,"▁chance":4752,"▁phóng":4753,"uốn.":4754,"yd":4755,"▁nice":4756,"▁Chuyện":4757,"▁thoả":4758,"▁rad":4759,"▁eye":4760,"▁trứng":4761,"▁game":4762,"▁lỗi,":4763,"▁chụp":4764,"▁trụ":4765,"▁này?":4766,"▁goes":4767,"▁ấy,":4768,"▁ấm":4769,"▁mach":4770,"▁trước,":4771,"▁individ":4772,"▁cứng":4773,"▁huy":4774,"▁khuy":4775,"ane":4776,"▁giới.":4777,"▁compan":4778,"▁Cứ":4779,"▁17":4780,"ands":4781,"▁ground":4782,"▁Tổng":4783,"▁động.":4784,"▁non":4785,"▁drop":4786,"▁white":4787,"▁Ngài":4788,"▁mềm":4789,"▁lửa":4790,"ggest":4791,"ience":4792,"▁rằng,":4793,"▁spend":4794,"▁win":4795,"▁nàng":4796,"▁serious":4797,"▁tuyến":4798,"▁stress":4799,"▁thuận":4800,"▁longer":4801,"▁niệm":4802,"▁way,":4803,"ots":4804,"▁based":4805,"▁natural":4806,"▁phán":4807,"▁yourself.":4808,"▁foot":4809,"▁muốn.":4810,"▁Fl":4811,"▁affect":4812,"▁West":4813,"▁Give":4814,"ence,":4815,"▁taken":4816,"▁lao":4817,"▁Put":4818,"▁suff":4819,"▁increas":4820,"af":4821,"▁milit":4822,"▁given":4823,"▁either":4824,"imm":4825,"▁immed":4826,"▁ngón":4827,"▁Tránh":4828,"▁together.":4829,"▁hurt":4830,"ẳn":4831,"▁mist":4832,"▁gun":4833,"▁post":4834,"▁guess":4835,"▁local":4836,"▁rồi?":4837,"ploy":4838,"▁enj":4839,"▁viêm":4840,"▁squ":4841,"ous.":4842,"▁trốn":4843,"unch":4844,"▁học,":4845,"▁experience":4846,"▁wall":4847,"uống.":4848,"▁single":4849,"▁object":4850,"▁đáp":4851,"▁khối":4852,"▁forg":4853,"selves":4854,"▁States":4855,"▁U.S.":4856,"▁state":4857,"▁partner":4858,"▁trăm":4859,"▁suggest":4860,"▁El":4861,"▁nổ":4862,"▁vàng":4863,"ental":4864,"elt":4865,"▁weight":4866,"▁sữa":4867,"▁Sẽ":4868,"▁Trước":4869,"▁40":4870,"▁Cách":4871,"▁medical":4872,"por":4873,"▁hỗn":4874,"▁sour":4875,"▁Cảm":4876,"▁afraid":4877,"▁Com":4878,"▁thưởng":4879,"▁Col":4880,"▁ill":4881,"▁view":4882,"▁giàu":4883,"▁rese":4884,"▁including":4885,"▁tồi":4886,"▁line":4887,"▁comb":4888,"ances":4889,"as,":4890,"▁Somet":4891,"book":4892,"▁ident":4893,"▁kim":4894,"▁couple":4895,"▁sense":4896,"▁tow":4897,"▁Nhìn":4898,"ept":4899,"▁individual":4900,"▁lose":4901,"age,":4902,"▁knows":4903,"▁24":4904,"ive,":4905,"▁perfect":4906,"▁cấu":4907,"ters":4908,"▁Ừ,":4909,"ues":4910,"▁xương":4911,"▁select":4912,"▁finish":4913,"▁We've":4914,"▁giai":4915,"▁Vào":4916,"▁mov":4917,"▁beautiful":4918,"▁project":4919,"▁mũi":4920,"iod":4921,"▁tend":4922,"ature":4923,"▁mai":4924,"rought":4925,"iddle":4926,"▁lối":4927,"▁Bác":4928,"▁lĩnh":4929,"▁Ngoài":4930,"▁stra":4931,"▁tẩy":4932,"▁đen":4933,"▁mass":4934,"▁dậy":4935,"ad,":4936,"▁chứ.":4937,"▁tế,":4938,"▁198":4939,"full":4940,"view":4941,"▁mát":4942,"▁muối":4943,"oog":4944,"▁16":4945,"▁(Cười)":4946,"oint":4947,"▁fur":4948,"▁supposed":4949,"▁hit":4950,"▁Cũng":4951,"▁Chẳng":4952,"ally.":4953,"more":4954,"▁ngạc":4955,"▁ur":4956,"alleng":4957,"▁dise":4958,"▁thường.":4959,"▁tường":4960,"▁ngại":4961,"▁chậm":4962,"is,":4963,"▁asking":4964,"▁thân.":4965,"ences":4966,"▁research":4967,"▁apply":4968,"▁infl":4969,"▁opportun":4970,"bo":4971,"▁tỉ":4972,"▁all.":4973,"▁political":4974,"▁hài":4975,"▁ngày,":4976,"▁ép":4977,"▁gốc":4978,"a's":4979,"▁prep":4980,"▁regular":4981,"itor":4982,"▁share":4983,"▁While":4984,"▁worth":4985,"ateg":4986,"▁patient":4987,"▁diệt":4988,"e...":4989,"urity":4990,"▁thơ":4991,"▁sung":4992,"and.":4993,"▁reduce":4994,"▁negative":4995,"gn":4996,"▁circ":4997,"▁bạo":4998,"▁South":4999,"udd":5000,"▁đoàn":5001,"aim":5002,"▁bạc":5003,"▁living":5004,"▁easy":5005,"ym":5006,"▁terr":5007,"▁hết.":5008,"▁write":5009,"▁gắn":5010,"▁Sam":5011,"▁doạ":5012,"friend":5013,"oon":5014,"▁lầm":5015,"▁Mỗi":5016,"▁tầ":5017,"▁TV":5018,"▁hoàng":5019,"▁nút":5020,"▁Liên":5021,"▁hung":5022,"▁doll":5023,"▁Chọn":5024,"▁super":5025,"p.":5026,"▁soft":5027,"▁bottom":5028,"▁His":5029,"▁Cons":5030,"son":5031,"ants":5032,"▁Rất":5033,"▁việc.":5034,"▁sân":5035,"unk":5036,"▁Ồ":5037,"▁file":5038,"▁Lúc":5039,"ler":5040,"▁tộc":5041,"▁thách":5042,"▁Eng":5043,"▁environ":5044,"ắng.":5045,"▁ngân":5046,"▁phức":5047,"▁are.":5048,"▁accept":5049,"▁period":5050,"▁completely":5051,"y's":5052,"▁nhấp":5053,"▁flo":5054,"▁night.":5055,"▁n't.":5056,"▁smo":5057,"▁tắt":5058,"atic":5059,"aking":5060,"ately":5061,"▁phận":5062,"▁Â":5063,"▁vitamin":5064,"▁nhằm":5065,"▁14":5066,"▁rece":5067,"▁Ngay":5068,"▁Bộ":5069,"▁People":5070,"▁hứa":5071,"▁[":5072,"▁Nhật":5073,"▁Find":5074,"▁method":5075,"idence":5076,"▁simply":5077,"▁enjoy":5078,"erial":5079,"▁rút":5080,"▁hoạ":5081,"▁telling":5082,"▁current":5083,"lev":5084,"▁dai":5085,"▁respect":5086,"▁figure":5087,"▁success":5088,"▁ngành":5089,"▁place.":5090,"ency":5091,"▁khuẩn":5092,"▁answer":5093,"▁major":5094,"▁becom":5095,"▁access":5096,"▁benef":5097,"▁thẻ":5098,"▁lay":5099,"▁fast":5100,"ment,":5101,"▁enc":5102,"▁tiệc":5103,"▁siêu":5104,"▁bày":5105,"▁happy":5106,"▁tỷ":5107,"▁đự":5108,"▁lũ":5109,"▁Pol":5110,"▁brought":5111,"▁lưng":5112,"▁fing":5113,"▁search":5114,"pr":5115,"▁Ấ":5116,"▁corn":5117,"▁challeng":5118,"▁course":5119,"▁sir.":5120,"▁nắm":5121,"▁đòi":5122,"ored":5123,"▁priv":5124,"▁bật":5125,"▁chóng":5126,"▁(t":5127,"▁OK":5128,"▁early":5129,"▁bur":5130,"▁Cal":5131,"▁Like":5132,"▁Christ":5133,"▁los":5134,"▁trại":5135,"▁extra":5136,"▁shall":5137,"▁thuỷ":5138,"haps":5139,"ves.":5140,"▁cup":5141,"▁giường":5142,"i-":5143,"▁sn":5144,"▁miếng":5145,"▁cult":5146,"▁sell":5147,"▁attention":5148,"▁chối":5149,"ape":5150,"▁avail":5151,"▁lược":5152,"▁forget":5153,"ing?":5154,"▁whatever":5155,"▁physical":5156,"▁bag":5157,"▁(Tiếng":5158,"▁tot":5159,"▁13":5160,"▁nhân.":5161,"▁Ngày":5162,"▁something.":5163,"▁ẩm":5164,"▁truy":5165,"▁react":5166,"▁perform":5167,"▁hương":5168,"▁field":5169,"▁jud":5170,"▁rắc":5171,"ches":5172,"▁đó?":5173,"▁Jam":5174,"▁năm.":5175,"ze":5176,"▁net":5177,"▁future":5178,"▁lit":5179,"▁qua.":5180,"ide,":5181,"irth":5182,"▁kids":5183,"▁tờ":5184,"▁hus":5185,"ilar":5186,"▁explain":5187,"▁vỡ":5188,"▁có.":5189,"▁niên":5190,"arth":5191,"ard.":5192,"▁people,":5193,"▁lower":5194,"▁ăn.":5195,"▁mụ":5196,"▁quá.":5197,"▁lớn.":5198,"▁wonder":5199,"▁coun":5200,"oul":5201,"ate,":5202,"▁takes":5203,"▁À,":5204,"u,":5205,"iot":5206,"▁ấn":5207,"▁tried":5208,"▁Most":5209,"▁choose":5210,"▁Avoid":5211,"▁rout":5212,"▁Sử":5213,"▁Per":5214,"▁following":5215,"▁ủng":5216,"▁mẽ":5217,"▁chặt":5218,"add":5219,"▁polic":5220,"▁no,":5221,"▁north":5222,"▁rul":5223,"▁favor":5224,"▁chuyện.":5225,"▁please":5226,"▁nhấn":5227,"▁giving":5228,"aul":5229,"ised":5230,"▁ngực":5231,"▁space":5232,"▁đến.":5233,"▁trầm":5234,"▁môn":5235,"▁Thôi":5236,"▁meas":5237,"▁Đã":5238,"▁economic":5239,"▁ball":5240,"ter,":5241,"▁Eu":5242,"agn":5243,"▁Uh,":5244,"▁secret":5245,"ault":5246,"port":5247,"▁safe":5248,"▁phẫu":5249,"▁fear":5250,"▁hẳn":5251,"▁lẫn":5252,"▁tomorrow":5253,"▁trà":5254,"▁Tên":5255,"▁stick":5256,"ended":5257,"▁condition":5258,"▁khuyên":5259,"▁off.":5260,"▁sometimes":5261,"▁good.":5262,"▁tầng":5263,"▁tá":5264,"▁Goog":5265,"ua":5266,"▁mult":5267,"▁dương":5268,"▁lên,":5269,"iece":5270,"▁ghét":5271,"▁tuyên":5272,"▁Mac":5273,"▁đi!":5274,"▁Of":5275,"▁energy":5276,"▁Đưa":5277,"▁thuê":5278,"▁Ấn":5279,"ieve":5280,"▁anymore":5281,"▁Geor":5282,"▁sao,":5283,"ary.":5284,"▁thật.":5285,"bor":5286,"▁né":5287,"aged":5288,"▁healthy":5289,"▁Ne":5290,"▁Mich":5291,"oph":5292,"▁mur":5293,"▁thao":5294,"▁giãn":5295,"▁cẩn":5296,"oud":5297,"by":5298,"erve":5299,"▁yet":5300,"▁itself":5301,"▁Ed":5302,"▁exist":5303,"▁phút.":5304,"▁determ":5305,"▁city":5306,"▁Năm":5307,"▁qual":5308,"▁Độ":5309,"▁needed":5310,"▁tới.":5311,"▁protein":5312,"load":5313,"▁mê":5314,"▁increase":5315,"▁Miss":5316,"▁Our":5317,"▁feed":5318,"▁him?":5319,"▁shoot":5320,"▁lễ":5321,"rap":5322,"▁Ngươi":5323,"▁cười)":5324,"▁Cố":5325,"ant.":5326,"▁building":5327,"▁us,":5328,"▁sau.":5329,"▁addition":5330,"▁material":5331,"ce.":5332,"er?":5333,"arr":5334,"▁running":5335,"▁effective":5336,"▁auth":5337,"▁ble":5338,"▁tay.":5339,"▁sat":5340,"ives":5341,"▁address":5342,"▁course,":5343,"▁hop":5344,"s...":5345,"▁fill":5346,"▁seems":5347,"▁market":5348,"▁chiếm":5349,"▁nâng":5350,"atch":5351,"▁chem":5352,"▁trouble":5353,"▁Hay":5354,"▁today":5355,"a?":5356,"ats":5357,"isc":5358,"▁jour":5359,"▁fact,":5360,"▁strength":5361,"▁cy":5362,"▁Add":5363,"id.":5364,"▁threat":5365,"▁gian.":5366,"▁thous":5367,"▁ngốc":5368,"▁husb":5369,"▁wear":5370,"ệt":5371,"▁thẩm":5372,"▁đào":5373,"▁vict":5374,"▁chào":5375,"▁Tập":5376,"▁iP":5377,"▁thí":5378,"▁sister":5379,"ume":5380,"▁ông,":5381,"▁concern":5382,"pris":5383,"▁aut":5384,"ows":5385,"▁simple":5386,"▁ơi,":5387,"▁military":5388,"▁ess":5389,"▁dig":5390,"▁din":5391,"▁rau":5392,"▁position":5393,"▁phiền":5394,"▁computer":5395,"▁Ồ,":5396,"etic":5397,"roll":5398,"▁canc":5399,"▁khích":5400,"▁Tu":5401,"▁khiển":5402,"ney":5403,"▁minutes.":5404,"▁approach":5405,"▁nợ":5406,"▁biện":5407,"▁hi":5408,"ely.":5409,"▁smell":5410,"▁bốn":5411,"▁recogn":5412,"▁\"Th":5413,"sych":5414,"▁sto":5415,"▁life,":5416,"▁bảng":5417,"▁em,":5418,"▁months":5419,"▁Jap":5420,"▁feelings":5421,"omer":5422,"▁treatment":5423,"▁thói":5424,"▁wife":5425,"iff":5426,"▁centur":5427,"▁baby":5428,"ted":5429,"▁lan":5430,"▁Sec":5431,"▁years,":5432,"▁pack":5433,"▁trad":5434,"▁Her":5435,"rog":5436,"ge.":5437,"ky":5438,"ậy,":5439,"▁draw":5440,"ization":5441,"▁197":5442,"▁luck":5443,"▁rid":5444,"▁Sar":5445,"ions,":5446,"am.":5447,"▁Đối":5448,"ief":5449,"òng.":5450,"though":5451,"▁Pres":5452,"▁ago.":5453,"▁company":5454,"▁trúc":5455,"acy":5456,"▁relax":5457,"▁data":5458,"▁kia.":5459,"▁khứ":5460,"▁cản":5461,"▁hã":5462,"▁fix":5463,"▁fish":5464,"▁giày":5465,"▁color":5466,"▁symptoms":5467,"▁immediat":5468,"▁cưới":5469,"▁đốt":5470,"▁birth":5471,"▁block":5472,"▁glob":5473,"▁đựng":5474,"▁đùa":5475,"▁chả":5476,"▁List":5477,"▁\"D":5478,"▁Does":5479,"▁Hoặc":5480,"éo":5481,"▁camp":5482,"ưởng.":5483,"▁Click":5484,"pos":5485,"▁questions":5486,"ett":5487,"▁goal":5488,"▁die":5489,"▁today.":5490,"▁danger":5491,"▁kẹ":5492,"▁Man":5493,"▁educ":5494,"▁true":5495,"lement":5496,"▁improve":5497,"ny":5498,"▁tán":5499,"▁nông":5500,"▁piece":5501,"▁Nhấp":5502,"▁himself":5503,"▁cỡ":5504,"resh":5505,"▁surv":5506,"▁Ma":5507,"▁tiếc":5508,"ìa":5509,"▁trồng":5510,"▁claim":5511,"▁skill":5512,"▁aff":5513,"▁things.":5514,"▁Nhà":5515,"▁Afric":5516,"▁tan":5517,"erman":5518,"▁cài":5519,"▁sus":5520,"rodu":5521,"bit":5522,"▁grand":5523,"▁vốn":5524,"era":5525,"izing":5526,"▁Ask":5527,"▁sốt":5528,"▁nut":5529,"▁sil":5530,"▁Cả":5531,"▁became":5532,"▁nhỏ.":5533,"▁Rep":5534,"▁đầu,":5535,"une":5536,"uộn":5537,"ption":5538,"▁therap":5539,"▁growth":5540,"▁third":5541,"▁Thứ":5542,"ode":5543,"▁thường,":5544,"▁phó":5545,"▁Window":5546,"coh":5547,"▁liệt":5548,"▁surf":5549,"▁khuyến":5550,"▁góp":5551,"▁above":5552,"▁temper":5553,"AN":5554,"▁bề":5555,"▁vải":5556,"▁Min":5557,"▁Đặt":5558,"▁sold":5559,"cing":5560,"▁track":5561,"▁repl":5562,"▁apart":5563,"cohol":5564,"▁offer":5565,"▁recomm":5566,"▁tạm":5567,"▁Bill":5568,"▁mãi":5569,"▁obs":5570,"▁giọng":5571,"▁moving":5572,"rict":5573,"▁door":5574,"▁Dav":5575,"▁ship":5576,"▁\"t":5577,"ument":5578,"▁Pháp":5579,"eal":5580,"▁bắc":5581,"▁săn":5582,"▁bả":5583,"▁mic":5584,"▁lính":5585,"▁tab":5586,"ulation":5587,"▁nhà,":5588,"▁help.":5589,"▁port":5590,"▁trave":5591,"▁fell":5592,"▁Mc":5593,"▁stri":5594,"▁sao.":5595,"form":5596,"▁khổ":5597,"▁Đến":5598,"▁worry":5599,"▁drive":5600,"▁turned":5601,"▁provide":5602,"▁đèn":5603,"▁giám":5604,"▁Gen":5605,"▁nước,":5606,"par":5607,"▁thầy":5608,"▁Xem":5609,"▁cú":5610,"▁gấp":5611,"▁ung":5612,"istic":5613,"▁anything.":5614,"▁crit":5615,"▁huyết":5616,"▁Kho":5617,"iam":5618,"▁bath":5619,"▁div":5620,"▁ghế":5621,"▁ổng":5622,"▁toàn.":5623,"▁available":5624,"kh":5625,"▁Sm":5626,"▁thích.":5627,"▁discuss":5628,"▁parents":5629,"▁looked":5630,"▁đĩa":5631,"▁express":5632,"▁craz":5633,"imate":5634,"▁carb":5635,"▁histor":5636,"cz":5637,"▁bal":5638,"▁ngoài.":5639,"▁tôi?":5640,"▁nhóc":5641,"▁Would":5642,"entle":5643,"▁Earth":5644,"▁esc":5645,"▁coff":5646,"▁aware":5647,"ster":5648,"rest":5649,"▁Lần":5650,"▁works":5651,"▁\"The":5652,"▁xoá":5653,"▁ngay.":5654,"▁quán":5655,"▁vào.":5656,"▁again,":5657,"▁nỗ":5658,"▁ach":5659,"▁Đôi":5660,"▁60":5661,"▁gone":5662,"▁there?":5663,"▁communic":5664,"ịt":5665,"▁vỏ":5666,"▁do?":5667,"ified":5668,"▁middle":5669,"irt":5670,"▁arg":5671,"▁collect":5672,"1,":5673,"dom":5674,"▁thiệu":5675,"▁móng":5676,"▁phiếu":5677,"▁psych":5678,"▁Ag":5679,"▁tap":5680,"▁grad":5681,"for":5682,"ually,":5683,"▁Bản":5684,"pper":5685,"ùi":5686,"▁kịch":5687,"▁item":5688,"▁notice":5689,"▁wash":5690,"▁countries":5691,"oub":5692,"▁pet":5693,"edd":5694,"▁Cap":5695,"▁ann":5696,"▁feet":5697,"▁béo":5698,"ppl":5699,"▁suất":5700,"▁playing":5701,"zz":5702,"▁cook":5703,"▁Many":5704,"ress.":5705,"▁Instead":5706,"day":5707,"▁đậu":5708,"▁sick":5709,"▁forward":5710,"▁deg":5711,"▁khuôn":5712,"▁Remember":5713,"▁paper":5714,"▁\"Ch":5715,"▁pressure":5716,"▁biên":5717,"▁down,":5718,"▁effort":5719,"▁Thử":5720,"▁Me":5721,"▁Par":5722,"▁her,":5723,"án.":5724,"▁ninh":5725,"▁hò":5726,"at,":5727,"▁nhàng":5728,"ướp":5729,"▁somebody":5730,"head":5731,"▁president":5732,"▁occur":5733,"▁Set":5734,"▁Trái":5735,"come":5736,"▁Tom":5737,"▁hosp":5738,"▁webs":5739,"▁Google":5740,"xy":5741,"▁late":5742,"▁tool":5743,"▁nguyện":5744,"▁lives":5745,"▁Russ":5746,"▁employ":5747,"▁hund":5748,"▁situation":5749,"▁straight":5750,"▁egg":5751,"astic":5752,"▁hundred":5753,"▁km":5754,"▁Gu":5755,"▁Face":5756,"▁thang":5757,"▁hor":5758,"▁neigh":5759,"▁alone":5760,"▁admin":5761,"▁discover":5762,"2,":5763,"▁tách":5764,"▁tha":5765,"▁rich":5766,"odes":5767,"▁more.":5768,"ude":5769,"▁tính.":5770,"▁binh":5771,"▁mà,":5772,"▁picture":5773,"▁táo":5774,"ina":5775,"▁Start":5776,"ording":5777,"▁study":5778,"▁hyd":5779,"▁sorry":5780,"▁ưu":5781,"icking":5782,"unt":5783,"ủi":5784,"▁bò":5785,"▁Wor":5786,"▁fru":5787,"▁helps":5788,"▁detail":5789,"▁uh,":5790,"▁(V":5791,"▁problems":5792,"gest":5793,"▁Think":5794,"▁xứng":5795,"▁dụng.":5796,"▁giấu":5797,"▁sếp":5798,"ely,":5799,".000":5800,"▁bank":5801,"ar,":5802,"ver.":5803,"▁exercis":5804,"NA":5805,"▁Cam":5806,"▁đằng":5807,"▁bird":5808,"▁mất.":5809,"▁Dr.":5810,"▁mắn":5811,"▁See":5812,"bert":5813,"▁Mon":5814,"▁huh?":5815,"▁words":5816,"▁in,":5817,"▁viol":5818,"olut":5819,"ist.":5820,"▁waiting":5821,"▁sóng":5822,"▁lương":5823,"▁ngàn":5824,"▁First":5825,"▁spread":5826,"▁thải":5827,"▁mại":5828,"▁tri":5829,"ớp":5830,"ination":5831,"rec":5832,"iment":5833,"▁mới,":5834,"▁cit":5835,"▁hảo":5836,"▁phiên":5837,"▁Ben":5838,"▁Tốt":5839,"hip,":5840,"▁possib":5841,"ôn.":5842,"▁ones":5843,"▁now?":5844,"ma":5845,"▁qua,":5846,"ograph":5847,"▁similar":5848,"▁orig":5849,"▁summ":5850,"▁cùng,":5851,"▁normal":5852,"▁khảo":5853,"ories":5854,"the":5855,"▁1,":5856,"▁ice":5857,"▁cỏ":5858,"▁cust":5859,"▁vill":5860,"▁vol":5861,"▁pu":5862,"▁before.":5863,"▁mouth":5864,"▁ke":5865,"▁ngựa":5866,"▁ups":5867,"▁ago,":5868,"▁aud":5869,"▁anx":5870,"▁remind":5871,"▁destro":5872,"fully":5873,"ED":5874,"▁mảnh":5875,"ition.":5876,"▁fund":5877,"▁Mart":5878,"▁nghề":5879,"▁hợp.":5880,"▁worked":5881,"▁Washing":5882,"ony":5883,"▁security":5884,"pen":5885,"il.":5886,"▁author":5887,"old":5888,"put":5889,"ue.":5890,"▁mix":5891,"▁tế.":5892,"▁hùng":5893,"▁hào":5894,"▁ngon":5895,"▁Ang":5896,"▁Hy":5897,"▁lock":5898,"▁compet":5899,"▁among":5900,"▁house.":5901,"▁President":5902,"▁Te":5903,"ama":5904,"▁better.":5905,"▁ác":5906,"▁đạn":5907,"▁hiển":5908,"ous,":5909,"▁town":5910,"▁hoảng":5911,"oof":5912,"▁scient":5913,"▁world,":5914,"▁respond":5915,"▁(Appl":5916,"▁bớt":5917,"empt":5918,"▁Part":5919,"▁work,":5920,"▁lần.":5921,"▁comfortable":5922,"▁who's":5923,"▁năm,":5924,"▁music":5925,"▁hải":5926,"▁alcohol":5927,"20":5928,"▁lọc":5929,"▁fly":5930,"▁North":5931,"▁định.":5932,"▁deb":5933,"here.":5934,"▁tin.":5935,"▁money.":5936,"▁tàn":5937,"▁kêu":5938,"oci":5939,"▁hình.":5940,"▁weeks":5941,"▁nắng":5942,"▁mì":5943,"▁cross":5944,"▁(Applause":5945,"',":5946,"ess.":5947,"▁Act":5948,"▁ju":5949,"▁party":5950,"▁nhiên.":5951,"▁areas":5952,"ij":5953,"▁chấm":5954,"iding":5955,"▁spot":5956,"▁đúng.":5957,"▁Sch":5958,"▁\"L":5959,"▁repres":5960,"▁tar":5961,"▁thảm":5962,"▁bông":5963,"▁cháy":5964,"▁log":5965,"▁bụng":5966,"ch,":5967,"▁chiếu":5968,"▁Consider":5969,"▁felt":5970,"▁giặt":5971,"9,":5972,"▁thước":5973,"▁\"c":5974,"▁sĩ.":5975,"▁ám":5976,"▁bẩn":5977,"ester":5978,"▁hội.":5979,"▁Mỹ.":5980,"▁require":5981,"▁Alex":5982,"▁easier":5983,"▁later":5984,"▁chai":5985,"▁Châu":5986,"▁seeing":5987,"▁extrem":5988,"▁robot":5989,"▁bacter":5990,"raft":5991,"itten":5992,"▁animal":5993,"▁ngang":5994,"▁rock":5995,"▁xuống.":5996,"▁loved":5997,"▁else.":5998,"aid":5999,"▁doct":6000,"▁happens":6001,"▁biệt.":6002,"▁sweet":6003,"▁gợi":6004,"▁dạ":6005,"ater":6006,"▁giới,":6007,"▁196":6008,"cul":6009,"wood":6010,"▁dao":6011,"▁fresh":6012,"▁depress":6013,"▁Facebook":6014,"2.":6015,"▁nấu":6016,"▁bơ":6017,"▁trống":6018,"ow,":6019,"▁police":6020,"▁behavior":6021,"\"?":6022,"▁tốn":6023,"▁throw":6024,"▁hồn":6025,"▁dọn":6026,"8,":6027,"▁task":6028,"▁disapp":6029,"▁tiên,":6030,"▁consum":6031,"▁foods":6032,"▁đập":6033,"▁push":6034,"▁eating":6035,"▁agre":6036,"▁(Applause)":6037,"ware":6038,"itions":6039,"olution":6040,"▁động,":6041,"ưỡi":6042,"▁onto":6043,"▁Wal":6044,"▁ord":6045,"▁prefer":6046,"▁quả.":6047,"les.":6048,"ration":6049,"vere":6050,"▁fair":6051,"▁phối":6052,"apt":6053,"▁network":6054,"▁pha":6055,"▁emerg":6056,"▁rồi!":6057,"▁tiềm":6058,"▁sót":6059,"▁be.":6060,"▁(c":6061,"▁carry":6062,"▁continue":6063,"▁husband":6064,"▁bow":6065,"▁quà":6066,"▁emb":6067,"▁built":6068,"▁lắm,":6069,"ụng":6070,"itut":6071,"▁Bình":6072,"▁Chà":6073,"▁\"b":6074,"▁strateg":6075,"▁ư":6076,"▁vers":6077,"▁one,":6078,"▁Paul":6079,"▁mis":6080,"rain":6081,"▁pregn":6082,"▁dead.":6083,"▁conversation":6084,"▁cong":6085,"▁Charl":6086,"▁Trên":6087,"▁tiêm":6088,"▁ngủ.":6089,"▁sợi":6090,"▁Wait":6091,"▁làm,":6092,"▁Ol":6093,"▁flu":6094,"▁quang":6095,"▁online":6096,"▁đón":6097,"▁họp":6098,"▁not.":6099,"▁higher":6100,"oll":6101,"▁ce":6102,"▁Kinh":6103,"▁defin":6104,"▁possible.":6105,"▁irr":6106,"▁Fin":6107,"▁ngừa":6108,"▁xâm":6109,"ườn":6110,"▁tốt,":6111,"▁imagine":6112,"▁đức":6113,"▁green":6114,"▁\"P":6115,"▁writing":6116,"ful.":6117,"k.":6118,"▁inj":6119,"▁Bất":6120,"am,":6121,"▁catch":6122,"▁sáu":6123,"▁gain":6124,"▁daughter":6125,"▁ow":6126,"it,":6127,"▁Hôm":6128,"▁amaz":6129,"▁days.":6130,"▁surpris":6131,"ness.":6132,"▁hoang":6133,"▁weap":6134,"▁đổi.":6135,"▁China's":6136,"▁body.":6137,"lin":6138,"▁chà":6139,"ball":6140,"▁bơi":6141,"▁fu":6142,"▁Thông":6143,"▁weak":6144,"▁\"O":6145,"▁hổ":6146,"▁Bu":6147,"▁Gl":6148,"▁indust":6149,"▁wound":6150,"▁dy":6151,"▁thứ.":6152,"▁back,":6153,"▁pred":6154,"▁tuần.":6155,"▁honest":6156,"ce,":6157,"ley":6158,"▁La":6159,"▁seven":6160,"▁meant":6161,"▁Ob":6162,"▁subject":6163,"▁further":6164,"▁murder":6165,"▁neck":6166,"▁see,":6167,"▁Japan":6168,"crib":6169,"hi":6170,"iber":6171,"▁thuyền":6172,"▁died":6173,"6,":6174,"▁manag":6175,"▁flow":6176,"▁changes":6177,"▁bếp":6178,"▁mọc":6179,"▁Kim":6180,"5,":6181,"▁Je":6182,"▁lừa":6183,"▁ver":6184,"▁Thái":6185,"▁1.":6186,"▁mặt.":6187,"▁thương.":6188,"g.":6189,"▁table":6190,"ent,":6191,"▁liều":6192,"▁King":6193,"▁ability":6194,"▁lưới":6195,"▁Câu":6196,"▁tay)":6197,"▁first.":6198,"▁room.":6199,"▁global":6200,"ring":6201,"▁Ca":6202,"▁Hầu":6203,"▁attract":6204,"▁đeo":6205,"ior":6206,"▁Mor":6207,"▁Vo":6208,"▁cô,":6209,"▁diet":6210,"▁lớn,":6211,"▁language":6212,"▁ter":6213,"▁inn":6214,"▁Thu":6215,"▁heat":6216,"▁about.":6217,"▁khóc":6218,"▁quảng":6219,"▁\"Y":6220,"▁friend.":6221,"▁veget":6222,"hood":6223,"▁da.":6224,"▁due":6225,"▁interested":6226,"iec":6227,"estern":6228,"▁ai.":6229,"▁\"Tôi":6230,"▁God,":6231,"▁virus":6232,"▁diseas":6233,"▁all,":6234,"▁sau,":6235,"iple":6236,"rupt":6237,"50":6238,"ke.":6239,"▁gỡ":6240,"▁tròn":6241,"▁Mà":6242,"▁Mal":6243,"aire":6244,"▁daily":6245,"▁sông":6246,"▁born":6247,"▁dày":6248,"▁dress":6249,"enty":6250,"▁con,":6251,"▁history":6252,"ber.":6253,"▁trấn":6254,"anian":6255,"▁Ban":6256,"ướt":6257,"▁other.":6258,"▁age":6259,"▁adm":6260,"▁decided":6261,"▁ten":6262,"▁chép":6263,"▁Sw":6264,"imin":6265,"▁Under":6266,"▁then,":6267,"c.":6268,"▁gentle":6269,"▁problem.":6270,"▁leaders":6271,"▁victim":6272,"ros":6273,"ishing":6274,"▁shut":6275,"ards":6276,"▁sống,":6277,"▁bận":6278,"ening":6279,"▁force":6280,"▁anymore.":6281,"▁0":6282,"▁xà":6283,"▁starting":6284,"▁keeping":6285,"SA":6286,"les,":6287,"▁heav":6288,"▁2,":6289,"▁nhé?":6290,"▁exercise":6291,"▁lặp":6292,"ivil":6293,"▁meeting":6294,"▁Windows":6295,"▁nướng":6296,"▁gà":6297,"▁Dan":6298,"akes":6299,"▁vĩ":6300,"ived":6301,"▁poor":6302,"▁chút.":6303,"ians":6304,"mi":6305,"▁stru":6306,"▁alone.":6307,"ake.":6308,"▁learned":6309,"xim":6310,"▁vac":6311,"▁rub":6312,"edu":6313,"▁Sim":6314,"▁go,":6315,"sure":6316,"▁phạt":6317,"▁eight":6318,"▁separ":6319,"▁easily":6320,"ledge":6321,"▁general":6322,"▁path":6323,"▁Check":6324,"ard,":6325,"▁bó":6326,"▁hà":6327,"▁pill":6328,"▁Cont":6329,"▁chemical":6330,"▁Sy":6331,"▁skin.":6332,"▁mụn":6333,"ason":6334,"▁Bắt":6335,"▁Vậy,":6336,"▁Internet":6337,"ray":6338,"▁dom":6339,"▁Đầu":6340,"▁capt":6341,"▁intell":6342,"▁prec":6343,"▁fold":6344,"▁indic":6345,"▁cướp":6346,"▁hate":6347,"▁tax":6348,"▁Open":6349,"▁công.":6350,"▁much.":6351,"▁Cuộc":6352,"▁realize":6353,"▁glass":6354,"▁towards":6355,"ge,":6356,"▁'s":6357,"▁ax":6358,"aly":6359,"▁Về":6360,"▁chúng,":6361,"▁resour":6362,"▁Mỹ,":6363,"▁Micha":6364,"rom":6365,"▁hone":6366,"▁face.":6367,"▁Im":6368,"id,":6369,"▁over.":6370,"▁year.":6371,"▁dám":6372,"▁Kiểm":6373,"▁Which":6374,"▁signific":6375,"▁laugh":6376,"▁World":6377,"ated.":6378,"ene":6379,"3,":6380,"bur":6381,"▁vững":6382,"▁upon":6383,"▁maintain":6384,"▁ong":6385,"▁nhân,":6386,"▁partn":6387,"▁\"Wh":6388,"5.":6389,"▁Since":6390,"▁family.":6391,"7,":6392,"▁...":6393,"▁sitting":6394,"▁Don":6395,"▁Ste":6396,"▁nhỏ,":6397,"▁breath":6398,"k,":6399,"sc":6400,"▁điệp":6401,"igg":6402,"▁attempt":6403,"▁colle":6404,"▁frequ":6405,"▁quickly":6406,"▁Euro":6407,"▁Hội":6408,"▁gold":6409,"cess.":6410,"▁message":6411,"▁tủ":6412,"▁hàm":6413,"▁mệt":6414,"▁dad":6415,"edom":6416,"▁harm":6417,"▁chừng":6418,"▁2.":6419,"▁bull":6420,"▁Phi":6421,"▁unc":6422,"▁person.":6423,"▁huấn":6424,"▁example":6425,"▁target":6426,"▁Mấy":6427,"▁trọng,":6428,"ẩn.":6429,"▁ic":6430,"▁walking":6431,"▁star":6432,"▁exam":6433,"▁man,":6434,"▁univers":6435,"▁yêu.":6436,"▁Giữ":6437,"▁hiện.":6438,"▁link":6439,"▁kèm":6440,"▁sod":6441,"▁việc,":6442,"▁setting":6443,"▁watching":6444,"▁leaving":6445,"▁gối":6446,"ant,":6447,"▁Nhớ":6448,"▁they'll":6449,"▁21":6450,"▁sorry,":6451,"▁tụi":6452,"▁refer":6453,"▁\"Đ":6454,"▁value":6455,"▁professional":6456,"-1":6457,"ires":6458,"▁nở":6459,"▁làng":6460,"▁so,":6461,"▁themselves":6462,"▁hư":6463,"▁hít":6464,"▁yell":6465,"▁fem":6466,"vert":6467,"▁did.":6468,"iness.":6469,"pir":6470,"▁pin":6471,"▁cao.":6472,"▁potential":6473,"▁destroy":6474,"▁ing":6475,"▁thiểu":6476,"▁hãi":6477,"▁dinh":6478,"▁Res":6479,"▁water,":6480,"▁growing":6481,"▁non-":6482,"▁environment":6483,"zcz":6484,"▁đài":6485,"▁doc":6486,"▁thấy.":6487,"▁putting":6488,"▁national":6489,"es?":6490,"▁Sor":6491,"▁conv":6492,"iển.":6493,"▁(v":6494,"▁spo":6495,"▁others.":6496,"▁mạnh.":6497,"fl":6498,"▁cột":6499,"▁thờ":6500,"atter":6501,"▁job.":6502,"ộp":6503,"▁Mở":6504,"▁lãng":6505,"▁90":6506,"▁bụi":6507,"▁cờ":6508,"▁size":6509,"▁gives":6510,"▁Mary":6511,"▁parts":6512,"ilipp":6513,"▁rác":6514,"▁túc":6515,"▁cưng":6516,"▁mad":6517,"arc":6518,"ift":6519,"▁ư?":6520,"rel":6521,"▁Bảo":6522,"▁trị.":6523,"▁194":6524,"▁calm":6525,"▁lò":6526,"▁host":6527,"bod":6528,"▁et":6529,"▁đống":6530,"arily":6531,"▁Those":6532,"▁Med":6533,"▁smart":6534,"▁kém":6535,"▁Tiếp":6536,"▁Thưa":6537,"▁everybody":6538,"▁From":6539,"sue":6540,"▁gương":6541,"▁ngọn":6542,"▁\"m":6543,"▁nhịp":6544,"ass.":6545,"ropri":6546,"▁products":6547,"lear":6548,"▁lão":6549,"▁basic":6550,"▁directly":6551,"▁administ":6552,"▁đảng":6553,"ow.":6554,"▁rev":6555,"▁model":6556,"▁núi":6557,"▁trữ":6558,"▁sugar":6559,"▁news":6560,"▁drinking":6561,"▁80":6562,"ging":6563,"▁chán":6564,"▁nhầm":6565,"ary,":6566,"▁Philipp":6567,"aus":6568,"ầm.":6569,"▁ức":6570,"▁cry":6571,"▁tiền.":6572,"▁interact":6573,"▁sett":6574,"▁join":6575,"▁throughout":6576,"▁girls":6577,"▁caused":6578,"mina":6579,"aff":6580,"▁thìa":6581,"▁marri":6582,"D.":6583,"▁Stat":6584,"light":6585,"rate":6586,"ãng":6587,"▁tast":6588,"▁bắp":6589,"▁gió":6590,"▁struct":6591,"▁want.":6592,"eaking":6593,"▁began":6594,"▁ảo":6595,"eter":6596,"ations,":6597,"▁install":6598,"▁enter":6599,"▁kín":6600,"▁Europe":6601,"▁cặp":6602,"ensive":6603,"▁night,":6604,"▁week.":6605,"▁ạ.":6606,"eb":6607,"▁.":6608,"▁'t":6609,"▁cục":6610,"▁khung":6611,"▁wearing":6612,"▁Nhân":6613,"▁đốc":6614,"▁1/":6615,"▁tuý":6616,"▁enem":6617,"▁blue":6618,"▁date":6619,"▁stom":6620,"acking":6621,"▁đề.":6622,"▁decis":6623,"▁earth":6624,"▁điệu":6625,"▁Ir":6626,"▁rừng":6627,"▁me!":6628,"▁created":6629,"▁phỏng":6630,"SE":6631,"▁truth":6632,"▁it!":6633,"▁Ra":6634,"▁thì,":6635,"▁obvious":6636,"▁experienc":6637,"▁purch":6638,"▁international":6639,"▁quiet":6640,"▁xe.":6641,"▁Lond":6642,"▁phải.":6643,"▁thoughts":6644,"▁meaning":6645,"▁gra":6646,"▁dặ":6647,"▁dường":6648,"▁Liệu":6649,"▁'c":6650,"▁types":6651,"iệm.":6652,"ượng.":6653,"▁Jan":6654,"▁places":6655,"▁represent":6656,"▁mộ":6657,"ite.":6658,"▁nghĩ,":6659,"▁spent":6660,"▁à.":6661,"▁film":6662,"▁Âu":6663,"▁kiss":6664,"▁wif":6665,"▁Cuối":6666,"▁Ac":6667,"▁releas":6668,"▁sudd":6669,"▁Rom":6670,"▁Quốc,":6671,"▁accom":6672,"▁Only":6673,"▁Two":6674,"▁đương":6675,"▁to,":6676,"▁Please":6677,"ability":6678,"▁chúa":6679,"▁sánh":6680,"▁dán":6681,"▁Sir":6682,"▁DNA":6683,"▁are,":6684,"▁Right":6685,"▁chết,":6686,"▁moist":6687,"▁vua":6688,"▁cred":6689,"▁Ser":6690,"▁interesting":6691,"▁evidence":6692,"▁cãi":6693,"▁band":6694,"aling":6695,"▁repe":6696,"able,":6697,"▁powerful":6698,"▁dịu":6699,"▁official":6700,"▁favorite":6701,"yond":6702,"▁bãi":6703,"▁lỏng":6704,"▁done.":6705,"▁farm":6706,"ceed":6707,"▁spir":6708,"▁lý.":6709,"▁finally":6710,"▁complex":6711,"▁handle":6712,"▁car.":6713,"▁irrit":6714,"▁đỉnh":6715,"▁kept":6716,"▁Bằng":6717,"ipe":6718,"▁tuổi,":6719,"do":6720,"▁Bo":6721,"▁Gmina":6722,"ivodes":6723,"▁shows":6724,"▁name.":6725,"▁home,":6726,"▁Voivodes":6727,"▁giành":6728,"▁Pomer":6729,"aging":6730,"▁anyw":6731,"▁acid":6732,"▁trường.":6733,"▁accident":6734,"▁round":6735,"▁Could":6736,"▁apprec":6737,"▁mẹ.":6738,"eat":6739,"asc":6740,"▁Dep":6741,"▁chủng":6742,"▁except":6743,"▁friends.":6744,"▁foreign":6745,"rible":6746,"▁doing?":6747,"▁signs":6748,"▁ngài.":6749,"▁pattern":6750,"▁solution":6751,"▁Count":6752,"▁Đảm":6753,"▁can.":6754,"▁jump":6755,"est.":6756,"▁know?":6757,"▁Jim":6758,"▁feels":6759,"▁Ôi,":6760,"▁changed":6761,"▁ơn,":6762,"▁bờ":6763,"▁hôi":6764,"▁lad":6765,"▁lục":6766,"▁ki":6767,"ness,":6768,"'em":6769,"ged":6770,"▁caught":6771,"▁thr":6772,"▁trick":6773,"▁Mark":6774,"▁quyển":6775,"▁đường.":6776,"▁impact":6777,"▁vời.":6778,"lock":6779,"▁Tin":6780,"▁ngơi":6781,"▁Hel":6782,"▁\"G":6783,"▁\"K":6784,"▁thiết.":6785,"▁visit":6786,"▁$1":6787,"▁stup":6788,"▁button":6789,"▁bé.":6790,"▁capital":6791,"▁continu":6792,"mi)":6793,"▁stomach":6794,"▁sam":6795,"▁piec":6796,"▁về.":6797,"▁willing":6798,"▁à,":6799,"▁yourself,":6800,"▁financ":6801,"▁depend":6802,"▁trộm":6803,"▁gift":6804,"▁engine":6805,"▁encour":6806,"▁bát":6807,"▁Cơ":6808,"▁Chào":6809,"▁Ros":6810,"▁blow":6811,"▁slight":6812,"▁Voivodeship,":6813,"▁Pomeranian":6814,"▁doub":6815,"▁seed":6816,"▁gian,":6817,"aving":6818,"▁Giáo":6819,"▁holding":6820,"▁hè":6821,"▁init":6822,"▁Mặt":6823,"▁\"s":6824,"▁Rec":6825,"▁ý.":6826,"▁practice":6827,"▁opportunity":6828,"▁Cộng":6829,"▁Lord":6830,"▁decide":6831,"▁learning":6832,"▁morning.":6833,"▁tur":6834,"▁tặng":6835,"▁nail":6836,"▁ngũ":6837,"▁Bob":6838,"ope":6839,"▁kỉ":6840,"▁TED":6841,"▁die.":6842,"▁introdu":6843,"▁500":6844,"▁trộn":6845,"word":6846,"ino":6847,"▁trip":6848,"ened":6849,"▁Tự":6850,"▁có,":6851,"▁cám":6852,"▁morning":6853,"fact":6854,"▁hỏng":6855,"▁kiên":6856,"▁tor":6857,"▁Wr":6858,"ablish":6859,"▁Nga":6860,"▁command":6861,"▁đẹp.":6862,"▁please.":6863,"bing":6864,"▁tung":6865,"▁hiệp":6866,"▁you!":6867,"▁San":6868,"eah.":6869,"▁tuổi.":6870,"▁hồng":6871,"ays":6872,"il,":6873,"▁cần.":6874,"▁peace":6875,"▁'T":6876,"▁minute":6877,"ribut":6878,"lt":6879,"▁bọ":6880,"inary":6881,"▁Talk":6882,"▁incred":6883,"▁associ":6884,"exic":6885,"▁thiệp":6886,"▁bám":6887,"▁dro":6888,"▁Ant":6889,"▁prim":6890,"▁around.":6891,"▁particularly":6892,"▁cất":6893,"▁bồn":6894,"▁trích":6895,"▁however,":6896,"▁screen":6897,"▁perhaps":6898,"▁recent":6899,"▁freedom":6900,"▁Chủ":6901,"ocr":6902,"▁cùng.":6903,"▁sáng.":6904,"▁tướng":6905,"▁civil":6906,"▁mention":6907,"▁yog":6908,"▁cả,":6909,"▁Kết":6910,"ist,":6911,"ples":6912,"▁lots":6913,"▁head.":6914,"ological":6915,"▁popular":6916,"▁Loại":6917,"▁significant":6918,"▁tay,":6919,"▁kĩ":6920,"▁xinh":6921,"izz":6922,"▁sinh.":6923,"▁roll":6924,"▁mỡ":6925,"▁wood":6926,"▁active":6927,"▁Giống":6928,"▁ideas":6929,"ique":6930,"▁gre":6931,"▁fine":6932,"▁beyond":6933,"▁unless":6934,"just":6935,"▁tươi":6936,"ica":6937,"▁correct":6938,"▁master":6939,"▁Chu":6940,"▁held":6941,"▁office":6942,"▁technology":6943,"▁private":6944,"▁gỗ":6945,"▁Cent":6946,"▁Mexic":6947,"▁sty":6948,"▁Rich":6949,"▁Hen":6950,"▁for.":6951,"▁lie":6952,"▁(M":6953,"▁year,":6954,"▁đất.":6955,"▁mind.":6956,"hold":6957,"▁mood":6958,"▁Tối":6959,"▁ta?":6960,"▁ago":6961,"▁necessary":6962,"ẫy":6963,"▁tick":6964,"▁chậu":6965,"▁dáng":6966,"▁oxy":6967,"▁Cr":6968,"▁letter":6969,"▁Before":6970,"▁function":6971,"▁cells":6972,"▁ign":6973,"▁spee":6974,"▁pros":6975,"▁own.":6976,"▁member":6977,"▁loạt":6978,"▁writ":6979,"▁Hoàng":6980,"▁opin":6981,"▁đời.":6982,"4,":6983,"▁mồ":6984,"▁lồ":6985,"▁Ty":6986,"▁Cong":6987,"▁Lấy":6988,"▁tóc.":6989,"▁subst":6990,"▁billion":6991,"▁loss":6992,"▁adult":6993,"▁arr":6994,"▁wrong.":6995,"▁travel":6996,"▁neighbor":6997,"ạng.":6998,"▁pan":6999,"▁fit":7000,"▁ran":7001,"▁theo.":7002,"▁Brit":7003,"▁speed":7004,"▁myself.":7005,"▁warn":7006,"▁Sl":7007,"▁nói:":7008,"▁ai?":7009,"▁levels":7010,"▁liter":7011,"lict":7012,"▁Đất":7013,"▁calling":7014,"▁trẻ.":7015,"▁standing":7016,"aur":7017,"▁sàn":7018,"▁chải":7019,"lebr":7020,"ains":7021,"▁what?":7022,"▁Quan":7023,"▁dài.":7024,"rench":7025,"▁influ":7026,"ọn.":7027,"▁tree":7028,"▁bội":7029,"▁nhẫn":7030,"▁gia.":7031,"▁Mat":7032,"▁Phần":7033,"▁vị.":7034,"▁say.":7035,"▁Thậm":7036,"▁shap":7037,"▁issues":7038,"▁journ":7039,"rad":7040,"▁thấy,":7041,"▁students":7042,"▁English":7043,"ks":7044,"ves,":7045,"▁chick":7046,"▁Carl":7047,"▁Nob":7048,"ain.":7049,"▁cởi":7050,"▁mỏi":7051,"▁rủi":7052,"▁Thêm":7053,"ace,":7054,"▁Lau":7055,"▁\"E":7056,"▁god":7057,"rief":7058,"▁somewhere":7059,"▁cậu,":7060,"▁role":7061,"▁drag":7062,"▁xoay":7063,"▁strugg":7064,"▁sudden":7065,"▁mãn":7066,"▁gas":7067,"▁east":7068,"▁Luc":7069,"▁valu":7070,"▁batt":7071,"sequ":7072,"▁sounds":7073,"▁nã":7074,"▁sand":7075,"▁Nước":7076,"ooper":7077,"▁beginning":7078,"itz":7079,"▁Thì":7080,"▁nghiện":7081,"ulate":7082,"▁gar":7083,"ana":7084,"▁Turn":7085,"ility.":7086,"▁us?":7087,"▁dire":7088,"▁195":7089,"▁causes":7090,"▁Ả":7091,"▁den":7092,"▁nhạy":7093,"▁Biết":7094,"▁cand":7095,"▁(b":7096,"▁her?":7097,"▁ensure":7098,"▁thoa":7099,"▁training":7100,"▁mor":7101,"▁scre":7102,"▁ném":7103,"▁base":7104,"▁and,":7105,"▁Quốc.":7106,"bs":7107,"▁Ổ":7108,"reg":7109,"▁beat":7110,"▁character":7111,"ise,":7112,"ors.":7113,"▁phòng.":7114,"▁Chiến":7115,"▁nhiều,":7116,"▁ăn,":7117,"▁appropri":7118,"▁damn":7119,"▁tonight.":7120,"▁iPh":7121,"▁đớ":7122,"▁khái":7123,"▁Cám":7124,"▁quỷ":7125,"▁War":7126,"▁Know":7127,"▁thuế":7128,"▁decision":7129,"▁(Vỗ":7130,"ground":7131,"▁âu":7132,"ise.":7133,"▁sự.":7134,"▁image":7135,"▁difference":7136,"▁complete":7137,"▁gard":7138,"ald":7139,"▁đói":7140,"▁German":7141,"▁scared":7142,"▁hair.":7143,"▁detect":7144,"▁option":7145,"▁members":7146,"▁designed":7147,"▁Sometimes":7148,"man.":7149,"▁mental":7150,"▁chìa":7151,"▁phấn":7152,"▁nghèo":7153,"▁Pleas":7154,"▁Other":7155,"▁guy.":7156,"▁Univers":7157,"▁school.":7158,"▁thùng":7159,"▁Acc":7160,"icle":7161,"▁hợp,":7162,"itted":7163,"▁hàng.":7164,"▁becomes":7165,"▁soap":7166,"▁finding":7167,"▁Xác":7168,"▁tiên.":7169,"▁system.":7170,"▁today,":7171,"▁treo":7172,"▁temperature":7173,"▁*":7174,"▁thợ":7175,"▁hạng":7176,"▁lát":7177,"▁root":7178,"▁sát.":7179,"▁damage":7180,"▁recommend":7181,"7.":7182,"▁nấm":7183,"▁aver":7184,"▁Jes":7185,"▁thoảng":7186,"▁thuốc.":7187,"▁miền":7188,"▁Place":7189,"▁responsib":7190,"▁earl":7191,"▁Mom":7192,"▁Kore":7193,"iểm.":7194,"▁displ":7195,"▁tính,":7196,"▁Canad":7197,"▁clothes":7198,"▁counter":7199,"eel":7200,"▁Hiện":7201,"▁area.":7202,"▁remo":7203,"▁conflict":7204,"▁then.":7205,"▁Lan":7206,"▁lực.":7207,"▁belong":7208,"nch":7209,"ộn":7210,"▁Cảnh":7211,"▁Dec":7212,"roid":7213,"▁arch":7214,"▁huge":7215,"▁chín":7216,"▁deliver":7217,"▁leaves":7218,"▁thăng":7219,"▁hối":7220,"▁mực":7221,"▁khốn":7222,"alm":7223,"▁quỹ":7224,"▁Washington":7225,"▁san":7226,"alent":7227,"▁rap":7228,"▁final":7229,"▁terms":7230,"▁involved":7231,"▁tịch":7232,"▁mỏ":7233,"▁Lưu":7234,"▁he'll":7235,"▁thật,":7236,"▁cầu.":7237,"▁corner":7238,"▁pupp":7239,"6.":7240,"ities.":7241,"▁ep":7242,"▁hai,":7243,"▁cream":7244,"▁đâm":7245,"▁hiểm.":7246,"▁led":7247,"▁lack":7248,"▁kil":7249,"▁wake":7250,"▁khổng":7251,"ising":7252,"▁But,":7253,"▁xem.":7254,"▁tâm.":7255,"▁surround":7256,"▁together,":7257,"▁later.":7258,"▁married":7259,"▁determine":7260,"▁club":7261,"▁princ":7262,"▁hours.":7263,"▁Select":7264,"▁establish":7265,"8.":7266,"9.":7267,"bol":7268,"tt":7269,"▁with.":7270,"▁fine.":7271,"▁produce":7272,"▁cm":7273,"▁kiệm":7274,"▁yet.":7275,"▁reve":7276,"▁Del":7277,"▁biệt,":7278,"▁source":7279,"'m":7280,"co":7281,"ious.":7282,"▁tóm":7283,"▁Kể":7284,"▁\"V":7285,"▁đây!":7286,"▁anybody":7287,"▁helping":7288,"▁300":7289,"▁cris":7290,"▁70":7291,"▁complic":7292,"▁choice":7293,"▁East":7294,"▁altern":7295,"▁lỗi.":7296,"ki":7297,"▁tô":7298,"▁tôi!":7299,"▁xịt":7300,"▁clot":7301,"▁prison":7302,"▁killing":7303,"▁idea.":7304,"ology":7305,"▁girl.":7306,"▁allowed":7307,"▁community":7308,"▁hospital":7309,"▁Hu":7310,"▁island":7311,"oster":7312,"▁Park":7313,"▁moved":7314,"▁story.":7315,"▁measure":7316,"▁king":7317,"▁not,":7318,"▁Ass":7319,"▁effects":7320,"ier.":7321,"▁anc":7322,"▁switch":7323,"▁emotional":7324,"▁custom":7325,"3.":7326,"ges":7327,"▁lẻ":7328,"▁vườn":7329,"▁fault":7330,"ed?":7331,"▁Fo":7332,"▁thân,":7333,"▁turns":7334,"▁cu":7335,"▁nuc":7336,"ato":7337,"ites":7338,"▁II":7339,"▁Hơn":7340,"▁cao,":7341,"▁relig":7342,"▁Although":7343,"▁Mrs.":7344,"▁court":7345,"▁total":7346,"▁ố":7347,"▁side.":7348,"ren.":7349,"▁Thời":7350,"▁speaking":7351,"▁everything.":7352,"▁glad":7353,"▁future.":7354,"▁Apply":7355,"▁Here's":7356,"▁companies":7357,"pose":7358,"▁mệnh":7359,"arian":7360,"▁invent":7361,"▁Bên":7362,"elcome":7363,"▁anh?":7364,"▁immediately":7365,"▁celebr":7366,"cious":7367,"ius":7368,"let":7369,"▁canh":7370,"▁nhãn":7371,"▁tại.":7372,"▁good,":7373,"▁reading":7374,"▁đêm.":7375,"▁thousands":7376,"▁coffee":7377,"sing":7378,"ades":7379,"iforn":7380,"▁hero":7381,"▁cai":7382,"epend":7383,"▁Phương":7384,"▁yêu,":7385,"▁talked":7386,"▁named":7387,"▁citiz":7388,"▁Never":7389,"▁Hình":7390,"▁ham":7391,"▁saved":7392,"ain,":7393,"▁about?":7394,"▁tuân":7395,"▁Ă":7396,"▁till":7397,"▁sứ":7398,"▁khát":7399,"ish,":7400,"▁Lear":7401,"▁shown":7402,"▁they've":7403,"roud":7404,"▁rights":7405,"▁science":7406,"ossible":7407,"▁reflect":7408,"▁oppos":7409,"▁achieve":7410,"▁Pre":7411,"▁Rob":7412,"eph":7413,"▁road":7414,"▁Claire":7415,"▁salt":7416,"▁thề":7417,"▁hiến":7418,"▁lặng":7419,"▁wind":7420,"▁Tình":7421,"▁fed":7422,"▁so.":7423,"▁Trông":7424,"▁tin,":7425,"▁case,":7426,"▁boyfriend":7427,"▁service":7428,"▁investig":7429,"▁Angel":7430,"▁tảng":7431,"▁sạn":7432,"inse":7433,"▁gián":7434,"erson":7435,"ful,":7436,"cribe":7437,"mon":7438,"▁sôi":7439,"▁lây":7440,"iếc":7441,"▁Học":7442,"▁Det":7443,"▁mày.":7444,"▁đến,":7445,"▁Off":7446,"▁thinks":7447,"▁tea":7448,"▁musc":7449,"▁prior":7450,"▁sắt":7451,"▁kịp":7452,"▁chair":7453,"▁have.":7454,"▁Rach":7455,"▁enough.":7456,"▁George":7457,"▁vegetab":7458,"BI":7459,"rated":7460,"▁bối":7461,"▁gói":7462,"▁duyệt":7463,"▁too,":7464,"▁phổi":7465,"▁xơ":7466,"▁OK,":7467,"SEAN":7468,"▁tạ":7469,"▁sơn":7470,"▁trễ":7471,"▁More":7472,"▁\"h":7473,"▁nobody":7474,"▁cực.":7475,"back":7476,"gin":7477,"▁bể":7478,"▁gọn":7479,"▁tam":7480,"▁House":7481,"▁hoại":7482,"▁Viết":7483,"roc":7484,"▁changing":7485,"▁love.":7486,"▁ruột":7487,"▁tough":7488,"▁cott":7489,"▁har":7490,"▁\"n":7491,"▁arrest":7492,"▁crim":7493,"▁mắt.":7494,"▁baby.":7495,"ID":7496,"▁exh":7497,"▁Black":7498,"▁Captain":7499,"cribed":7500,"1.":7501,"▁đệ":7502,"▁paid":7503,"cell":7504,"▁Hold":7505,"▁Choose":7506,"▁Californ":7507,"▁tradition":7508,"▁pound":7509,"ara":7510,"iling":7511,"duct":7512,"▁hand,":7513,"▁hand.":7514,"▁James":7515,"miss":7516,"▁chấn":7517,"onst":7518,"▁faster":7519,"▁Thuốc":7520,"▁release":7521,"▁cự":7522,"▁mè":7523,"▁proud":7524,"ory.":7525,"▁que":7526,"▁Mike":7527,"ose.":7528,"▁Red":7529,"▁assist":7530,"ùm":7531,"▁nerv":7532,"▁hằng":7533,"▁pun":7534,"▁Cổ":7535,"▁Hell":7536,"▁diagn":7537,"▁agg":7538,"▁like.":7539,"▁son.":7540,"▁hầm":7541,"▁pair":7542,"▁nhắm":7543,"used":7544,"▁xạ":7545,"▁tired":7546,"▁sau:":7547,"col":7548,"▁thượng":7549,"▁lôi":7550,"▁lung":7551,"▁dứt":7552,"▁page":7553,"▁khớp":7554,"lly":7555,"▁Pat":7556,"▁Jul":7557,"▁plastic":7558,"▁kinds":7559,"▁breast":7560,"▁Franc":7561,"-x":7562,"30":7563,"4.":7564,"▁tit":7565,"▁Tod":7566,"▁Jos":7567,"▁contract":7568,"ruction":7569,"▁below":7570,"▁numbers":7571,"ilities":7572,"▁Instead,":7573,"ủa":7574,"▁CA":7575,"▁3.":7576,"▁hội,":7577,"▁okay.":7578,"▁truly":7579,"▁intellig":7580,"ẳng.":7581,"▁móc":7582,"▁wild":7583,"▁trade":7584,"▁Cor":7585,"▁Bet":7586,"▁worried":7587,"▁amazing":7588,"bum":7589,"▁thèm":7590,"▁đạp":7591,"▁sen":7592,"▁inse":7593,"▁Szcz":7594,"▁lived":7595,"▁thành.":7596,"▁camera":7597,"▁machine":7598,"▁Ăn":7599,"ien":7600,"▁Thành":7601,"▁shop":7602,"▁crush":7603,"▁father.":7604,"▁activity":7605,"▁suspect":7606,"▁ôm":7607,"▁tight":7608,"▁hiếm":7609,"▁Thằng":7610,"▁xả":7611,"▁(2":7612,"ress,":7613,"▁recover":7614,"▁promise":7615,"▁vinh":7616,"ecut":7617,"iving":7618,"▁solut":7619,"▁larger":7620,"▁kìa.":7621,"▁antib":7622,"ụt":7623,"▁cắp":7624,"▁mạo":7625,"▁firm":7626,"icient":7627,"▁habit":7628,"▁stock":7629,"▁times.":7630,"▁sport":7631,"▁here!":7632,"▁smile":7633,"▁cổng":7634,"▁country.":7635,"▁Oliver":7636,"▁Szczec":7637,"go":7638,"ưa.":7639,"▁thắt":7640,"▁fab":7641,"▁tối.":7642,"▁confident":7643,"▁development":7644,"!\"":7645,"A.":7646,"like":7647,"▁tank":7648,"▁cạo":7649,"▁sỹ":7650,"inct":7651,"atory":7652,"▁là:":7653,"▁được?":7654,"▁minim":7655,"▁causing":7656,"▁essential":7657,"▁tiss":7658,"▁sưng":7659,"▁mount":7660,"ching":7661,"▁whose":7662,"▁weird":7663,"▁Di":7664,"▁tiếng.":7665,"▁later,":7666,"ved.":7667,"▁rate":7668,"▁Mo":7669,"▁\"F":7670,"▁impress":7671,"redient":7672,"▁distract":7673,"▁sexual":7674,"▁chìm":7675,"▁trut":7676,"▁issue":7677,"▁bỏng":7678,"▁related":7679,"▁wrote":7680,"▁nữa?":7681,"▁consist":7682,"▁increasing":7683,"▁prepared":7684,"ess,":7685,"▁Chờ":7686,"▁nghe.":7687,"▁seek":7688,"▁instruct":7689,"▁typically":7690,"▁autom":7691,"▁recognize":7692,"▁David":7693,"▁bọc":7694,"▁mid":7695,"ately,":7696,"▁trial":7697,"▁ASEAN":7698,"▁Mad":7699,"▁cảm.":7700,"▁Que":7701,"▁applic":7702,"▁45":7703,"▁trời.":7704,"▁activities":7705,"▁organiz":7706,"▁items":7707,"▁ingredient":7708,"ught":7709,"▁dọc":7710,"▁liqu":7711,"urch":7712,"▁Stay":7713,"▁scal":7714,"anced":7715,"▁center":7716,"▁street":7717,"▁dangerous":7718,"▁bra":7719,"▁côn":7720,"▁district":7721,"▁certainly":7722,"▁voice":7723,"▁motiv":7724,"▁village":7725,"▁trần":7726,"▁ele":7727,"oop":7728,"aph":7729,"▁impossible":7730,"▁media":7731,"▁password":7732,"▁lai.":7733,"▁animals":7734,"▁Luôn":7735,"▁bowl":7736,"ees":7737,"ýt":7738,"▁van":7739,"▁gội":7740,"▁tooth":7741,"ke,":7742,"▁Đảng":7743,"▁Nhấn":7744,"▁serve":7745,"▁instance,":7746,"▁according":7747,"▁fighting":7748,"▁óc":7749,"▁cast":7750,"▁bor":7751,"▁Dương":7752,"▁phím":7753,"▁attent":7754,"▁bomb":7755,"iest":7756,"ậc":7757,"▁chẩn":7758,"▁concept":7759,"▁note":7760,"▁excess":7761,"umm":7762,"earch":7763,"▁strang":7764,"▁sorry.":7765,"▁breathing":7766,"▁website":7767,"▁cow":7768,"▁nôn":7769,"ero":7770,"▁Bur":7771,"▁Lou":7772,"thing,":7773,"▁(s":7774,"▁worst":7775,"▁written":7776,"▁Ann":7777,"▁máu.":7778,"▁modern":7779,"▁quality":7780,"▁micro":7781,"▁cấm":7782,"▁khiếp":7783,"▁toả":7784,"ot.":7785,"ượn":7786,"▁phải,":7787,"▁muốn,":7788,"▁leo":7789,"▁Ju":7790,"▁spl":7791,"▁them?":7792,"▁think,":7793,"▁thing,":7794,"▁tells":7795,"▁mixt":7796,"▁Enter":7797,"ợt":7798,"▁taught":7799,"ids":7800,"▁Win":7801,"▁sự,":7802,"▁'C":7803,"▁download":7804,"▁đình.":7805,"board":7806,"Ít":7807,"▁thick":7808,"itely":7809,"▁fool":7810,"arter":7811,"▁Số":7812,"▁điển":7813,"amb":7814,"▁Vấn":7815,"▁Got":7816,"▁Uống":7817,"▁developed":7818,"▁fully":7819,"ronic":7820,"▁limit":7821,"▁soul":7822,"▁Aust":7823,"▁happening":7824,"▁pain.":7825,"▁student":7826,"▁nhé,":7827,"▁societ":7828,"▁er":7829,"▁tật":7830,"▁khen":7831,"▁\"th":7832,"▁one's":7833,"▁tới,":7834,"▁brush":7835,"▁chứ,":7836,"▁Quá":7837,"▁Joe":7838,"▁dollar":7839,"▁doctor.":7840,"ẫn.":7841,"▁bù":7842,"▁cóc":7843,"▁Da":7844,"▁(G":7845,"iger":7846,"▁butt":7847,"▁plenty":7848,"▁arri":7849,"▁considered":7850,"▁lộn":7851,"▁stories":7852,"▁miles":7853,"▁Tuỳ":7854,"▁\"You":7855,"ez":7856,"▁south":7857,"▁horm":7858,"▁mười":7859,"▁park":7860,"omen":7861,"▁he'd":7862,"selves.":7863,"▁Another":7864,"val":7865,"▁Ít":7866,"▁thỏ":7867,"▁bia":7868,"▁rồ":7869,"▁giam":7870,"▁Mos":7871,"▁Chưa":7872,"▁FBI":7873,"▁things,":7874,"▁starts":7875,"▁chân.":7876,"ẫm":7877,"▁thánh":7878,"▁chanh":7879,"itude":7880,"▁rat":7881,"▁Des":7882,"▁alive.":7883,"▁viên.":7884,"▁girlfriend":7885,"▁responsible":7886,"▁policy":7887,"▁tens":7888,"▁cốt":7889,"▁thổ":7890,"▁bá":7891,"▁trưng":7892,"▁tuyển":7893,"▁progress":7894,"▁surface":7895,"-c":7896,"▁cắm":7897,"▁Ber":7898,"▁Hồi":7899,"▁reward":7900,"▁đó!":7901,"▁như,":7902,"ils":7903,"▁khoảnh":7904,"▁muscle":7905,"▁natur":7906,"không":7907,"lus":7908,"ẩm.":7909,"▁tháo":7910,"▁thiệt":7911,"▁dò":7912,"▁rẻ":7913,"▁Max":7914,"os.":7915,"▁Over":7916,"▁allerg":7917,"▁appoint":7918,"▁visual":7919,"▁particip":7920,"▁multiple":7921,"▁nur":7922,"▁trượt":7923,"▁likes":7924,"▁price":7925,"▁chuỗi":7926,"▁lawy":7927,"▁variety":7928,"▁financial":7929,"idge":7930,"▁lies":7931,"▁disord":7932,"▁action":7933,"▁trị,":7934,"▁boys":7935,"▁bigger":7936,"▁đuôi":7937,"ham":7938,"▁kick":7939,"▁daught":7940,"ased":7941,"▁earn":7942,"▁Bỏ":7943,"▁stuck":7944,"▁knowledge":7945,"▁blind":7946,"▁said.":7947,"▁dinner":7948,"▁cab":7949,"▁cắn":7950,"▁trưa":7951,"▁Thường":7952,"▁Sher":7953,"aint":7954,"▁twice":7955,"▁Apple":7956,"▁fruit":7957,"ned":7958,"uk":7959,"ue,":7960,"úa":7961,"ano":7962,"▁phái":7963,"▁National":7964,"▁appl":7965,"ancy":7966,"▁nghiệp.":7967,"▁totally":7968,"▁Please,":7969,"▁thro":7970,"▁mob":7971,"▁vân":7972,"▁chọn.":7973,"onn":7974,"▁khẳng":7975,"▁trào":7976,"▁Then,":7977,"▁French":7978,"▁interview":7979,"▁phố.":7980,"▁legal":7981,"▁Listen,":7982,"▁math":7983,"▁soil":7984,"▁bà.":7985,"▁greater":7986,"▁constant":7987,"▁bleed":7988,"▁Michael":7989,"▁trú":7990,"ices.":7991,"▁Mic":7992,"▁crack":7993,"▁change.":7994,"▁kẹt":7995,"▁injur":7996,"y!":7997,"▁bound":7998,"▁dạo":7999,"ated,":8000,"▁nhở":8001,"▁ngã":8002,"os,":8003,"y...":8004,"▁Reg":8005,"▁generally":8006,"▁benefit":8007,"rogen":8008,"ban":8009,"cr":8010,"pic":8011,"▁bậc":8012,"▁yes,":8013,"▁oce":8014,"▁rễ":8015,"▁Call":8016,"▁raise":8017,"▁proced":8018,"▁bệnh.":8019,"▁long.":8020,"▁regard":8021,"▁dollars":8022,"well":8023,"▁ahead":8024,"▁double":8025,"antic":8026,"▁phút,":8027,"▁planet":8028,"▁Exc":8029,"▁options":8030,"▁Play":8031,"▁absolut":8032,"AT":8033,"aith":8034,"ford":8035,"iền":8036,"ấm.":8037,"▁vé":8038,"▁trig":8039,"▁range":8040,"▁und":8041,"▁ult":8042,"▁\"l":8043,"▁emp":8044,"▁no.":8045,"▁hiểu.":8046,"▁sleep.":8047,"▁anti-":8048,"▁accompl":8049,"▁length":8050,"▁manage":8051,"▁perspect":8052,"▁children.":8053,"▁away,":8054,"▁thoại.":8055,"▁calo":8056,"▁Ổng":8057,"▁ướt":8058,"▁đẳng":8059,"▁yeah,":8060,"▁nhuộ":8061,"▁trôi":8062,"▁see.":8063,"▁ngoài,":8064,"▁board":8065,"▁Beij":8066,"▁okay,":8067,"▁broken":8068,"▁morning,":8069,"▁slightly":8070,"▁hide":8071,"▁mạng.":8072,"▁ngọt":8073,"▁Hiệp":8074,"▁Jer":8075,"▁định,":8076,"▁print":8077,"▁previous":8078,"▁grab":8079,"▁happened.":8080,"▁arms":8081,"▁mask":8082,"▁muộn":8083,"▁chúc":8084,"▁ngươ":8085,"▁\"R":8086,"▁(m":8087,"▁chuyện,":8088,"▁talk.":8089,"▁cây.":8090,"▁left.":8091,"▁understanding":8092,"▁Perhaps":8093,"▁bacteria":8094,"%.":8095,"▁bền":8096,"▁hô":8097,"▁lượt":8098,"▁chest":8099,"▁you...":8100,"▁Watch":8101,"entially":8102,"▁Đồng":8103,"ement.":8104,"▁meat":8105,"▁prove":8106,"▁process.":8107,"▁America":8108,"ors,":8109,"▁Lý":8110,"▁And,":8111,"▁showed":8112,"▁older":8113,"▁regional":8114,"▁xoa":8115,"▁tức.":8116,"yn":8117,"▁thin":8118,"▁nô":8119,"▁bôi":8120,"▁hun":8121,"▁for?":8122,"▁severe":8123,"▁was,":8124,"▁bright":8125,"▁person's":8126,"iction":8127,"▁cháu.":8128,"▁schedu":8129,"▁riê":8130,"▁movement":8131,"▁terrible":8132,"eed":8133,"▁lưỡi":8134,"▁vọng.":8135,"▁saving":8136,"▁Dam":8137,"ander":8138,"▁Oh":8139,"▁worse":8140,"ublic":8141,"▁confirm":8142,"▁seconds":8143,"▁nature":8144,"▁developing":8145,"fortun":8146,"▁spray":8147,"▁0.":8148,"▁kia,":8149,"▁wedd":8150,"ining":8151,"▁dẹp":8152,"▁nhận.":8153,"▁Sk":8154,"▁High":8155,"▁states":8156,"irty":8157,"▁(N":8158,"▁lý,":8159,"▁Where's":8160,"▁appreciate":8161,"line.":8162,"▁mét":8163,"▁gan":8164,"▁rắn":8165,"▁inh":8166,"▁empt":8167,"ender":8168,"▁gone.":8169,"▁viễn":8170,"▁thống.":8171,"▁food.":8172,"▁Everything":8173,"oe":8174,"▁sad":8175,"▁rom":8176,"key":8177,"▁meal":8178,"▁goals":8179,"▁viên,":8180,"▁friends,":8181,"▁highly":8182,"▁thuật.":8183,"▁nearly":8184,"▁document":8185,"a!":8186,"ẹt":8187,"▁khẩn":8188,"▁xưa":8189,"▁spending":8190,"▁hỏi.":8191,"▁ổn.":8192,"▁allows":8193,"▁Szczecin.":8194,"▁mạc":8195,"▁nhựa":8196,"▁(or":8197,"atever":8198,"▁careful":8199,"▁Someone":8200,"▁plants":8201,"▁fabric":8202,"▁code":8203,"▁mò":8204,"iced":8205,"▁công,":8206,"▁anywhere":8207,"▁boy.":8208,"▁showing":8209,"ufact":8210,"zen":8211,"▁lắp":8212,"▁dĩ":8213,"▁Tap":8214,"▁Mus":8215,"▁nothing.":8216,"▁đồn":8217,"▁ảnh.":8218,"▁sáng,":8219,"▁business.":8220,"▁ạ?":8221,"▁heavy":8222,"ximately":8223,"NG":8224,"▁bord":8225,"▁mal":8226,"▁Muốn":8227,"ghan":8228,"▁n't,":8229,"▁rare":8230,"▁clim":8231,"ian.":8232,"▁Asia":8233,"▁đua":8234,"▁concent":8235,"▁equal":8236,"▁rules":8237,"▁cancer":8238,"▁associated":8239,"è,":8240,"▁ơn.":8241,"▁thác":8242,"▁Cân":8243,"iến.":8244,"▁Braz":8245,"▁Dis":8246,"▁Great":8247,"ulf":8248,"▁hai.":8249,"▁chơi.":8250,"▁dài,":8251,"▁eyes.":8252,"▁situation.":8253,"▁demand":8254,"▁advant":8255,"▁emotions":8256,"▁window.":8257,"▁mờ":8258,"▁v.":8259,"onse":8260,"omb":8261,"ushing":8262,"▁we'd":8263,"ustain":8264,"▁(ch":8265,"artment":8266,"▁thích,":8267,"aked":8268,"▁controll":8269,"▁Nothing":8270,"▁India":8271,"▁administr":8272,"▁dặm":8273,"RI":8274,"▁Tiến":8275,"▁Hành":8276,"▁\"đ":8277,"estic":8278,"ips":8279,"ile,":8280,"▁thức.":8281,"▁something,":8282,"▁guard":8283,"▁nghiệp,":8284,"▁results":8285,"▁apolog":8286,"▁boss":8287,"▁chốt":8288,"▁pen":8289,"▁truyện":8290,"▁suit":8291,"ocrat":8292,"▁đấy!":8293,"▁tớ.":8294,"▁independ":8295,"▁smaller":8296,"▁listening":8297,"▁losing":8298,"ole":8299,"▁đụng":8300,"▁bed.":8301,"▁lót":8302,"▁Tim":8303,"▁fol":8304,"▁Thiên":8305,"▁hoả":8306,"▁shar":8307,"▁up?":8308,"▁agree":8309,"▁hỏi,":8310,"▁quả,":8311,"▁đúng,":8312,"▁đếm":8313,"▁finger":8314,"▁thousand":8315,"ious,":8316,"ồn.":8317,"ụi":8318,"chan":8319,"▁Biển":8320,"▁Vẫn":8321,"▁heal":8322,"um.":8323,"▁hands.":8324,"iness,":8325,"▁menu":8326,"▁rule":8327,"o?":8328,"én":8329,"▁tràn":8330,"▁phone.":8331,"▁Hỏi":8332,"ver,":8333,"ivity":8334,"▁trường,":8335,"▁hoá.":8336,"▁broad":8337,"▁axit":8338,"▁icon":8339,"field":8340,"off":8341,"ấn.":8342,"▁nốt":8343,"▁nét":8344,"▁bought":8345,"▁Vi":8346,"aces":8347,"▁Ell":8348,"▁3,":8349,"▁uns":8350,"▁scen":8351,"▁medication":8352,"▁nuclear":8353,"▁mông":8354,"▁nghĩ.":8355,"▁He'll":8356,"▁helped":8357,"▁ghép":8358,"▁original":8359,"iation":8360,"s.\"":8361,"▁khiêu":8362,"▁vào,":8363,"▁22":8364,"▁tháng.":8365,"▁physic":8366,"ner.":8367,"uch":8368,"▁none":8369,"▁nồng":8370,"▁vine":8371,"▁dư":8372,"orb":8373,"▁giấm":8374,"▁Sal":8375,"▁Chris":8376,"▁sea":8377,"▁album":8378,"▁Trời":8379,"▁thua":8380,"▁ourselves":8381,"▁otherw":8382,"▁famil":8383,"▁solve":8384,"▁milk":8385,"▁carbon":8386,"aptop":8387,"▁journal":8388,"C.":8389,"IV":8390,"e?":8391,"lor":8392,"▁&":8393,"▁tước":8394,"▁Đáng":8395,"▁section":8396,"▁Nhận":8397,"▁luôn.":8398,"▁dish":8399,"▁'.":8400,"▁floor":8401,"▁wonderful":8402,"ản.":8403,"▁iron":8404,"▁nụ":8405,"▁Bab":8406,"▁prin":8407,"▁school,":8408,"▁kilomet":8409,"p,":8410,"▁vot":8411,"▁rough":8412,"ass,":8413,"▁Mag":8414,"▁đã.":8415,"▁commit":8416,"▁expos":8417,"▁standard":8418,"▁cru":8419,"▁vặt":8420,"▁trong.":8421,"emon":8422,"▁Whatever":8423,"▁resist":8424,"▁sĩ,":8425,"▁biggest":8426,"▁okay":8427,"▁becoming":8428,"▁absolutely":8429,"▁bút":8430,"▁khán":8431,"▁nghìn":8432,"▁manufact":8433,"▁vị,":8434,"▁lời.":8435,"▁poll":8436,"▁location":8437,"▁safe.":8438,"▁broke":8439,"▁towel":8440,"vest":8441,"where.":8442,"▁id":8443,"▁tưởng.":8444,"▁mưu":8445,"▁eith":8446,"▁stim":8447,"▁này!":8448,"▁D.":8449,"▁client":8450,"▁mặt,":8451,"▁letting":8452,"▁assum":8453,"▁funn":8454,"▁creating":8455,"▁democr":8456,"▁upset":8457,"▁extremely":8458,"▁ut":8459,"▁Bro":8460,"▁Bệnh":8461,"▁uý":8462,"▁load":8463,"▁(n":8464,"▁Jimm":8465,"▁hoá,":8466,"▁former":8467,"▁calcul":8468,"▁Afghan":8469,"arrass":8470,"▁Chuẩn":8471,"uate":8472,"ừng.":8473,"▁ngục":8474,"▁Mil":8475,"▁waste":8476,"▁out?":8477,"▁plans":8478,"▁relative":8479,"▁series":8480,"▁largest":8481,"▁propert":8482,"▁slowly":8483,"▁drugs":8484,"▁identify":8485,"▁challenge":8486,"▁tomorrow.":8487,"▁degre":8488,":00":8489,"bre":8490,"ẹo":8491,"▁lử":8492,"▁wit":8493,"▁ge":8494,"▁gel":8495,"▁làn":8496,"▁cát":8497,"emb":8498,"▁Inc":8499,"▁hết,":8500,"▁disease":8501,"ặng.":8502,"▁ml":8503,"▁vương":8504,"▁fort":8505,"▁plan.":8506,"▁friend,":8507,"▁response":8508,"▁requires":8509,"so,":8510,"▁Tex":8511,"▁Id":8512,"▁giảng":8513,"▁Sn":8514,"▁Sant":8515,"elm":8516,"▁buôn":8517,"▁say?":8518,"▁tiếp.":8519,"▁unp":8520,"▁calls":8521,"▁believed":8522,"▁chịu.":8523,"▁Toà":8524,"▁calor":8525,"▁camer":8526,"▁medications":8527,"▁approximately":8528,"▁brother.":8529,"▁William":8530,"▁definitely":8531,"▁Learn":8532,"▁cotton":8533,"sk":8534,"▁cồn":8535,"▁mut":8536,"▁vay":8537,"▁gather":8538,"▁dâm":8539,"ism.":8540,"▁Thủ":8541,"▁Sen":8542,"▁Out":8543,"▁happen.":8544,"▁first,":8545,"▁days,":8546,"▁dealing":8547,"▁terror":8548,"▁crazy":8549,"▁tun":8550,"▁nav":8551,"▁bother":8552,"ite,":8553,"ari":8554,"▁Mục":8555,"▁\"ch":8556,"▁here's":8557,"▁mine.":8558,"▁minutes,":8559,"▁passed":8560,"mail":8561,"pite":8562,"▁nine":8563,"▁hors":8564,"▁lỡ":8565,"▁Thom":8566,"▁Mont":8567,"▁Vict":8568,"▁\"g":8569,"▁White":8570,"▁off,":8571,"▁adjust":8572,"▁Stop":8573,"▁prompt":8574,"▁Leave":8575,"▁conditions":8576,"▁(tiếng":8577,"▁average":8578,"iven":8579,"s!":8580,"▁city.":8581,"▁nạp":8582,"▁sụp":8583,"▁mout":8584,"ome.":8585,"ete":8586,"▁Mer":8587,"▁Ray":8588,"▁helpful":8589,"▁lần,":8590,"▁family,":8591,"▁embarrass":8592,"oa":8593,"▁tox":8594,"▁Cle":8595,"▁AD":8596,"▁Tham":8597,"▁choice.":8598,"▁Char":8599,"ướng.":8600,"▁(S":8601,"▁species":8602,"▁cases":8603,"▁clearly":8604,"▁Coll":8605,"▁spirit":8606,"-2":8607,"▁mạn":8608,"▁gãy":8609,"ators":8610,"anch":8611,"▁faith":8612,"▁ring":8613,"ula":8614,"▁attach":8615,"▁trai.":8616,"▁leading":8617,"▁point.":8618,"▁bottle":8619,"▁various":8620,"▁true.":8621,"▁General":8622,"▁stupid":8623,"sen":8624,"▁tear":8625,"▁thổi":8626,"▁mg":8627,"ines.":8628,"▁khăn.":8629,"▁liền":8630,"▁(nh":8631,"▁địch":8632,"▁person,":8633,"▁đau.":8634,"▁added":8635,"▁marry":8636,"▁safet":8637,"▁tour":8638,"▁line.":8639,"▁wire":8640,"▁dã":8641,"▁rũ":8642,"▁ride":8643,"▁Lat":8644,"▁prop":8645,"ished":8646,"▁400":8647,"▁vật.":8648,"▁Should":8649,"▁problems.":8650,"▁population":8651,"mar":8652,"uel":8653,"▁laptop":8654,"▁pig":8655,"▁ngầm":8656,"▁Cùng":8657,"▁xa.":8658,"▁door.":8659,"amine":8660,"▁consequ":8661,"▁world's":8662,"▁desire":8663,"▁ngài,":8664,"▁money,":8665,"▁society":8666,"▁steps":8667,"▁infection":8668,"▁stuff.":8669,"▁tonight":8670,"▁trigger":8671,"▁nose":8672,"▁bão":8673,"▁Pac":8674,"▁alive":8675,"▁Doing":8676,"▁buck":8677,"▁thần.":8678,"▁aggress":8679,"la":8680,"ằn":8681,"▁cooking":8682,"▁reb":8683,"▁reject":8684,"istan":8685,"▁cổ.":8686,"▁question.":8687,"▁information.":8688,"▁case.":8689,"▁Everyone":8690,"▁stopped":8691,"▁bay.":8692,"▁mưa":8693,"▁mỏng":8694,"▁chôn":8695,"▁tia":8696,"▁nhanh.":8697,"▁khía":8698,"▁đình,":8699,"▁electric":8700,"▁movie":8701,"▁muscles":8702,"ras":8703,"ênh":8704,"ỗng":8705,"▁bong":8706,"▁bạch":8707,"▁fle":8708,"▁Ah,":8709,"▁xích":8710,"▁shape":8711,"urb":8712,"▁bố.":8713,"▁reasons":8714,"▁promot":8715,"▁device":8716,"▁appropriate":8717,"▁nâu":8718,"▁lines":8719,"▁Bel":8720,"▁ster":8721,"▁stret":8722,"▁Đặc":8723,"▁points":8724,"▁missing":8725,"▁lạnh.":8726,"▁About":8727,"▁additional":8728,"▁Sir,":8729,"▁nhuộm":8730,"oom":8731,"▁hers":8732,"▁mồi":8733,"▁chở":8734,"▁western":8735,"▁gently":8736,"▁dược":8737,"▁truck":8738,"▁Say":8739,"▁it'll":8740,"▁Each":8741,"abor":8742,"▁keeps":8743,"ounter":8744,"▁copy":8745,"▁iPhone":8746,"day.":8747,"▁°":8748,"▁hòn":8749,"▁lô":8750,"▁dut":8751,"▁gia,":8752,"▁hall":8753,"▁dụng,":8754,"▁thuần":8755,"▁replac":8756,"▁Write":8757,"▁mirr":8758,"▁lying":8759,"▁vú":8760,"▁kitch":8761,"▁yours.":8762,"▁Giải":8763,"▁pháp.":8764,"▁room,":8765,"▁transfer":8766,"▁legs":8767,"▁occas":8768,"▁Robert":8769,"▁death.":8770,"▁University":8771,"▁nạ":8772,"▁nát":8773,"▁đố":8774,"▁só":8775,"▁lady":8776,"asp":8777,"▁Air":8778,"▁Mill":8779,"▁stain":8780,"▁Đội":8781,"▁Gal":8782,"▁hàng,":8783,"▁They'll":8784,"▁decl":8785,"▁tử.":8786,"▁swell":8787,"▁memory":8788,"▁game.":8789,"▁Peter":8790,"▁cooper":8791,"▁nắp":8792,"▁siz":8793,"▁Ira":8794,"'s.":8795,"▁Their":8796,"▁(th":8797,"▁says,":8798,"▁actual":8799,"▁screw":8800,"▁sợ.":8801,"▁experiment":8802,"▁groups":8803,"▁possibly":8804,"▁predict":8805,"ipp":8806,"▁thấm":8807,"▁mau":8808,"▁tang":8809,"▁Dân":8810,"▁Gia":8811,"▁Trường":8812,"▁happy.":8813,"▁Arm":8814,"inst":8815,"▁Thần":8816,"▁đi?":8817,"▁unh":8818,"ements":8819,"▁Pan":8820,"▁caff":8821,"▁cutting":8822,"▁Who's":8823,"▁cleaning":8824,"▁launch":8825,"▁increased":8826,"▁Actually,":8827,"▁ưa":8828,"▁Big":8829,"▁was.":8830,"▁bản,":8831,"▁hắn,":8832,"▁realized":8833,"▁basically":8834,"▁chung,":8835,"cription":8836,"▁culture":8837,"▁CA:":8838,"▁á":8839,"▁tông":8840,"▁bì":8841,"▁brief":8842,"▁wid":8843,"▁lives.":8844,"▁Pay":8845,"▁although":8846,"▁liệu.":8847,"▁greatest":8848,"▁moment.":8849,"▁heart.":8850,"pan":8851,"▁tống":8852,"▁súc":8853,"▁sustain":8854,"▁nho":8855,"▁Law":8856,"▁asleep":8857,"ival":8858,"▁mạnh,":8859,"ibly":8860,"▁famili":8861,"▁tuần,":8862,"▁eventually":8863,"▁nhuận":8864,"▁power.":8865,"▁radio":8866,"▁campa":8867,"II":8868,"▁bã":8869,"▁vòi":8870,"▁review":8871,"▁Wall":8872,"▁Wil":8873,"▁During":8874,"▁ai,":8875,"▁bộ.":8876,"▁đường,":8877,"▁lực,":8878,"▁phương.":8879,"▁countri":8880,"▁books":8881,"▁USB":8882,"▁Something":8883,"▁kẹo":8884,"▁antibiot":8885,"▁Beijing":8886,"OS":8887,"▁of.":8888,"ics.":8889,"▁xí":8890,"▁hack":8891,"▁đã,":8892,"▁sect":8893,"▁chính.":8894,"▁content":8895,"▁clothing":8896,"▁nồi":8897,"▁mine":8898,"▁men.":8899,"▁don":8900,"agon":8901,"▁Stre":8902,"▁teeth":8903,"▁relationship.":8904,"▁pictures":8905,"▁lồng":8906,"▁Tiên":8907,"▁ngập":8908,"▁Po":8909,"ideo":8910,"▁hình,":8911,"▁amb":8912,"▁useful":8913,"▁sách.":8914,"▁cheap":8915,"▁suffer":8916,"▁afford":8917,"ext":8918,"s\"":8919,"▁cod":8920,"▁bốc":8921,"▁bunch":8922,"▁lờ":8923,"rey":8924,"▁tao.":8925,"▁uh":8926,"▁upper":8927,"▁Lại":8928,"▁seat":8929,"▁pray":8930,"▁scrat":8931,"▁guys.":8932,"▁đủ.":8933,"▁Being":8934,"▁negot":8935,"▁Coi":8936,"cript":8937,"▁bathroom":8938,"▁display":8939,"fast":8940,"▁toa":8941,"▁Cour":8942,"▁Though":8943,"▁Master":8944,"▁Long":8945,"▁Gọi":8946,"ages.":8947,"▁nên,":8948,"▁Jud":8949,"▁clin":8950,"▁Stud":8951,"▁brown":8952,"▁belief":8953,"▁bringing":8954,"▁sensitive":8955,"▁Follow":8956,"▁mixture":8957,"iers":8958,"ậy.":8959,"▁tàng":8960,"▁tuyết":8961,"▁cậy":8962,"▁mỉ":8963,"▁Thượng":8964,"▁Sing":8965,"▁knowing":8966,"ocking":8967,"▁office.":8968,"▁thương,":8969,"▁xuống,":8970,"▁turning":8971,"ash.":8972,"▁followed":8973,"▁honor":8974,"▁square":8975,"▁Sara":8976,"▁site":8977,"▁lọ":8978,"▁vờ":8979,"▁wide":8980,"▁Chúc":8981,"▁\"d":8982,"▁khoan":8983,"▁think.":8984,"▁ngoái":8985,"▁flav":8986,"▁child.":8987,"▁bad.":8988,"▁Nobody":8989,"tle":8990,"▁bảy":8991,"▁loud":8992,"▁ngâm":8993,"▁Dar":8994,"▁brand":8995,"▁drain":8996,"▁recently":8997,"▁depending":8998,"▁mother.":8999,"▁receive":9000,"▁suddenly":9001,"▁Iraq":9002,"60":9003,"▁ir":9004,"▁thẳng.":9005,"▁lùng":9006,"▁khử":9007,"▁rồng":9008,"▁CO":9009,"▁Máy":9010,"▁HIV":9011,"▁Kẻ":9012,"▁Kat":9013,"▁cảm,":9014,"▁assign":9015,"▁match":9016,"▁đáy":9017,"▁dục.":9018,"hoặc":9019,"▁xong.":9020,"▁internet":9021,"▁Thanks":9022,"▁Setting":9023,"▁hundreds":9024,"▁juice":9025,"▁Steve":9026,"▁yellow":9027,"▁herself":9028,"g,":9029,"mit":9030,"▁Ter":9031,"▁doing.":9032,"▁Rõ":9033,"▁ấy?":9034,"uman":9035,"▁nữ.":9036,"▁trùng.":9037,"▁publish":9038,"▁connection":9039,"▁circum":9040,"▁smooth":9041,"▁đớn":9042,"▁nêu":9043,"▁won":9044,"▁giọt":9045,"asing":9046,"▁about,":9047,"▁2000":9048,"▁cách.":9049,"▁blog":9050,"▁actions":9051,"▁gái.":9052,"▁supply":9053,"▁surg":9054,"▁funny":9055,"▁nhỉ.":9056,"▁place,":9057,"▁photograph":9058,"▁software":9059,"eared":9060,"gent":9061,"hông":9062,"��":9063,"▁nation":9064,"▁lunch":9065,"▁chọc":9066,"▁trục":9067,"▁Sea":9068,"▁Bước":9069,"▁conduct":9070,"▁Fore":9071,"▁uses":9072,"▁It'll":9073,"▁techniqu":9074,"▁driving":9075,"▁education":9076,"▁aim":9077,"▁male":9078,"▁Bài":9079,"▁forces":9080,"▁đồng.":9081,"▁saying,":9082,"▁decre":9083,"▁systems":9084,"▁months.":9085,"▁demonst":9086,"▁female":9087,"▁either.":9088,"ae":9089,"ning.":9090,"▁thấu":9091,"▁chạ":9092,"▁dance":9093,"▁(P":9094,"▁ý,":9095,"ile.":9096,"▁sinh,":9097,"▁flat":9098,"others":9099,"▁đất,":9100,"▁adding":9101,"▁request":9102,"▁credit":9103,"box":9104,"s)":9105,"▁tê":9106,"▁page.":9107,"▁khôn":9108,"owd":9109,"▁Hải":9110,"▁Vài":9111,"ively":9112,"▁impl":9113,"▁State":9114,"▁Next":9115,"▁escap":9116,"▁Chà,":9117,"▁Philippines":9118,"▁bud":9119,"▁grew":9120,"▁Cut":9121,"▁No.":9122,"▁xe,":9123,"▁Lan.":9124,"▁mechan":9125,"▁mai.":9126,"▁trên.":9127,"▁tiny":9128,"▁bộ,":9129,"▁Quân":9130,"▁words,":9131,"▁transform":9132,"▁tempor":9133,"▁closer":9134,"prise":9135,"▁separate":9136,"▁British":9137,"▁lon":9138,"▁vong":9139,"▁ga":9140,"ons.":9141,"▁trăng":9142,"itect":9143,"ities,":9144,"▁quê":9145,"▁is?":9146,"▁overall":9147,"▁contr":9148,"▁conscious":9149,"▁hạn.":9150,"▁benefits":9151,"▁century":9152,"▁administrative":9153,"bal":9154,"▁thám":9155,"▁Cre":9156,"ets.":9157,"▁nghiệm.":9158,"▁Los":9159,"▁Phil":9160,"▁telev":9161,"▁Nghiên":9162,"▁hyp":9163,"▁\"I'm":9164,"▁khô.":9165,"▁include:":9166,"▁bực":9167,"▁bóp":9168,"▁hước":9169,"▁lạm":9170,"▁vội":9171,"ism,":9172,"▁Tạo":9173,"▁râu":9174,"▁Er":9175,"▁exch":9176,"▁butter":9177,"▁tự.":9178,"▁people's":9179,"▁trời,":9180,"▁virt":9181,"▁services":9182,"▁ả":9183,"▁mer":9184,"▁mons":9185,"ines,":9186,"▁C.":9187,"▁phe":9188,"▁Dem":9189,"▁Dành":9190,"ifying":9191,"▁Eat":9192,"▁cơ.":9193,"▁end.":9194,"▁Show":9195,"▁baking":9196,"▁paint":9197,"▁system,":9198,"▁instructions":9199,"▁thre":9200,"▁bẫy":9201,"▁yester":9202,"▁khấu":9203,"ises":9204,"▁CD":9205,"▁Ap":9206,"▁suic":9207,"▁quá,":9208,"▁famous":9209,"▁paying":9210,"▁Indian":9211,"▁\"What":9212,"▁wife.":9213,"▁đàm":9214,"▁bare":9215,"adem":9216,"▁màng":9217,"▁\"p":9218,"olve":9219,"▁Khu":9220,"▁Star":9221,"▁blank":9222,"▁They've":9223,"▁trẻ,":9224,"▁ghé":9225,"▁great.":9226,"▁ended":9227,"▁played":9228,"▁khoẻ.":9229,"▁shoes":9230,"▁purpos":9231,"▁joint":9232,"▁connected":9233,"▁phúc.":9234,"▁picked":9235,"▁satis":9236,"▁immediately.":9237,"▁resources":9238,"oft":9239,"ront":9240,"yal":9241,"▁tám":9242,"▁on?":9243,"▁Đị":9244,"▁khi,":9245,"▁suck":9246,"▁adop":9247,"▁Phòng":9248,"▁hành.":9249,"▁breaking":9250,"▁harder":9251,"▁sales":9252,"▁received":9253,"way,":9254,"▁thô":9255,"▁hét":9256,"▁Cause":9257,"▁Always":9258,"▁Isra":9259,"▁swear":9260,"▁late.":9261,"▁economy":9262,"idden":9263,"▁finished":9264,"▁successful":9265,"▁judg":9266,"▁critical":9267,"▁college":9268,"gen":9269,"▁dũng":9270,"▁Time":9271,"▁rã":9272,"▁Cast":9273,"ics,":9274,"▁Sout":9275,"▁Mua":9276,"▁stem":9277,"▁mole":9278,"▁production":9279,"▁planning":9280,"▁Americans":9281,"▁relationships":9282,"▁control.":9283,"▁required":9284,"▁appears":9285,"▁labor":9286,"▁Carol":9287,"▁London":9288,"▁err":9289,"▁coc":9290,"▁khuyết":9291,"▁I.":9292,"aries":9293,"▁giật":9294,"irl":9295,"▁Father":9296,"▁lúc.":9297,"▁Looks":9298,"▁computer.":9299,"▁kênh":9300,"▁events":9301,"▁magn":9302,"▁(19":9303,"▁degree":9304,"▁soda":9305,"▁đà":9306,"▁budd":9307,"▁chăn":9308,"▁gõ":9309,"▁fash":9310,"▁rise":9311,"▁Dann":9312,"▁shad":9313,"▁Gh":9314,"iles":9315,"▁map":9316,"▁Ins":9317,"▁surve":9318,"▁angry":9319,"▁insect":9320,"cer":9321,"eo":9322,"no":9323,"▁bond":9324,"▁whom":9325,"▁Having":9326,"▁soon.":9327,"ore.":9328,"▁Nhờ":9329,"anda":9330,"ell,":9331,"▁worse.":9332,"▁23":9333,"▁máy.":9334,"▁compass":9335,"▁poison":9336,"▁ngủ,":9337,"▁tục.":9338,"▁walked":9339,"▁skills":9340,"▁balance":9341,"▁discovered":9342,"▁pieces":9343,"▁screen.":9344,"lf":9345,"▁mẻ":9346,"▁pool":9347,"▁ngự":9348,"▁Nơi":9349,"▁Hiểu":9350,"▁shower":9351,"▁(h":9352,"ube":9353,"airs":9354,"▁statement":9355,"▁body,":9356,"▁version":9357,"▁princip":9358,"ww":9359,"ễu":9360,"ện":9361,"▁cart":9362,"▁mỹ":9363,"▁nhạt":9364,"▁ngẫu":9365,"▁I,":9366,"▁Cẩn":9367,"▁(đ":9368,"▁(hoặc":9369,"abet":9370,"ie?":9371,"▁chút,":9372,"▁contains":9373,"▁giây.":9374,"▁Listen":9375,"▁Japanese":9376,"▁speech":9377,"▁truth.":9378,"▁cớ":9379,"▁vul":9380,"▁Bor":9381,"▁Ham":9382,"▁Đánh":9383,"aud":9384,"ign.":9385,"▁brows":9386,"▁name,":9387,"▁thơm":9388,"▁innov":9389,"▁bồi":9390,"▁vess":9391,"▁rang":9392,"▁rào":9393,"arrow":9394,"▁Sat":9395,"▁stage":9396,"olf":9397,"aren":9398,"▁chua":9399,"▁food,":9400,"▁kid.":9401,"▁cases,":9402,"iverse":9403,"▁photo":9404,"▁recommended":9405,"▁Paris":9406,"▁colleag":9407,"▁'cause":9408,"▁encourage":9409,"▁thor":9410,"▁sin":9411,"▁las":9412,"▁châm":9413,"▁inch":9414,"▁Dou":9415,"▁Nhập":9416,"▁go?":9417,"▁need.":9418,"▁background":9419,"▁going?":9420,"▁look.":9421,"▁191":9422,"▁assume":9423,"▁đẹp,":9424,"▁calories":9425,"▁County,":9426,"▁batter":9427,"▁khỉ":9428,"itution":9429,"▁Sand":9430,"▁re-":9431,"▁rain":9432,"acy.":9433,"▁what,":9434,"rial":9435,"▁did,":9436,"ish.":9437,"▁hạn,":9438,"▁Commun":9439,"rong":9440,"▁0,":9441,"▁cuộn":9442,"▁diệu":9443,"▁Mã":9444,"▁nó?":9445,"▁uỷ":9446,"▁season":9447,"▁jail":9448,"▁manh":9449,"▁đổi,":9450,"▁tiền,":9451,"▁desk":9452,"▁elimin":9453,"▁Marc":9454,"▁games":9455,"▁affected":9456,"▁ancient":9457,"▁mèo.":9458,"▁vinegar":9459,"▁pock":9460,"▁Tụi":9461,"▁Cần":9462,"▁Hàn":9463,"imes,":9464,"▁Lee":9465,"ists,":9466,"▁\"It":9467,"▁seemed":9468,"gl":9469,"gy":9470,"vi":9471,"ợn":9472,"▁cương":9473,"▁sending":9474,"▁vang":9475,"ating.":9476,"▁tong":9477,"itation":9478,"▁elev":9479,"▁Has":9480,"▁Chic":9481,"▁anal":9482,"▁neur":9483,"▁Um,":9484,"▁others,":9485,"▁commerc":9486,"▁weeks.":9487,"▁hair,":9488,"▁Nghĩ":9489,"▁job,":9490,"▁mistake":9491,"▁critic":9492,"fess":9493,"▁cành":9494,"▁thỉnh":9495,"▁chance.":9496,"ates.":9497,"▁trừng":9498,"▁Tay":9499,"▁ngưỡng":9500,"ores":9501,"▁Android":9502,"▁trên,":9503,"▁quan.":9504,"▁gotten":9505,"▁35":9506,"▁teen":9507,"▁4.":9508,"▁around,":9509,"▁150":9510,"ounc":9511,"▁Russian":9512,"bon":9513,"▁đam":9514,"▁viện.":9515,"▁toil":9516,"▁Cub":9517,"icial":9518,"▁Mel":9519,"▁Yeah.":9520,"▁Vir":9521,"▁going.":9522,"▁unf":9523,"▁uncom":9524,"▁two,":9525,"▁193":9526,"▁colon":9527,"▁cũ.":9528,"▁currently":9529,"▁counsel":9530,"▁doubt":9531,"equ":9532,"ka":9533,"▁eth":9534,"▁nộp":9535,"▁champ":9536,"▁Tur":9537,"▁Tương":9538,"▁phil":9539,"arant":9540,"▁Nick":9541,"▁khoai":9542,"▁quyến":9543,"▁other,":9544,"▁again?":9545,"▁purpose":9546,"▁charge":9547,"▁symbol":9548,"▁Remove":9549,"▁box.":9550,"▁Nào,":9551,"▁Rồi,":9552,"▁lucky":9553,"▁emergency":9554,"man,":9555,"top":9556,"▁thâm":9557,"▁gall":9558,"ital.":9559,"▁xỉ":9560,"▁weather":9561,"▁rabb":9562,"▁shock":9563,"▁aspect":9564,"▁Read":9565,"▁coming.":9566,"unte":9567,"▁over,":9568,"▁deserve":9569,"▁restaur":9570,"▁central":9571,"▁forest":9572,"▁sources":9573,"▁Jeff":9574,"▁anyway.":9575,"▁lùi":9576,"ory,":9577,"▁Camp":9578,"▁quận":9579,"ici":9580,"▁Hà":9581,"▁Chand":9582,"ager":9583,"▁bà,":9584,"hip.":9585,"▁Congress":9586,"▁witness":9587,"viet":9588,"z,":9589,"▁hở":9590,"atures":9591,"▁Hous":9592,"▁Down":9593,"▁YouT":9594,"....":9595,"▁jack":9596,"est,":9597,"▁acqu":9598,"▁unique":9599,"▁mẹ,":9600,"▁institut":9601,"▁tranh.":9602,"▁opening":9603,"▁point,":9604,"▁ích.":9605,"▁dục,":9606,"spap":9607,"▁teacher":9608,"▁fingers":9609,"men,":9610,"▁sides":9611,"▁kẹp":9612,"▁Sky":9613,"▁Hợp":9614,"▁sai.":9615,"allow":9616,"▁Du":9617,"▁(3":9618,"▁Rửa":9619,"▁Trừ":9620,"▁lean":9621,"ification":9622,"▁infection.":9623,"▁veh":9624,"▁naturally":9625,"rit":9626,"▁đắt":9627,"▁war.":9628,"▁Mother":9629,"▁hole":9630,"▁hook":9631,"▁cáp":9632,"thur":9633,"▁more,":9634,"▁tại,":9635,"▁before,":9636,"▁4,":9637,"▁syn":9638,"▁xác.":9639,"▁nhanh,":9640,"▁questions.":9641,"▁individuals":9642,"AR":9643,"▁vây":9644,"ator.":9645,"▁libr":9646,"▁Pak":9647,"ants.":9648,"▁nữ,":9649,"▁Soviet":9650,"▁flight":9651,"▁treated":9652,"▁busy":9653,"▁sleeping":9654,"▁figured":9655,"▁covered":9656,"▁According":9657,"▁liquid":9658,"cast":9659,"▁tiệt":9660,"▁biển.":9661,"▁gánh":9662,"▁trạm":9663,"▁Mi":9664,"▁Work":9665,"▁Li":9666,"▁frust":9667,"▁Fire":9668,"▁Job":9669,"▁diss":9670,"▁tâm,":9671,"▁vật,":9672,"▁inside.":9673,"▁different.":9674,"▁woman.":9675,"▁staying":9676,"▁interests":9677,"ility,":9678,"▁house,":9679,"hyd":9680,"men":9681,"van":9682,"yc":9683,"▁ồn":9684,"▁tiệm":9685,"▁wet":9686,"▁fan":9687,"▁quét":9688,"▁forced":9689,"▁wealth":9690,"▁Lind":9691,"ườm":9692,"▁Ram":9693,"▁hay.":9694,"▁hiện,":9695,"ously":9696,"▁call.":9697,"▁long,":9698,"▁cầu,":9699,"▁reality":9700,"▁understand.":9701,"▁cười.":9702,"▁territor":9703,"▁vacc":9704,"▁garden":9705,"▁rapid":9706,"▁alternative":9707,"▁đáo":9708,"▁hẹp":9709,"oring":9710,"▁Aug":9711,"▁be,":9712,"▁S.":9713,"▁Suy":9714,"▁Boy":9715,"▁ranh":9716,"▁jeal":9717,"▁myster":9718,"▁số.":9719,"▁agent":9720,"▁điểm.":9721,"▁weekend":9722,"▁kids.":9723,"▁quanh.":9724,"▁forgive":9725,"io.":9726,"mond":9727,"▁chances":9728,"▁dust":9729,"▁Hill":9730,"▁Last":9731,"▁whenever":9732,"▁Nhưng,":9733,"▁something?":9734,"▁flower":9735,"▁insur":9736,"▁old.":9737,"▁number.":9738,"▁thúc.":9739,"▁transport":9740,"▁innoc":9741,"▁neighborhood":9742,"▁nha":9743,"▁A.":9744,"▁Bre":9745,"ose,":9746,"▁\"f":9747,"▁come.":9748,"rian":9749,"▁Using":9750,"▁ngoan":9751,"▁'M":9752,"▁newspap":9753,"▁strange":9754,"▁hour.":9755,"▁leave.":9756,"overn":9757,"▁skin,":9758,"▁breakfast":9759,"▁magic":9760,"▁layer":9761,"▁Secret":9762,"▁Martin":9763,"▁bùng":9764,"▁mốc":9765,"▁lâm":9766,"atically":9767,"▁khay":9768,"▁triển.":9769,"▁Tới":9770,"icate":9771,"▁Way":9772,"lying":9773,"▁(4":9774,"▁usual":9775,"▁climate":9776,"▁acting":9777,"▁flash":9778,"▁trí.":9779,"▁enough,":9780,"▁chó.":9781,"▁mind,":9782,"▁ruồi":9783,"▁emotion":9784,"▁tools":9785,"▁keo":9786,"▁European":9787,"▁Chicag":9788,"▁uncomfort":9789,"yr":9790,"ếm":9791,"▁ahe":9792,"▁trap":9793,"▁trưởng.":9794,"▁rot":9795,"etch":9796,"▁really,":9797,"eless":9798,"▁27":9799,"▁party.":9800,"▁scale":9801,"▁dram":9802,"▁consult":9803,"▁đỡ.":9804,"▁horse":9805,"▁anxiety":9806,"-3":9807,"ih":9808,"know":9809,"▁gấu":9810,"▁yet,":9811,"ita":9812,"▁Sinh":9813,"▁Walk":9814,"▁washing":9815,"▁use.":9816,"▁Up":9817,"▁Có,":9818,"▁grown":9819,"▁boost":9820,"▁confidence":9821,"▁situations":9822,"▁files":9823,"▁Ngoại":9824,"▁label":9825,"▁nutri":9826,"▁architect":9827,"▁thorough":9828,"ển.":9829,"▁inject":9830,"▁Dĩ":9831,"ests":9832,"oles":9833,"▁Jon":9834,"▁Jac":9835,"▁Xô":9836,"▁drunk":9837,"▁crowd":9838,"▁China,":9839,"▁Atl":9840,"▁capable":9841,"▁Đúng,":9842,"▁thạch":9843,"▁đai":9844,"▁hưu":9845,"▁ol":9846,"▁owe":9847,"▁ngợi":9848,"▁xóm":9849,"▁Ken":9850,"▁Gần":9851,"seng":9852,"▁Anh,":9853,"▁thực.":9854,"▁humans":9855,"▁reform":9856,"▁necessary.":9857,"▁cort":9858,"▁mộng":9859,"▁va":9860,"▁vỗ":9861,"▁Sil":9862,"▁Sav":9863,"▁nóng.":9864,"▁Def":9865,"and,":9866,"andon":9867,"▁will.":9868,"▁two.":9869,"▁sát,":9870,"▁described":9871,"gged":9872,"▁missed":9873,"▁charact":9874,"▁though.":9875,"▁Luật":9876,"▁smoking":9877,"▁disappear":9878,"▁federal":9879,"▁cựu":9880,"500":9881,"aven":9882,"▁tị":9883,"▁bón":9884,"▁Three":9885,"▁Bell":9886,"▁Hol":9887,"ides,":9888,"▁ra?":9889,"▁Pri":9890,"▁Nha":9891,"um,":9892,"▁want,":9893,"▁space.":9894,"▁Phát":9895,"▁disp":9896,"▁vuông":9897,"▁region":9898,"▁khí.":9899,"▁minute.":9900,"▁Art":9901,"▁buying":9902,"▁patients":9903,"▁hoping":9904,"▁Understand":9905,"body.":9906,"▁direction":9907,"▁nervous":9908,"▁ngươi.":9909,"▁circumst":9910,"80":9911,"pet":9912,"▁cưỡng":9913,"▁đậm":9914,"erate":9915,"▁TH":9916,"▁fant":9917,"omin":9918,"ley,":9919,"iếm.":9920,"▁Haw":9921,"▁Ver":9922,"▁sore":9923,"art.":9924,"▁mình?":9925,"▁khoác":9926,"▁đâu!":9927,"▁traff":9928,"▁forms":9929,"▁mission":9930,"▁rối.":9931,"▁Christm":9932,"▁v.v":9933,"▁familiar":9934,"▁campaign":9935,"ee.":9936,"ios":9937,"iant":9938,"▁mượn":9939,"▁khôi":9940,"▁roof":9941,"▁bear":9942,"▁Bost":9943,"▁Mang":9944,"▁DV":9945,"▁tim.":9946,"▁tele":9947,"▁bé,":9948,"▁thought,":9949,"▁suppose":9950,"▁studies":9951,"▁vision":9952,"▁forgot":9953,"▁itself.":9954,"ias":9955,"▁kiệt":9956,"itud":9957,"▁rh":9958,"ices,":9959,"▁Đường":9960,"▁shared":9961,"▁Green":9962,"uls":9963,"▁(D":9964,"▁back?":9965,"▁toàn,":9966,"▁nơi.":9967,"▁recip":9968,"▁care.":9969,"▁accur":9970,"▁problem,":9971,"▁includes":9972,"▁xấu.":9973,"▁structure":9974,"▁traditional":9975,"bar":9976,"right":9977,"ũi":9978,"▁inner":9979,"▁Na":9980,"▁Kev":9981,"▁Ital":9982,"▁perman":9983,"▁crime":9984,"▁mắt,":9985,"▁menu.":9986,"land,":9987,"▁millions":9988,"▁tempt":9989,"▁behavior.":9990,"▁Obama":9991,"▁purchase":9992,"z.":9993,"▁tò":9994,"▁trật":9995,"▁Thầy":9996,"▁Bang":9997,"▁Van":9998,"▁xem,":9999,"▁look,":10000,"▁insul":10001,"▁important.":10002,"▁máu,":10003,"▁hearing":10004,"▁facing":10005,"▁Harv":10006,"▁reaction":10007,"▁bản.":10008,"▁criminal":10009,"cop":10010,"▁đồi":10011,"▁gác":10012,"▁theo,":10013,"▁ngắm":10014,"▁Sun":10015,"▁nghe,":10016,"▁Vương":10017,"▁(B":10018,"▁execut":10019,"▁but...":10020,"▁blame":10021,"▁ảnh,":10022,"▁relieve":10023,"▁ứng.":10024,"▁minh.":10025,"▁Expl":10026,"▁town.":10027,"▁concerned":10028,"▁history.":10029,"▁fundam":10030,"▁vegetables":10031,"▁danc":10032,"▁done,":10033,"▁pure":10034,"▁odd":10035,"▁Tư":10036,"▁City":10037,"▁Nữ":10038,"▁tall":10039,"▁godd":10040,"ession":10041,"▁proof":10042,"▁advice":10043,"▁\"Nh":10044,"▁sweat":10045,"▁hanging":10046,"▁Chào,":10047,"▁incredible":10048,"▁attention.":10049,"▁empty":10050,"▁cọ":10051,"▁Both":10052,"▁raised":10053,"▁26":10054,"▁spell":10055,"▁giúp.":10056,"▁What,":10057,"▁đề,":10058,"▁while.":10059,"▁seconds.":10060,"▁gồm:":10061,"▁capac":10062,"▁York.":10063,"▁Poland.":10064,"▁selling":10065,"▁origin":10066,"▁weapons":10067,"▁partners":10068,"▁taste":10069,"▁Henry":10070,"▁cere":10071,"▁Int":10072,"osh":10073,"▁analy":10074,"▁shamp":10075,"umber":10076,"▁integ":10077,"▁St.":10078,"▁contribut":10079,"▁192":10080,"▁much,":10081,"▁nữa!":10082,"▁đời,":10083,"▁instead.":10084,"▁Europ":10085,"▁bleach":10086,"▁battle":10087,"▁Austral":10088,"▁vulner":10089,"/1":10090,"ience.":10091,"ến.":10092,"▁bul":10093,"▁mild":10094,"▁vứt":10095,"an's":10096,"▁Tomm":10097,"▁Này":10098,"▁Sáng":10099,"▁Lad":10100,"anted":10101,"▁abus":10102,"agram":10103,"▁(H":10104,"▁Fel":10105,"▁Fred":10106,"▁him!":10107,"▁tự,":10108,"▁đấy?":10109,"▁unit":10110,"▁course.":10111,"▁Arthur":10112,"land.":10113,"▁Gold":10114,"▁\"We":10115,"▁Twit":10116,"▁filled":10117,"ces.":10118,"mark":10119,"▁bat":10120,"▁ment":10121,"▁TQ":10122,"▁Ton":10123,"▁ngột":10124,"▁rãi":10125,"▁Move":10126,"▁stab":10127,"▁You'd":10128,"▁ast":10129,"▁Triều":10130,"▁Jess":10131,"ments.":10132,"▁remains":10133,"▁inflamm":10134,"rosoft":10135,"▁am.":10136,"▁da,":10137,"▁Tổ":10138,"▁forth":10139,"▁Draw":10140,"stood":10141,"▁ghê":10142,"▁thịnh":10143,"▁thuật,":10144,"▁women.":10145,"▁painting":10146,"▁miệng.":10147,"▁though,":10148,"▁prepare":10149,"▁Daniel":10150,"▁etc.":10151,"▁Pacific":10152,"▁nor":10153,"▁mập":10154,"▁dim":10155,"▁phẩm.":10156,"▁Western":10157,"▁thành,":10158,"▁năng.":10159,"▁xuân":10160,"▁through.":10161,"▁thống,":10162,"▁lâu.":10163,"▁focused":10164,"▁bodies":10165,"▁judge":10166,"▁Second":10167,"▁fun.":10168,"▁riêng.":10169,"fect":10170,"ier,":10171,"ler.":10172,"ving.":10173,"▁cạn":10174,"▁đắp":10175,"▁lemon":10176,"▁dắt":10177,"▁khe":10178,"inger":10179,"▁Nor":10180,"▁củng":10181,"▁xứ":10182,"idence.":10183,"▁doing,":10184,"▁Chuy":10185,"▁staff":10186,"▁with,":10187,"urs":10188,"▁Run":10189,"▁Oct":10190,"▁plat":10191,"ordin":10192,"▁lot.":10193,"▁surger":10194,"▁sword":10195,"▁pain,":10196,"▁allowing":10197,"▁children,":10198,"▁lạ.":10199,"▁Grand":10200,"▁reached":10201,"▁Khoảng":10202,"▁escape":10203,"ồng.":10204,"▁sle":10205,"▁lầm.":10206,"▁vĩnh":10207,"▁chớ":10208,"▁chief":10209,"▁pal":10210,"▁theory":10211,"▁rum":10212,"▁in?":10213,"▁anything,":10214,"▁time?":10215,"▁chủ.":10216,"ohyd":10217,"▁expand":10218,"▁alread":10219,"▁hại.":10220,"▁cửa.":10221,"▁equip":10222,"▁African":10223,"▁sếp.":10224,"▁1/2":10225,"▁otherwise":10226,"DP":10227,"▁bê":10228,"▁gut":10229,"▁dàn":10230,"▁nhát":10231,"▁Tre":10232,"▁Nat":10233,"amn":10234,"uments":10235,"▁48":10236,"▁leader":10237,"▁Bring":10238,"▁Nghĩa":10239,"▁Profess":10240,"▁bại.":10241,"▁pulled":10242,"▁Adam":10243,"▁spoke":10244,"▁cra":10245,"▁đè":10246,"▁lic":10247,"▁nhặt":10248,"ison.":10249,"▁lip":10250,"rof":10251,"▁news.":10252,"▁interp":10253,"▁tiêu.":10254,"▁expert":10255,"▁transl":10256,"▁Super":10257,"▁company.":10258,"▁earlier":10259,"▁Victor":10260,"▁Ư":10261,"▁phun":10262,"▁Thiết":10263,"osing":10264,"ade.":10265,"terol":10266,"▁Germ":10267,"esty":10268,"▁Phụ":10269,"▁acknow":10270,"▁career":10271,"▁eyes,":10272,"▁opened":10273,"▁liked":10274,"cess,":10275,"▁tests":10276,"whelm":10277,"ribute":10278,"▁vari":10279,"▁management":10280,"▁bes":10281,"atives":10282,"▁Cắt":10283,"▁Soc":10284,"▁Word":10285,"▁Đang":10286,"▁Eth":10287,"▁độ.":10288,"ages,":10289,"ers?":10290,"▁Still":10291,"▁How's":10292,"▁phòng,":10293,"▁tệ.":10294,"▁vời,":10295,"▁Harry":10296,"▁Frank.":10297,"▁reveal":10298,"DF":10299,"IA":10300,"▁tra.":10301,"▁trắng.":10302,"▁Vụ":10303,"▁liber":10304,"iring":10305,"▁Gặp":10306,"▁về,":10307,"ore,":10308,"▁thuẫn":10309,"▁universe":10310,"▁ends":10311,"▁phố,":10312,"▁blood.":10313,"▁Scot":10314,"▁thiền":10315,"▁Vietnamese":10316,"▁drops":10317,"▁therapist":10318,"▁incredibly":10319,"▁Microsoft":10320,"▁idiot":10321,"b.":10322,"ux":10323,"win":10324,"ings.":10325,"▁Budd":10326,"▁Hot":10327,"▁Vị":10328,"▁Ky":10329,"▁Guy":10330,"▁closed":10331,"▁cloud":10332,"▁thức,":10333,"▁boat":10334,"▁Asian":10335,"▁Amaz":10336,"▁country,":10337,"▁God.":10338,"▁possible,":10339,"▁organization":10340,"▁volunte":10341,"▁examples":10342,"▁repeat":10343,"▁opposite":10344,"▁hiding":10345,"▁phô":10346,"▁giáp":10347,"▁Thanh":10348,"▁Bao":10349,"▁je":10350,"▁propos":10351,"▁overwhelm":10352,"▁Giả":10353,"▁cứu.":10354,"▁secure":10355,"▁thư.":10356,"▁Toàn":10357,"▁metal":10358,"▁Scott":10359,"▁article":10360,"▁values":10361,"▁absorb":10362,"▁snack":10363,"▁Repeat":10364,"▁Smith":10365,"▁anxiet":10366,"▁released":10367,"▁Ảnh":10368,"▁accomplish":10369,"rim":10370,"▁sna":10371,"▁dãy":10372,"▁trúng":10373,"itute":10374,"ched":10375,"▁Nap":10376,"ley.":10377,"▁quãng":10378,"icles":10379,"▁Thấy":10380,"▁Lên":10381,"ury":10382,"aum":10383,"rawn":10384,"▁dipl":10385,"▁Marsh":10386,"▁expens":10387,"▁experiences":10388,"▁immune":10389,"▁quickly.":10390,"▁normally":10391,"▁conversation.":10392,"▁suffering":10393,"▁trouble.":10394,"▁replace":10395,"▁domestic":10396,"S,":10397,"uro":10398,"ạo,":10399,"▁sáp":10400,"onent":10401,"▁yes.":10402,"▁Hệ":10403,"▁Port":10404,"▁Pick":10405,"▁Rick":10406,"▁Rock":10407,"▁man's":10408,"▁over-":10409,"ives.":10410,"▁resc":10411,"▁giá.":10412,"lesterol":10413,"▁guarant":10414,"▁tóc,":10415,"▁week,":10416,"▁free.":10417,"▁Everybody":10418,"▁himself.":10419,"▁details":10420,"▁summer":10421,"▁arrang":10422,"▁puppy":10423,"bed":10424,"▁đạc":10425,"▁sem":10426,"▁welcome":10427,"▁dì":10428,"▁nhũng":10429,"▁ngứa":10430,"▁and...":10431,"▁once.":10432,"▁cholesterol":10433,"▁seal":10434,"▁Nhanh":10435,"▁Rome":10436,"▁underw":10437,"▁chất.":10438,"ission":10439,"▁chuông":10440,"▁served":10441,"▁đại.":10442,"▁tháng,":10443,"▁ideal":10444,"▁internal":10445,"▁programs":10446,"▁photos":10447,"▁costs":10448,"▁scientific":10449,"▁cough":10450,"▁sấy":10451,"▁sắm":10452,"▁bone":10453,"▁bast":10454,"▁võ":10455,"▁vở":10456,"▁vạch":10457,"▁Tai":10458,"▁Bank":10459,"▁Hi,":10460,"▁Power":10461,"▁excell":10462,"▁Ôi":10463,"▁best.":10464,"▁monitor":10465,"▁treatment.":10466,"▁extract":10467,"▁ready.":10468,"▁light.":10469,"▁dead,":10470,"▁mái.":10471,"▁book.":10472,"▁Joey":10473,"▁locked":10474,"▁moistur":10475,"▁moral":10476,"▁schedule":10477,"▁safety":10478,"▁diplom":10479,"ipped":10480,"mos":10481,"ton,":10482,"▁dội":10483,"an?":10484,"▁oft":10485,"▁Nath":10486,"ime.":10487,"▁shift":10488,"▁Ghi":10489,"▁loves":10490,"▁Four":10491,"▁times,":10492,"aves":10493,"▁trình.":10494,"▁vụ.":10495,"▁guy,":10496,"▁describe":10497,"▁China.":10498,"▁Arab":10499,"▁bedroom":10500,"▁School":10501,"▁fluid":10502,"▁Help":10503,"▁primary":10504,"▁responsibility":10505,"▁ừ":10506,"▁nang":10507,"▁dying":10508,"on's":10509,"▁nguyệt":10510,"▁rẽ":10511,"▁Men":10512,"▁Đấy":10513,"▁Ke":10514,"▁Fed":10515,"▁deal.":10516,"▁feet.":10517,"▁now!":10518,"▁Xi":10519,"▁ghen":10520,"▁vui.":10521,"▁Unless":10522,"ega":10523,"▁sạch.":10524,"▁mật.":10525,"▁months,":10526,"▁brain.":10527,"▁expected":10528,"▁tables":10529,"▁domin":10530,"▁States.":10531,"▁obviously":10532,"▁Richard":10533,"▁citizens":10534,"▁commercial":10535,"▁thắng.":10536,"▁gri":10537,"▁fert":10538,"esh":10539,"ets,":10540,"▁NA":10541,"usion":10542,"▁ta!":10543,"▁rein":10544,"lym":10545,"▁\"v":10546,"▁sees":10547,"▁fract":10548,"▁Emily":10549,"ference":10550,"▁leads":10551,"▁khăn,":10552,"▁father's":10553,"▁corpor":10554,"▁International":10555,"▁decisions":10556,"▁same.":10557,"I.":10558,"▁đen.":10559,"▁men,":10560,"▁mộc":10561,"▁chăng":10562,"▁chann":10563,"▁trân":10564,"▁Nav":10565,"▁quát":10566,"▁whis":10567,"▁Chất":10568,"ill.":10569,"▁Lar":10570,"▁Little":10571,"urt":10572,"▁soạn":10573,"▁Anh.":10574,"▁'N":10575,"▁Const":10576,"▁5.":10577,"▁liệu,":10578,"▁khói":10579,"▁car,":10580,"▁Also,":10581,"▁insp":10582,"▁moment,":10583,"▁Command":10584,"▁materials":10585,"▁therapy":10586,"▁Sorry":10587,"▁Sorry,":10588,"▁punish":10589,"fortunately,":10590,"▁cỗ":10591,"▁sét":10592,"▁ván":10593,"▁ngưng":10594,"▁Hàng":10595,"▁hoãn":10596,"▁như:":10597,"▁họng":10598,"▁Old":10599,"▁up!":10600,"▁Uỷ":10601,"▁workers":10602,"▁scru":10603,"▁grain":10604,"▁swimm":10605,"▁stronger":10606,"▁sir,":10607,"▁Republic":10608,"▁influence":10609,"ãn.":10610,"ốn.":10611,"▁uống.":10612,"▁core":10613,"▁đuối":10614,"▁đấm":10615,"▁aid":10616,"▁bon":10617,"▁gạch":10618,"▁I...":10619,"▁B.":10620,"▁Che":10621,"▁Pract":10622,"▁can,":10623,"▁28":10624,"▁themselves.":10625,"▁Giúp":10626,"▁tối,":10627,"▁75":10628,"▁Att":10629,"▁investment":10630,"▁steal":10631,"▁Party":10632,"▁surprised":10633,"▁style":10634,"▁chicken":10635,"▁August":10636,"-t":10637,"EO":10638,"ặng,":10639,"ễn.":10640,"▁lật":10641,"▁vent":10642,"ins,":10643,"▁khúc":10644,"ically,":10645,"▁tape":10646,"▁rent":10647,"▁aspir":10648,"▁upd":10649,"▁thứ,":10650,"▁therefore":10651,"▁thời,":10652,"▁brings":10653,"▁context":10654,"▁betray":10655,"▁remark":10656,"▁thuốc,":10657,"▁cực,":10658,"▁thoại,":10659,"▁đêm,":10660,"▁100%":10661,"▁rượu.":10662,"▁excuse":10663,"▁combination":10664,"▁achie":10665,"▁States,":10666,"▁ingredients":10667,"D,":10668,"bl":10669,"▁ốc":10670,"▁bấm":10671,"▁hông":10672,"▁hận":10673,"▁váy":10674,"▁rinse":10675,"▁sacr":10676,"▁Dad":10677,"▁notes":10678,"ulated":10679,"istry":10680,"▁someh":10681,"▁list.":10682,"▁plane":10683,"▁trưởng,":10684,"▁laws":10685,"▁thai.":10686,"▁scientists":10687,"▁Wait,":10688,"▁romantic":10689,"AM":10690,"ied.":10691,"▁tưới":10692,"▁cig":10693,"▁rộ":10694,"alt":10695,"▁Hit":10696,"verse":10697,"▁Dưới":10698,"▁Linc":10699,"▁mà!":10700,"▁lift":10701,"ension":10702,"▁killed.":10703,"▁Được,":10704,"▁fight.":10705,"▁dịp":10706,"▁images":10707,"▁feelings.":10708,"▁engage":10709,"▁drink.":10710,"▁exercises":10711,"▁literally":10712,"▁Rachel":10713,"▁Queen":10714,"▁fashion":10715,"▁tượng.":10716,"▁sne":10717,"▁lượng.":10718,"▁vuốt":10719,"▁nhánh":10720,"▁rèn":10721,"illed":10722,"▁shirt":10723,"iled":10724,"essed":10725,"▁guys,":10726,"▁suppl":10727,"▁defend":10728,"▁name?":10729,"▁John,":10730,"▁construct":10731,"▁seeds":10732,"rical":10733,"ạm.":10734,"▁bướ":10735,"▁Tit":10736,"▁vàng.":10737,"▁alone,":10738,"▁proceed":10739,"▁quyền.":10740,"▁coast":10741,"▁tập.":10742,"ian,":10743,"▁chân,":10744,"▁prote":10745,"▁presence":10746,"▁signed":10747,"▁lệch":10748,"▁army":10749,"▁trained":10750,"▁excit":10751,"▁reported":10752,"▁advantage":10753,"▁philos":10754,"M:":10755,"awn":10756,"zym":10757,"▁ba,":10758,"▁west":10759,"▁dirt":10760,"▁rỉ":10761,"ome,":10762,"▁Naz":10763,"▁Sa":10764,"▁Sus":10765,"▁cá.":10766,"▁Govern":10767,"▁chính,":10768,"▁Nguyên":10769,"▁she'll":10770,"▁tạo.":10771,"▁sách,":10772,"▁promised":10773,"▁necessarily":10774,"▁hảo.":10775,"▁audience":10776,"▁indicate":10777,"▁revolution":10778,"▁Type":10779,"▁families":10780,"▁caffe":10781,"gu":10782,"▁tú":10783,"▁categ":10784,"▁hat":10785,"▁mâu":10786,"▁fro":10787,"char":10788,"▁Met":10789,"▁chocol":10790,"▁shel":10791,"▁have,":10792,"▁man?":10793,"▁Inter":10794,"▁works.":10795,"▁end,":10796,"▁highest":10797,"▁tinh.":10798,"▁obl":10799,"▁signal":10800,"ounced":10801,"▁creative":10802,"▁begins":10803,"▁đỏ,":10804,"▁profession":10805,"▁powder":10806,"▁illeg":10807,"▁flying":10808,"▁doctors":10809,"▁very,":10810,"ms":10811,"▁side,":10812,"▁lăn":10813,"ina,":10814,"▁khơi":10815,"▁Thánh":10816,"▁Bru":10817,"▁chose":10818,"▁Kir":10819,"▁\"the":10820,"▁dụ:":10821,"▁Unt":10822,"▁tử,":10823,"▁reput":10824,"▁factors":10825,"▁thẳng,":10826,"▁passion":10827,"▁placed":10828,"▁thắc":10829,"▁đơn.":10830,"▁điện.":10831,"▁gang":10832,"▁triết":10833,"▁fif":10834,"edy":10835,"▁Cập":10836,"▁Sept":10837,"▁Mik":10838,"▁tip":10839,"▁unl":10840,"ency.":10841,"▁minh,":10842,"▁names":10843,"▁cats":10844,"▁located":10845,"▁trees":10846,"▁please,":10847,"▁burning":10848,"▁failed":10849,"▁smoke":10850,"▁digital":10851,"▁disappoint":10852,"▁agreed":10853,"▁tissue":10854,"CP":10855,"ER":10856,"aust":10857,"ience,":10858,"oot":10859,"▁uy":10860,"▁mẩu":10861,"▁om":10862,"▁nguộ":10863,"▁rụng":10864,"▁phơi":10865,"▁inches":10866,"▁quarter":10867,"▁Val":10868,"▁um,":10869,"▁Pot":10870,"▁neut":10871,"▁alg":10872,"▁rằng:":10873,"▁Stand":10874,"▁scream":10875,"▁ghost":10876,"▁mostly":10877,"▁7,":10878,"▁lights":10879,"▁oil.":10880,"▁face,":10881,"▁Here,":10882,"▁Africa":10883,"▁Russia":10884,"▁neighb":10885,"Cl":10886,"w.":10887,"▁mel":10888,"▁lấp":10889,"▁dirty":10890,"▁fiber":10891,"▁phồng":10892,"ve.":10893,"icul":10894,"▁Back":10895,"▁bạn?":10896,"▁Hanna":10897,"▁hobb":10898,"▁Very":10899,"▁Dad,":10900,"andom":10901,"▁spect":10902,"▁khoáng":10903,"▁dial":10904,"▁income":10905,"▁Hoá":10906,"▁better,":10907,"▁old,":10908,"▁Allow":10909,"▁runs":10910,"▁restrict":10911,"▁Nam,":10912,"201":10913,"▁tăm":10914,"▁cấy":10915,"▁Wash":10916,"ague":10917,"▁knock":10918,"▁nào!":10919,"abol":10920,"▁Trans":10921,"▁Wear":10922,"▁thêm.":10923,"▁attend":10924,"▁trang.":10925,"▁distance":10926,"▁promote":10927,"▁eval":10928,"▁past.":10929,"▁edge":10930,"▁container":10931,"▁eggs":10932,"▁industry":10933,"▁sharp":10934,"▁(như":10935,"▁shampoo":10936,"day,":10937,"▁đợt":10938,"▁Tor":10939,"▁ngắt":10940,"▁Nik":10941,"uten":10942,"▁area,":10943,"▁Gã":10944,"▁Rel":10945,"resp":10946,"▁disput":10947,"▁incident":10948,"▁sure.":10949,"▁guide":10950,"▁heading":10951,"▁cụm":10952,"▁tội.":10953,"▁colleg":10954,"▁Prot":10955,"oxide":10956,"gs":10957,"wich":10958,"xi":10959,"▁nit":10960,"▁wis":10961,"▁dâu":10962,"▁pian":10963,"▁phẳng":10964,"▁of,":10965,"▁quit":10966,"▁race":10967,"▁\"J":10968,"oren":10969,"▁Focus":10970,"▁comment":10971,"▁Trump":10972,"gging":10973,"▁Note":10974,"▁stop.":10975,"▁trái.":10976,"▁provided":10977,"▁language.":10978,"▁Comp":10979,"▁Brazil":10980,"ocratic":10981,"▁Create":10982,"ually.":10983,"▁‘":10984,"▁gal":10985,"▁dại":10986,"▁Hồ":10987,"lyn":10988,"▁Jew":10989,"▁remov":10990,"▁instr":10991,"▁medium":10992,"▁guil":10993,"up.":10994,"▁treatments":10995,"▁chung.":10996,"▁wondering":10997,"▁Research":10998,"▁\"Không":10999,"ya":11000,"ứa.":11001,"▁bos":11002,"▁mến":11003,"▁dà":11004,"▁pour":11005,"omed":11006,"▁element":11007,"▁Net":11008,"▁xé":11009,"▁xăng":11010,"▁Mir":11011,"▁isol":11012,"eld":11013,"▁nghịch":11014,"▁Viện":11015,"▁PDF":11016,"▁knife":11017,"hern":11018,"▁clock":11019,"▁chất,":11020,"▁cấp.":11021,"▁treating":11022,"▁confront":11023,"▁jobs":11024,"▁wrong,":11025,"▁amounts":11026,"▁steam":11027,"▁limited":11028,"▁applying":11029,"▁regularly":11030,"▁não.":11031,"cy":11032,"ton.":11033,"ịn":11034,"▁Ê":11035,"▁tần":11036,"▁nic":11037,"▁mổ":11038,"▁mir":11039,"▁kẽ":11040,"▁chip":11041,"▁dẫn.":11042,"▁pizz":11043,"▁quant":11044,"▁Hiến":11045,"illing":11046,"ants,":11047,"ologist":11048,"▁matter.":11049,"▁forever.":11050,"▁opportunities":11051,"▁fellow":11052,"▁mouth.":11053,"▁television":11054,"▁Ú":11055,"▁cash":11056,"▁nảy":11057,"▁narrow":11058,"▁len":11059,"▁lường":11060,"▁dỗ":11061,"▁yeah.":11062,"▁xăm":11063,"▁dos":11064,"▁Văn":11065,"▁Doc":11066,"▁L.":11067,"▁abandon":11068,"▁Jord":11069,"▁actually,":11070,"▁teet":11071,"▁scar":11072,"ances.":11073,"▁bình.":11074,"▁cây,":11075,"▁carefully":11076,"▁tranh,":11077,"ternal":11078,"▁hours,":11079,"▁solid":11080,"▁memor":11081,"▁outside.":11082,"▁anger":11083,"▁beauty":11084,"▁occup":11085,"▁entirely":11086,"▁ground.":11087,"▁claims":11088,"▁argument":11089,"▁published":11090,"time":11091,"▁..":11092,"▁cous":11093,"▁đả":11094,"▁sout":11095,"ans,":11096,"icing":11097,"▁beach":11098,"▁Bes":11099,"▁Hong":11100,"imal":11101,"▁ren":11102,"▁Ry":11103,"▁diet.":11104,"▁giết.":11105,"▁surprise":11106,"▁produced":11107,"▁subs":11108,"▁falling":11109,"▁Kỳ,":11110,"▁mãi.":11111,"▁excited":11112,"▁property":11113,"▁please?":11114,"▁surviv":11115,"ầy.":11116,"ếch":11117,"▁vet":11118,"▁veter":11119,"▁wrap":11120,"▁od":11121,"▁rice":11122,"▁Chỗ":11123,"osis":11124,"▁Vitamin":11125,"▁Den":11126,"▁Lim":11127,"▁dear":11128,"▁they'd":11129,"▁Trở":11130,"▁Và,":11131,"▁novel":11132,"▁chưa,":11133,"▁genetic":11134,"▁easy.":11135,"▁oil,":11136,"▁magaz":11137,"▁\"Chúng":11138,"▁tort":11139,"▁wedding":11140,"▁stimul":11141,"IT":11142,"▁tỏi":11143,"▁đậy":11144,"▁lòng.":11145,"▁wax":11146,"▁Tar":11147,"▁Hun":11148,"▁Dave":11149,"▁Lib":11150,"▁meals":11151,"▁loose":11152,"▁cái.":11153,"▁intent":11154,"ưởi":11155,"▁despite":11156,"▁love,":11157,"▁tuyệt.":11158,"▁regret":11159,"▁lạnh,":11160,"▁đỏ.":11161,"▁results.":11162,"▁Kỳ.":11163,"▁majority":11164,"▁crazy.":11165,"▁fuel":11166,"▁patterns":11167,"▁daughter.":11168,"▁goddamn":11169,"iac":11170,"▁án.":11171,"▁tân":11172,"▁đun":11173,"▁biến.":11174,"▁vớ":11175,"erves":11176,"ans.":11177,"▁phu":11178,"▁Hạ":11179,"▁Đo":11180,"▁Lẽ":11181,"▁shell":11182,"▁Kenn":11183,"▁manip":11184,"izes":11185,"selves,":11186,"▁dùng.":11187,"▁understood":11188,"▁pháp,":11189,"▁expensive":11190,"▁position.":11191,"▁sàng.":11192,"▁dogs":11193,"▁\"Anh":11194,"▁floor.":11195,"cut":11196,"vis":11197,"ved,":11198,"▁nuốt":11199,"▁sight":11200,"▁chợ":11201,"▁chiên":11202,"▁chronic":11203,"▁wra":11204,"▁pump":11205,"▁nhốt":11206,"▁khao":11207,"▁to?":11208,"ito":11209,"▁Treat":11210,"ases":11211,"icy":11212,"▁yours":11213,"▁Were":11214,"▁for,":11215,"▁noticed":11216,"▁go!":11217,"▁Roy":11218,"▁died.":11219,"▁cơm":11220,"▁nhớ,":11221,"▁tiếng,":11222,"▁failure":11223,"▁hãng":11224,"▁Minister":11225,"▁weapon":11226,"▁convinc":11227,"▁candid":11228,"fol":11229,"gi":11230,"uary":11231,"▁cities":11232,"▁đực":11233,"▁borrow":11234,"▁mươi":11235,"▁lắng.":11236,"ins.":11237,"▁nhục":11238,"▁bell":11239,"▁Yêu":11240,"▁Điện":11241,"em.":11242,"▁Kn":11243,"▁alter":11244,"▁sốc":11245,"▁class.":11246,"▁'m":11247,"▁lúc,":11248,"▁tác.":11249,"▁dưới.":11250,"▁báo.":11251,"ake,":11252,"▁giản.":11253,"▁defense":11254,"▁experience.":11255,"▁evil":11256,"▁mistak":11257,"▁extreme":11258,"▁partner.":11259,"▁frequently":11260,"▁Central":11261,"▁tháp":11262,"▁snow":11263,"isl":11264,"▁Sol":11265,"▁liver":11266,"▁Love":11267,"▁he?":11268,"▁soak":11269,"▁sock":11270,"▁Whether":11271,"▁Ross":11272,"▁Trẻ":11273,"▁secur":11274,"▁serving":11275,"ible.":11276,"▁gun.":11277,"▁headach":11278,"▁another.":11279,"▁generation":11280,"▁video.":11281,"▁biển,":11282,"▁freez":11283,"▁team.":11284,"▁symptoms.":11285,"▁'Tôi":11286,"▁crisis":11287,"▁jealous":11288,"▁thầm":11289,"▁đẻ":11290,"▁hố":11291,"▁gay":11292,"▁pH":11293,"▁một.":11294,"▁Đọc":11295,"▁ra!":11296,"▁um":11297,"▁sharing":11298,"▁\"w":11299,"▁seas":11300,"▁sequ":11301,"▁Trò":11302,"▁hiểu,":11303,"▁5,":11304,"▁chị.":11305,"▁minor":11306,"ney.":11307,"▁mean?":11308,"▁studying":11309,"▁Nam.":11310,"▁lệ.":11311,"▁explos":11312,"▁dog.":11313,"▁specifically":11314,"▁remaining":11315,"▁agreement":11316,"▁marriage":11317,"▁Mexico":11318,"▁mobile":11319,"▁Clean":11320,"C,":11321,"eath":11322,"ipping":11323,"▁talent":11324,"▁cock":11325,"▁đen,":11326,"▁hụt":11327,"▁kiếp":11328,"rep":11329,"▁Tiếng":11330,"▁IP":11331,"▁hab":11332,"▁does.":11333,"▁Đài":11334,"▁Dadd":11335,"▁Pom":11336,"▁hey,":11337,"▁atom":11338,"▁(K":11339,"▁caf":11340,"▁spin":11341,"aker":11342,"▁unus":11343,"irect":11344,"▁colum":11345,"▁ràng.":11346,"▁matters":11347,"▁tù.":11348,"▁shot.":11349,"▁spring":11350,"▁operating":11351,"▁immediate":11352,"▁chào,":11353,"▁kilometres":11354,"▁Thomas":11355,"▁Until":11356,"▁thumb":11357,"▁đền":11358,"▁đắn":11359,"▁pitch":11360,"ata":11361,"▁Nội":11362,"▁tail":11363,"▁Main":11364,"▁Women":11365,"▁Child":11366,"▁đội.":11367,"▁alarm":11368,"▁from.":11369,"▁fever":11370,"▁Ngồi":11371,"▁32":11372,"▁supplement":11373,"wards":11374,"▁triển,":11375,"▁hotel":11376,"▁future,":11377,"▁bè,":11378,"▁xong,":11379,"▁Without":11380,"▁objects":11381,"▁nén":11382,"▁history,":11383,"▁Thuỵ":11384,"▁kiềm":11385,"▁yoga":11386,"▁đệm":11387,"▁kitchen":11388,"▁barely":11389,"ca":11390,"den":11391,"here":11392,"ning,":11393,"yth":11394,"▁thận.":11395,"▁đù":11396,"▁sỏi":11397,"▁lõi":11398,"ality":11399,"▁ease":11400,"▁Sur":11401,"▁Mass":11402,"eline":11403,"▁Lạp":11404,"▁Pal":11405,"▁Pop":11406,"▁GP":11407,"▁GDP":11408,"▁Eric":11409,"▁Fre":11410,"ears":11411,"▁tub":11412,"▁unw":11413,"▁tưởng,":11414,"▁women,":11415,"▁phục.":11416,"▁kidd":11417,"▁swim":11418,"▁Ok,":11419,"▁options.":11420,"▁thở.":11421,"▁Jesus":11422,"▁applied":11423,"ee,":11424,"ỏng.":11425,"▁mòn":11426,"▁vary":11427,"▁ngô":11428,"▁Had":11429,"▁Chi":11430,"▁Palm":11431,"▁Rog":11432,"▁age.":11433,"▁coat":11434,"ounds":11435,"▁Quay":11436,"▁head,":11437,"▁nghiệm,":11438,"▁river":11439,"▁small,":11440,"▁business,":11441,"▁hả,":11442,"▁month.":11443,"▁thinking,":11444,"▁thanks":11445,"▁hospital.":11446,"▁disease.":11447,"▁opinion":11448,"▁analys":11449,"ares":11450,"▁Ờ":11451,"▁mây":11452,"▁lợn":11453,"▁vast":11454,"ini":11455,"▁trá":11456,"▁fired":11457,"ales":11458,"▁Thoa":11459,"▁Hank":11460,"▁station":11461,"▁shif":11462,"▁lo,":11463,"▁alt":11464,"▁managed":11465,"▁enzym":11466,"▁apparent":11467,"▁nghiêng":11468,"▁khoẻ,":11469,"▁dog's":11470,"▁level.":11471,"▁hiểm,":11472,"▁súng.":11473,"▁popul":11474,"▁reducing":11475,"▁programm":11476,"▁circle":11477,"▁tỉa":11478,"▁performance":11479,"▁cycle":11480,"▁bơm":11481,"▁Imag":11482,"▁initial":11483,"▁oxygen":11484,"LA":11485,"lam":11486,"▁cừ":11487,"▁cay":11488,"▁mort":11489,"ath,":11490,"ingu":11491,"▁Tính":11492,"orter":11493,"▁random":11494,"▁và,":11495,"▁wheel":11496,"▁online.":11497,"▁Vis":11498,"▁\".":11499,"▁Edd":11500,"▁(x":11501,"▁River":11502,"▁anyone.":11503,"▁goods":11504,"▁permiss":11505,"▁đồng,":11506,"▁chứng.":11507,"▁second.":11508,"▁miêu":11509,"▁sổ.":11510,"▁Security":11511,"▁affair":11512,"▁frequent":11513,"▁wife,":11514,"▁Lincol":11515,"▁tùng":11516,"▁tum":11517,"▁hidden":11518,"▁lưỡng":11519,"▁der":11520,"▁Nice":11521,"▁quấn":11522,"olved":11523,"▁disaster":11524,"▁Giáng":11525,"▁flag":11526,"▁điểm,":11527,"phone":11528,"▁breed":11529,"▁7.":11530,"▁problems,":11531,"▁father,":11532,"▁See,":11533,"▁protection":11534,"▁medicine":11535,"▁TV.":11536,"▁fast.":11537,"▁(tr":11538,"▁chemicals":11539,"▁introduce":11540,"▁fault.":11541,"▁cuồng":11542,"gypt":11543,"ST":11544,"▁via":11545,"▁wave":11546,"▁darl":11547,"▁fought":11548,"▁Cây":11549,"▁Nic":11550,"icit":11551,"▁Vợ":11552,"th.":11553,"▁Gord":11554,"▁sug":11555,"are.":11556,"▁desert":11557,"▁cleans":11558,"▁invited":11559,"▁live.":11560,"▁air.":11561,"▁xuyên.":11562,"▁run.":11563,"▁answer.":11564,"▁deeply":11565,"▁story,":11566,"▁true,":11567,"▁\"He":11568,"▁massage":11569,"▁methods":11570,"▁ngốc.":11571,"▁communication":11572,"▁possibility":11573,"▁leadership":11574,"ause,":11575,"▁removing":11576,"▁removed":11577,"▁throat":11578,"▁mathem":11579,"▁calorie":11580,"▁Court":11581,"io,":11582,"look":11583,"mber":11584,"▁hâm":11585,"▁graph":11586,"▁dent":11587,"▁Cực":11588,"▁be?":11589,"▁ones.":11590,"▁Chiếc":11591,"▁frame":11592,"▁but,":11593,"▁diabet":11594,"ecking":11595,"▁tuệ":11596,"▁grate":11597,"▁hệ.":11598,"▁headed":11599,"▁wait.":11600,"▁Chrome":11601,"▁power,":11602,"▁increases":11603,"▁feeding":11604,"▁First,":11605,"▁depends":11606,"▁relatively":11607,"▁ml)":11608,"▁steroid":11609,"rick":11610,"side":11611,"▁nọ":11612,"▁samp":11613,"▁pil":11614,"▁trib":11615,"▁trùm":11616,"▁Tiểu":11617,"▁furn":11618,"orph":11619,"▁Song":11620,"▁help,":11621,"▁uncle":11622,"▁bệnh,":11623,"▁Hoả":11624,"▁thần,":11625,"▁bread":11626,"▁girl,":11627,"▁đạo.":11628,"▁pursu":11629,"▁breathe":11630,"▁perfectly":11631,"▁cultural":11632,"▁strip":11633,"▁depression":11634,"▁pregnant":11635,"▁ignore":11636,"▁degrees":11637,"▁satisf":11638,"▁Israel":11639,".,":11640,"▁nè":11641,"▁lăng":11642,"orpor":11643,"▁Ah":11644,"▁quấy":11645,"▁Mix":11646,"▁Vinc":11647,"▁Pap":11648,"▁Press":11649,"▁height":11650,"▁jew":11651,"▁quan,":11652,"▁offered":11653,"▁thoáng":11654,"ences.":11655,"▁assess":11656,"▁move.":11657,"▁funct":11658,"▁involve":11659,"▁routine":11660,"▁journey":11661,"▁survive":11662,"▁communicate":11663,"▁dynam":11664,"▁admit":11665,"▁folder":11666,"▁settle":11667,"▁established":11668,"▁independent":11669,"▁surgery":11670,"▁thép":11671,"ating,":11672,"isher":11673,"▁ngửi":11674,"ese.":11675,"ase.":11676,"▁Squ":11677,"▁Hone":11678,"▁Đêm":11679,"▁E.":11680,"▁Ev":11681,"▁enfor":11682,"▁năng,":11683,"▁đại,":11684,"▁trai,":11685,"▁test.":11686,"▁colors":11687,"what":11688,"▁babies":11689,"▁potato":11690,"▁commonly":11691,"▁account.":11692,"▁Anyway,":11693,"▁stole":11694,"▁Syri":11695,"▁(ví":11696,"▁experienced":11697,"▁dropped":11698,"▁constantly":11699,"och":11700,"rid":11701,"ừa.":11702,"▁bàng":11703,"▁hôn.":11704,"▁garl":11705,"▁dump":11706,"▁rush":11707,"▁Apr":11708,"▁Thao":11709,"▁Mur":11710,"▁Wow,":11711,"▁(I":11712,"▁co-":11713,"▁Phot":11714,"▁thôi!":11715,"▁underne":11716,"▁Giờ,":11717,"▁Plan":11718,"▁status":11719,"▁sandwich":11720,"▁Practice":11721,"G:":11722,"ớc":11723,"▁ân":11724,"▁flex":11725,"▁rốt":11726,"▁CP":11727,"▁Cath":11728,"▁Minh":11729,"▁Kế":11730,"▁Jenn":11731,"▁would've":11732,"▁could've":11733,"▁36":11734,"ire.":11735,"▁repair":11736,"▁giả.":11737,"▁word.":11738,"▁collabor":11739,"▁filter":11740,"▁focusing":11741,"▁deeper":11742,"▁pulling":11743,"▁divor":11744,"▁honey":11745,"▁solution.":11746,"▁bleeding":11747,"▁procedure":11748,"▁exposure":11749,"▁thus":11750,"▁bite":11751,"▁hiếp":11752,"▁lắc":11753,"▁lặn":11754,"▁vắng":11755,"▁chap":11756,"▁chuối":11757,"▁witch":11758,"▁gạt":11759,"▁picking":11760,"▁ID":11761,"▁rùa":11762,"▁Welcome":11763,"ang,":11764,"▁Ly":11765,"▁atmos":11766,"▁external":11767,"ends":11768,"▁tiếp,":11769,"▁decad":11770,"▁open.":11771,"▁dịch.":11772,"▁factor":11773,"▁nhạc.":11774,"appy":11775,"▁household":11776,"▁stores":11777,"▁existing":11778,"▁Agent":11779,"▁title":11780,"▁Jobs":11781,"kn":11782,"kward":11783,"▁mig":11784,"▁găng":11785,"▁groc":11786,"on?":11787,"▁Ten":11788,"▁row":11789,"▁phạm.":11790,"▁Save":11791,"▁Spe":11792,"▁Buy":11793,"▁Báo":11794,"▁hoài":11795,"▁Đợi":11796,"▁Einst":11797,"▁Egypt":11798,"elle":11799,"▁'b":11800,"iance":11801,"▁roots":11802,"ition,":11803,"▁màu.":11804,"▁6,":11805,"▁Clint":11806,"▁áo.":11807,"▁powers":11808,"▁carbohyd":11809,"▁intelligence":11810,"▁mountain":11811,"▁Mosc":11812,"iveness":11813,"▁Christmas":11814,"▁sô":11815,"▁sink":11816,"▁hip":11817,"▁muộ":11818,"▁chat":11819,"▁gũi":11820,"▁date.":11821,"onym":11822,"▁trail":11823,"▁fulf":11824,"▁Thuyền":11825,"▁Middle":11826,"▁itch":11827,"▁Lin":11828,"▁Gre":11829,"▁June":11830,"▁Giá":11831,"▁too?":11832,"▁Brown":11833,"▁book,":11834,"▁đợi.":11835,"▁engag":11836,"▁Anything":11837,"▁involves":11838,"▁squee":11839,"▁environment.":11840,"▁complicated":11841,"▁budget":11842,"trl":11843,"ía":11844,"▁sinc":11845,"▁hăng":11846,"▁vả":11847,"▁fasc":11848,"▁phú":11849,"icip":11850,"▁Sĩ":11851,"▁Bas":11852,"▁Home":11853,"ime,":11854,"▁Lis":11855,"iliz":11856,"▁Andrew":11857,"istics":11858,"ai,":11859,"▁bằng.":11860,"▁lui":11861,"▁Stan":11862,"▁Stark":11863,"▁hành,":11864,"▁workout":11865,"▁interrupt":11866,"▁guid":11867,"▁rest.":11868,"▁thinking.":11869,"▁physically":11870,"▁younger":11871,"▁file.":11872,"▁Edward":11873,"▁efforts":11874,"▁Charlie":11875,"▁experiencing":11876,"▁sports":11877,"▁mỉm":11878,"EA":11879,"hr":11880,"vill":11881,"áy.":11882,"▁bar.":11883,"▁gạo":11884,"ates,":11885,"▁toler":11886,"▁fake":11887,"▁rung":11888,"▁phen":11889,"uses":11890,"▁Bị":11891,"▁xám":11892,"▁Mu":11893,"▁reh":11894,"▁choices":11895,"▁Đạo":11896,"thes":11897,"▁\"ng":11898,"▁so...":11899,"▁Ever":11900,"▁upst":11901,"▁like?":11902,"▁want?":11903,"▁there!":11904,"▁đồ.":11905,"▁unable":11906,"▁'đ":11907,"▁compress":11908,"▁friendly":11909,"▁child's":11910,"▁guilt":11911,"▁invite":11912,"lude":11913,"▁health.":11914,"▁watched":11915,"▁succeed":11916,"▁cardio":11917,"▁properly":11918,"▁efficient":11919,"▁mistake.":11920,"▁Sometimes,":11921,"▁grandm":11922,"▁religious":11923,"▁California":11924,"▁tablesp":11925,"born":11926,"▁kiếm.":11927,"▁chét":11928,"▁dưỡ":11929,"▁Tiền":11930,"▁Norm":11931,"leg":11932,"▁Bus":11933,"▁Benn":11934,"▁Mem":11935,"iday":11936,"▁stro":11937,"▁Lặp":11938,"▁aside":11939,"▁abdom":11940,"▁intens":11941,"berg":11942,"ak.":11943,"▁Pho":11944,"▁committed":11945,"▁Quả":11946,"▁vực.":11947,"▁weeks,":11948,"ashed":11949,"▁awkward":11950,"▁đá.":11951,"▁facial":11952,"▁lành.":11953,"▁forgott":11954,"▁cún":11955,"▁Control":11956,"▁enemy":11957,"▁tamp":11958,"▁Hello,":11959,"▁ocean":11960,"▁Singap":11961,"//":11962,"://":11963,"ín":11964,"ẻo":11965,"▁ấm.":11966,"▁túng":11967,"▁nú":11968,"▁nếp":11969,"▁đứt":11970,"▁punch":11971,"▁Too":11972,"▁fal":11973,"▁Yet":11974,"▁(e.":11975,"▁outdo":11976,"▁leaf":11977,"▁intr":11978,"▁should've":11979,"▁desper":11980,"▁fine,":11981,"▁question,":11982,"▁painful":11983,"▁calc":11984,"▁Somebody":11985,"▁đông.":11986,"▁pleasure":11987,"▁Colon":11988,"▁dinner.":11989,"▁strike":11990,"▁bullet":11991,"▁mentioned":11992,"▁director":11993,"▁Canada":11994,"▁hormone":11995,"▁exchange":11996,"▁fundamental":11997,"▁already.":11998,"ued":11999,"za":12000,"▁ương":12001,"▁cable":12002,"▁nerve":12003,"▁sou":12004,"▁huyền":12005,"ere.":12006,"▁nhã":12007,"▁chosen":12008,"▁Chương":12009,"▁stress.":12010,"all.":12011,"▁Lời":12012,"▁Kr":12013,"▁Kong":12014,"ila":12015,"elly":12016,"▁khoái":12017,"▁'A":12018,"▁compared":12019,"▁interf":12020,"▁mold":12021,"▁relief":12022,"▁Ash":12023,"▁10,":12024,"▁assert":12025,"▁tư.":12026,"▁Island":12027,"▁else,":12028,"▁prescription":12029,"▁crew":12030,"ounce":12031,"▁reason.":12032,"▁potentially":12033,"▁lai,":12034,"▁sớm.":12035,"▁$2":12036,"▁shooting":12037,"▁cyc":12038,"▁\"Do":12039,"▁Charles":12040,"▁underneath":12041,"10":12042,"Tun":12043,"ober":12044,"▁khiếu":12045,"▁pharm":12046,"▁xì":12047,"roph":12048,"▁not?":12049,"▁worry,":12050,"▁intim":12051,"▁then?":12052,"▁perce":12053,"▁longer.":12054,"▁killer":12055,"pha":12056,"▁sợ,":12057,"▁xúc.":12058,"▁kidney":12059,"▁vọng,":12060,"▁đấu.":12061,"▁nhạc,":12062,"▁Jack,":12063,"▁issues.":12064,"▁machine.":12065,"▁suspic":12066,"▁Matth":12067,"▁valuable":12068,"▁YouTube":12069,"▁mirac":12070,"▁(e.g.":12071,"-4":12072,"cent.":12073,"s:":12074,"x.":12075,"▁htt":12076,"▁wipe":12077,"▁gum":12078,"ature.":12079,"▁nhện":12080,"▁CH":12081,"vey":12082,"▁Nè,":12083,"▁Serv":12084,"▁Kar":12085,"▁Gar":12086,"ists.":12087,"▁everyday":12088,"▁scan":12089,"▁finds":12090,"▁thiết,":12091,"▁chơi,":12092,"▁woman,":12093,"▁Chúa,":12094,"▁complain":12095,"▁moments":12096,"▁John.":12097,"▁Leon":12098,"▁messages":12099,"▁\"Ng":12100,"▁răng.":12101,"▁dối.":12102,"▁motion":12103,"▁addition,":12104,"▁birthday":12105,"▁debt":12106,"▁Contin":12107,"▁shaped":12108,"▁negoti":12109,"▁NASA":12110,"ss":12111,"▁sill":12112,"▁vom":12113,"▁voc":12114,"▁pink":12115,"ette":12116,"▁A,":12117,"▁Hon":12118,"▁Vua":12119,"▁neither":12120,"▁(d":12121,"▁(and":12122,"▁File":12123,"▁examin":12124,"▁Jane":12125,"rav":12126,"▁play.":12127,"▁số,":12128,"ives,":12129,"▁academ":12130,"▁prem":12131,"▁10.":12132,"▁phương,":12133,"▁Also":12134,"▁lâu,":12135,"▁simpl":12136,"▁2012":12137,"▁department":12138,"▁bit.":12139,"▁evolution":12140,"reme":12141,"▁fruits":12142,"▁strategic":12143,"▁Iran":12144,"▁officials":12145,"▁Today":12146,"▁split":12147,"11":12148,"ners":12149,"▁fishing":12150,"▁Thư":12151,"▁Sub":12152,"▁relev":12153,"▁hol":12154,"▁Gry":12155,"▁Far":12156,"▁maxim":12157,"▁Trang":12158,"▁unif":12159,"▁dry.":12160,"▁Hoàn":12161,"▁Chúa.":12162,"▁cat's":12163,"▁iTun":12164,"▁bụng.":12165,"▁voi":12166,"▁oblig":12167,"▁Ê,":12168,"down":12169,"ner,":12170,"wise,":12171,"▁tắm.":12172,"▁vote":12173,"▁dậy.":12174,"▁pháo":12175,"ali":12176,"▁AID":12177,"▁xô":12178,"▁weigh":12179,"▁Lie":12180,"▁loyal":12181,"▁seeking":12182,"phere":12183,"▁2010":12184,"▁compliment":12185,"▁words.":12186,"▁tím":12187,"▁fourth":12188,"▁paper.":12189,"▁Đông.":12190,"▁York,":12191,"▁Instagram":12192,"▁murd":12193,"▁ốm":12194,"▁elements":12195,"-m":12196,"PP":12197,"zy":12198,"▁uốn":12199,"▁đinh":12200,"▁bú":12201,"▁chườm":12202,"▁wa":12203,"▁dating":12204,"▁Saf":12205,"▁why.":12206,"▁hoa.":12207,"▁storm":12208,"▁Lang":12209,"▁frag":12210,"▁Rand":12211,"abl":12212,"umps":12213,"▁khoang":12214,"▁3D":12215,"▁Xe":12216,"▁boy,":12217,"intend":12218,"phas":12219,"▁rõ.":12220,"▁insert":12221,"▁latest":12222,"▁Span":12223,"▁friendship":12224,"▁bè.":12225,"▁cưng.":12226,"▁apartment":12227,"▁disease,":12228,"▁1/4":12229,"▁Roman":12230,"▁(German":12231,"▁Ident":12232,"▁Settings":12233,"▁Imagine":12234,"MI":12235,"father":12236,"lim":12237,"of":12238,"tail":12239,"▁cò":12240,"▁cos":12241,"▁son,":12242,"▁bọt":12243,"▁mos":12244,"▁lướt":12245,"▁vig":12246,"▁chain":12247,"▁dumb":12248,"▁pier":12249,"▁oven":12250,"▁Cá":12251,"▁xay":12252,"▁xa,":12253,"▁lips":12254,"▁heaven":12255,"▁Gree":12256,"ulting":12257,"▁Rằng":12258,"▁nghĩa.":12259,"▁nhận,":12260,"▁acts":12261,"▁poly":12262,"▁puts":12263,"▁Altern":12264,"▁real.":12265,"▁addict":12266,"ilities.":12267,"▁governments":12268,"▁protecting":12269,"▁law.":12270,"▁teaching":12271,"▁attack.":12272,"▁Flor":12273,"▁challenges":12274,"▁yet?":12275,"▁satell":12276,"▁sister.":12277,"▁hãi.":12278,"▁honey.":12279,"▁manufactur":12280,"▁September":12281,"i?":12282,"ker":12283,"▁nause":12284,"▁đỗ":12285,"▁bóc":12286,"▁vặn":12287,"ina.":12288,"▁pushing":12289,"ane.":12290,"itis":12291,"ese,":12292,"▁CEO":12293,"▁Ctrl":12294,"oty":12295,"iments":12296,"▁Chief":12297,"thetic":12298,"▁Rod":12299,"▁mail":12300,"▁feature":12301,"▁think?":12302,"▁nhớ.":12303,"▁strain":12304,"▁hard.":12305,"▁solar":12306,"▁information,":12307,"▁government.":12308,"▁ordered":12309,"▁store.":12310,"▁OK?":12311,"▁industrial":12312,"▁Jean":12313,"▁Depending":12314,"▁techniques":12315,"▁interpret":12316,"▁cigare":12317,"ui":12318,"ém":12319,"óm.":12320,"▁cống":12321,"▁nap":12322,"▁ven":12323,"▁chảo":12324,"rene":12325,"▁nhổ":12326,"▁I?":12327,"▁một,":12328,"aced":12329,"▁Kiểu":12330,"▁\",":12331,"ella":12332,"ecraft":12333,"aks":12334,"▁brill":12335,"▁everywhere":12336,"▁bộc":12337,"▁Giám":12338,"▁remem":12339,"▁supple":12340,"▁idea,":12341,"▁entertain":12342,"▁discom":12343,"▁Argent":12344,"▁Zh":12345,"▁answers":12346,"▁situation,":12347,"▁returned":12348,"▁Earth.":12349,"▁hydro":12350,"▁Francisc":12351,"▁toxic":12352,"▁October":12353,"▁philosoph":12354,"RA":12355,"war":12356,"▁mảng":12357,"▁mile":12358,"▁mầm":12359,"▁merc":12360,"▁lê":12361,"▁kg":12362,"▁kitten":12363,"▁trêu":12364,"▁inher":12365,"▁xách":12366,"▁Chia":12367,"▁Động":12368,"▁Log":12369,"▁mai,":12370,"▁khác?":12371,"ude,":12372,"▁apple":12373,"▁minister":12374,"▁slide":12375,"▁lovely":12376,"▁Brook":12377,"▁depart":12378,"▁profile":12379,"▁cũ,":12380,"▁Indones":12381,"▁fire.":12382,"▁massive":12383,"▁fairly":12384,"▁carrying":12385,"▁table.":12386,"▁grav":12387,"▁continued":12388,"▁empath":12389,"▁excellent":12390,"R.":12391,"▁dở":12392,"▁pad":12393,"itime":12394,"▁ngớ":12395,"using":12396,"▁Tháng":12397,"▁này:":12398,"▁Gab":12399,"▁độ,":12400,"ript":12401,"▁someone.":12402,"ecess":12403,"▁unex":12404,"▁bỏ.":12405,"▁remote":12406,"▁moves":12407,"▁me...":12408,"▁Hoà":12409,"▁basis":12410,"▁luật.":12411,"▁cân.":12412,"▁\"If":12413,"▁provides":12414,"▁providing":12415,"▁50%":12416,"▁duỗi":12417,"▁Supp":12418,"▁effectively":12419,"▁violence":12420,"▁environmental":12421,"▁compassion":12422,"▁laser":12423,"▁Virgin":12424,"▁discomfort":12425,"-r":12426,"ule":12427,"▁ought":12428,"▁nặng.":12429,"▁bẻ":12430,"re.":12431,"▁Tưởng":12432,"▁ngay,":12433,"▁rộn":12434,"alin":12435,"▁Send":12436,"▁Sund":12437,"▁Đồ":12438,"oops":12439,"▁Day":12440,"ura":12441,"▁mean.":12442,"▁Rad":12443,"▁Rub":12444,"▁cần,":12445,"▁age,":12446,"▁mất,":12447,"▁change,":12448,"▁guy?":12449,"▁Myan":12450,"▁ràng,":12451,"▁message.":12452,"▁field.":12453,"d.":12454,"gr":12455,"ji":12456,"▁sản.":12457,"▁bust":12458,"▁vert":12459,"ination.":12460,"▁yến":12461,"ena":12462,"amed":12463,"▁đãi":12464,"▁stood":12465,"ado":12466,"▁Dun":12467,"▁shr":12468,"▁Penn":12469,"▁lại!":12470,"▁alert":12471,"place":12472,"▁blister":12473,"▁Giảm":12474,"▁phí.":12475,"▁chủ,":12476,"▁trí,":12477,"▁highlight":12478,"▁opens":12479,"▁guest":12480,"▁lãi":12481,"▁March":12482,"▁trợ.":12483,"▁testing":12484,"▁explan":12485,"▁lắng,":12486,"▁Blue":12487,"▁close.":12488,"▁drinks":12489,"▁program.":12490,"▁tĩnh.":12491,"▁estim":12492,"▁huynh":12493,"▁walls":12494,"▁khứ.":12495,"▁gradu":12496,"▁intellect":12497,"▁convince":12498,"▁Louis":12499,"▁ultim":12500,"▁democracy":12501,"▁Afghanist":12502,"T.":12503,"▁chằm":12504,"▁checking":12505,"▁nhí":12506,"▁nguyền":12507,"▁phớt":12508,"▁eld":12509,"▁Nove":12510,"▁Sign":12511,"▁Div":12512,"acy,":12513,"▁Lập":12514,"▁mày,":12515,"▁oral":12516,"▁1000":12517,"ops":12518,"▁Eas":12519,"▁plus":12520,"▁Ngân":12521,"▁enorm":12522,"▁Phân":12523,"▁vụn":12524,"▁lời,":12525,"▁lượng,":12526,"▁thị.":12527,"▁own,":12528,"▁vẻ.":12529,"▁hyper":12530,"▁Arch":12531,"▁mother's":12532,"▁Dev":12533,"▁bang.":12534,"▁Jack.":12535,"▁determined":12536,"▁observ":12537,"▁Remember,":12538,"▁birds":12539,"▁unusual":12540,"line,":12541,"ươn":12542,"▁ái":12543,"▁tel":12544,"▁damp":12545,"▁vàng,":12546,"ot,":12547,"▁Wat":12548,"▁Duy":12549,"▁fright":12550,"▁one?":12551,"▁pepp":12552,"▁may,":12553,"▁prices":12554,"▁overn":12555,"▁brothers":12556,"▁going,":12557,"▁scene":12558,"▁thought.":12559,"▁medit":12560,"▁obst":12561,"▁kids,":12562,"▁schools":12563,"▁phủ.":12564,"▁soát.":12565,"▁dàng.":12566,"▁Princ":12567,"▁beneath":12568,"▁parents.":12569,"▁Đức)":12570,"▁selected":12571,"▁urban":12572,"▁digest":12573,"▁cancer.":12574,"▁Sarah":12575,"▁blocks":12576,"▁increasingly":12577,"▁automatically":12578,"▁Excuse":12579,"▁cruc":12580,"E.":12581,"▁tal":12582,"▁chục":12583,"▁dil":12584,"▁dưa":12585,"▁nhúng":12586,"▁Thiếu":12587,"▁Ms.":12588,"▁recept":12589,"▁cô?":12590,"▁advert":12591,"▁parties":12592,"▁teasp":12593,"▁start.":12594,"▁hands,":12595,"▁quyền,":12596,"ermine":12597,"▁điện,":12598,"▁600":12599,"▁thư,":12600,"▁genu":12601,"▁nghiền":12602,"ificial":12603,"▁planet.":12604,"▁minds":12605,"▁America.":12606,"▁hoạch.":12607,"▁độc.":12608,"▁bloody":12609,"▁remember,":12610,"▁lạ,":12611,"▁cups":12612,"▁multip":12613,"▁essentially":12614,"▁Gener":12615,"▁Địa":12616,"i's":12617,"nel":12618,"rating":12619,"under":12620,"▁`":12621,"▁thắn":12622,"▁nệ":12623,"▁hunt":12624,"▁chì":12625,"▁ngộ":12626,"▁ngụ":12627,"▁Counc":12628,"▁that...":12629,"▁Hang":12630,"ctic":12631,"▁state.":12632,"▁orange":12633,"▁1,000":12634,"▁1-2":12635,"▁loãng":12636,"▁em?":12637,"▁bị.":12638,"ai.":12639,"▁cogn":12640,"▁compare":12641,"▁comprom":12642,"▁bố,":12643,"▁giáo,":12644,"▁khí,":12645,"▁left,":12646,"▁dầu.":12647,"▁paste":12648,"▁profit":12649,"▁trend":12650,"▁ngờ.":12651,"▁trắng,":12652,"▁country's":12653,"▁forward.":12654,"▁Ước":12655,"▁somehow":12656,"▁frozen":12657,"eed,":12658,"▁cub":12659,"▁lột":12660,"▁Things":12661,"▁xông":12662,"▁Hồng":12663,"▁Want":12664,"▁conce":12665,"▁Vall":12666,"▁Esp":12667,"▁ma'":12668,"▁just...":12669,"ra,":12670,"iped":12671,"▁imper":12672,"heast":12673,"▁bridge":12674,"▁part.":12675,"▁lifesty":12676,"▁Taking":12677,"▁quyết.":12678,"▁dair":12679,"▁gái,":12680,"▁night?":12681,"▁Unfortunately,":12682,"▁Maria":12683,"▁today?":12684,"▁sư.":12685,"▁optim":12686,"ium.":12687,"▁infected":12688,"▁soldiers":12689,"▁orders":12690,"▁senior":12691,"▁DVD":12692,"ha":12693,"rition":12694,"w,":12695,"▁sess":12696,"▁dồn":12697,"▁nhét":12698,"edic":12699,"▁enh":12700,"▁None":12701,"▁quầy":12702,"▁Sắp":12703,"aming":12704,"▁Đổ":12705,"▁Grou":12706,"▁Ret":12707,"▁hơn?":12708,"▁UN":12709,"▁muỗi":12710,"▁31":12711,"▁Str":12712,"▁contribute":12713,"▁bên.":12714,"▁Holly":12715,"▁guy's":12716,"▁6.":12717,"▁giác.":12718,"▁gluc":12719,"▁exposed":12720,"▁transition":12721,"▁muscl":12722,"▁larg":12723,"▁phim.":12724,"▁models":12725,"▁relationship,":12726,"▁pretend":12727,"▁khô,":12728,"▁đô.":12729,"▁barri":12730,"▁hydrogen":12731,"▁victims":12732,"▁Today,":12733,"▁Snap":12734,"▁Secretary":12735,"▁caffeine":12736,"K:":12737,"S:":12738,"can":12739,"▁lord":12740,"▁gạc":12741,"▁nhấc":12742,"ingly":12743,"asal":12744,"idge.":12745,"ame.":12746,"▁shir":12747,"ems":12748,"▁\"U":12749,"▁\"y":12750,"▁ass.":12751,"▁lại?":12752,"▁needed.":12753,"▁Uh":12754,"▁makeup":12755,"▁thing?":12756,"▁buồn.":12757,"▁feel.":12758,"▁unn":12759,"▁tên.":12760,"▁carri":12761,"▁skip":12762,"vention":12763,"▁đau,":12764,"▁heads":12765,"▁2010,":12766,"▁2012,":12767,"▁bask":12768,"▁Marg":12769,"▁location.":12770,"▁Spec":12771,"▁legisl":12772,"▁mother,":12773,"▁Prob":12774,"▁lửa.":12775,"▁stretch":12776,"▁chạy.":12777,"40":12778,"bec":12779,"ler,":12780,"point":12781,"rates":12782,"uge":12783,"▁hired":12784,"▁vã":12785,"▁gởi":12786,"▁tráng":12787,"▁triều":12788,"▁phone,":12789,"▁Hait":12790,"▁stone":12791,"▁weight.":12792,"all,":12793,"▁Girl":12794,"▁sector":12795,"▁soot":12796,"▁Either":12797,"▁(Đ":12798,"▁embr":12799,"▁out!":12800,"▁Trao":12801,"▁wanting":12802,"▁noise":12803,"▁Connect":12804,"▁đoạt":12805,"▁great,":12806,"▁mở.":12807,"▁formal":12808,"▁thủ.":12809,"▁building.":12810,"▁politics":12811,"▁Develop":12812,"▁driver":12813,"▁machines":12814,"▁\"This":12815,"▁drawing":12816,"▁fixed":12817,"▁December":12818,"▁insurance":12819,"aver":12820,"way.":12821,"▁nice.":12822,"▁sữ":12823,"▁drawn":12824,"▁rank":12825,"▁giận.":12826,"▁AT":12827,"▁Sit":12828,"▁Sếp":12829,"e.\"":12830,"elcom":12831,"▁Đứng":12832,"▁Lão":12833,"▁họ?":12834,"▁this!":12835,"▁Right,":12836,"▁process,":12837,"aste":12838,"▁diam":12839,"▁die,":12840,"▁grat":12841,"▁relie":12842,"▁cars":12843,"▁clear.":12844,"▁thoughts.":12845,"orsk":12846,"▁vệ.":12847,"▁metaph":12848,"▁metabol":12849,"▁mạng,":12850,"▁discip":12851,"▁(Ch":12852,"▁xanh,":12853,"▁thận,":12854,"▁personality":12855,"▁giây,":12856,"▁suggests":12857,"▁litter":12858,"▁System":12859,"▁July":12860,"▁aggressive":12861,"▁uncomfortable":12862,"5%":12863,"▁cure":12864,"▁thay,":12865,"▁bay,":12866,"▁dốc":12867,"▁por":12868,"ateral":12869,"▁toy":12870,"▁rảnh":12871,"▁CIA":12872,"▁Niger":12873,"▁Bol":12874,"▁Mong":12875,"▁doors":12876,"▁Water":12877,"▁rac":12878,"ston":12879,"ola":12880,"▁Olym":12881,"▁from?":12882,"▁features":12883,"▁advent":12884,"▁thoái":12885,"▁'ch":12886,"▁gọi.":12887,"▁sure,":12888,"▁thú.":12889,"▁Union":12890,"▁important,":12891,"▁baby,":12892,"▁(Th":12893,"▁thấp.":12894,"▁picture.":12895,"▁USD":12896,"▁seriously":12897,"▁injured":12898,"▁Laurel":12899,"▁citizen":12900,"▁tạo,":12901,"▁countries.":12902,"▁permanent":12903,"▁(German:":12904,"path":12905,"▁tatt":12906,"▁nề":12907,"▁hem":12908,"▁lánh":12909,"▁vital":12910,"▁chew":12911,"▁dadd":12912,"▁trigg":12913,"otic":12914,"▁Mod":12915,"ams":12916,"▁we?":12917,"▁Lady":12918,"▁somewhere.":12919,"▁giờ?":12920,"▁needs.":12921,"▁Us":12922,"▁everyone.":12923,"▁Conf":12924,"▁compar":12925,"▁flour":12926,"▁differences":12927,"▁dân.":12928,"▁someone's":12929,"▁bad,":12930,"▁cửa,":12931,"▁creature":12932,"▁concret":12933,"▁giấy.":12934,"ium,":12935,"▁myself,":12936,"▁exciting":12937,"▁football":12938,"▁feedback":12939,"▁century,":12940,"▁goals.":12941,"▁cm)":12942,"▁appointment":12943,"▁border":12944,"▁fortun":12945,"▁Download":12946,"▁nguội":12947,"▁Florid":12948,"C)":12949,"IN":12950,"▁church":12951,"▁chlor":12952,"▁trương":12953,"▁Mount":12954,"▁stars":12955,"▁Dick":12956,"▁Pull":12957,"▁Feb":12958,"▁thực,":12959,"▁tựa":12960,"▁quyên":12961,"▁clar":12962,"▁loại.":12963,"▁percent.":12964,"▁cứu,":12965,"▁bình,":12966,"▁clean.":12967,"▁childhood":12968,"▁regul":12969,"▁kể.":12970,"▁sets":12971,"▁schol":12972,"▁disturb":12973,"▁airport":12974,"▁computers":12975,"▁checked":12976,"▁electrical":12977,"▁1990":12978,"▁mạch.":12979,"▁este":12980,"▁professor":12981,"▁mistakes":12982,"▁ridicul":12983,"▁growth.":12984,"▁McC":12985,"▁sick.":12986,"▁puzz":12987,"▁(cười)":12988,"▁Úc":12989,"aj":12990,"burn":12991,"rant":12992,"▁cược":12993,"▁nứt":12994,"▁kệ":12995,"▁chéo":12996,"▁wine":12997,"ator,":12998,"▁Syl":12999,"▁xỏ":13000,"▁nàng.":13001,"▁điền":13002,"▁được!":13003,"▁cán":13004,"▁withd":13005,"▁Young":13006,"▁orch":13007,"▁jur":13008,"▁jaw":13009,"▁suýt":13010,"ested":13011,"▁từ.":13012,"▁Trả":13013,"▁UV":13014,"▁appeared":13015,"▁lifet":13016,"weet":13017,"▁talks":13018,"▁lập.":13019,"▁tượng,":13020,"▁stayed":13021,"▁refr":13022,"▁joined":13023,"▁sắc.":13024,"▁xanh.":13025,"▁typical":13026,"▁touching":13027,"▁cold.":13028,"▁illness":13029,"▁1980":13030,"▁Christian":13031,"▁loss.":13032,"▁argue":13033,"▁flowers":13034,"▁'th":13035,"▁exhib":13036,"▁báo,":13037,"▁consequences":13038,"▁scratch":13039,"▁eliminate":13040,"▁Atlant":13041,"▁furnit":13042,"ET":13043,"oons":13044,"ưng.":13045,"ặn.":13046,"▁therm":13047,"▁chưa.":13048,"▁gap":13049,"rell":13050,"▁Times":13051,"▁Cur":13052,"▁phì":13053,"▁giant":13054,"▁SP":13055,"▁Mao":13056,"▁Post":13057,"▁Rh":13058,"▁Fill":13059,"▁luận.":13060,"▁however":13061,"▁Quy":13062,"▁adapt":13063,"ittee":13064,"▁goodby":13065,"▁moon":13066,"▁drive.":13067,"▁show.":13068,"▁surge":13069,"▁đáng.":13070,"▁happened,":13071,"▁obtain":13072,"▁default":13073,"▁music,":13074,"▁cheek":13075,"▁brain,":13076,"ribution":13077,"▁joke":13078,"▁faces":13079,"▁Prov":13080,"▁hãm":13081,"▁obser":13082,"▁Camer":13083,"▁ordinary":13084,"▁\"Oh,":13085,"▁struggle":13086,"▁insulin":13087,"▁reinfor":13088,"▁Matthew":13089,"90":13090,"cel":13091,"met":13092,"o's":13093,"▁ớt":13094,"▁cac":13095,"▁vâng,":13096,"▁vấn.":13097,"▁wart":13098,"▁Tyl":13099,"▁rates":13100,"▁Matt":13101,"▁holes":13102,"▁Leg":13103,"▁healing":13104,"y.\"":13105,"▁(k":13106,"olen":13107,"rie":13108,"▁she'd":13109,"▁saying.":13110,"▁disrupt":13111,"▁hệt":13112,"ense.":13113,"▁underlying":13114,"▁Toky":13115,"▁awes":13116,"▁explor":13117,"▁breaks":13118,"▁trusted":13119,"▁teachers":13120,"▁data.":13121,"▁\"Well,":13122,"▁appearance":13123,"▁điên.":13124,"▁game,":13125,"▁thù.":13126,"▁guns":13127,"▁soldier":13128,"▁strategy":13129,"▁Underwood":13130,"▁January":13131,"▁anywhere.":13132,"▁kiêng":13133,"▁epis":13134,"▁surrounding":13135,"▁pounds":13136,"▁Sherlock":13137,"▁(chẳng":13138,"▁traffic":13139,"▁capacity":13140,"▁mosqu":13141,"▁November":13142,"ah,":13143,"lin,":13144,"▁nãy":13145,"▁sưu":13146,"▁bồ":13147,"▁ba.":13148,"▁chắn.":13149,"▁trắc":13150,"▁rách":13151,"▁Thỉnh":13152,"▁Sel":13153,"▁Hir":13154,"▁Video":13155,"▁Danh":13156,"▁Disc":13157,"▁Kind":13158,"▁(the":13159,"▁Fitz":13160,"▁prol":13161,"▁Web":13162,"▁nhưng,":13163,"▁divers":13164,"▁máy,":13165,"▁overcome":13166,"▁offering":13167,"▁thông.":13168,"▁appeal":13169,"▁She'll":13170,"▁inspir":13171,"▁ổng.":13172,"▁chịu,":13173,"▁girls.":13174,"▁hardly":13175,"▁body's":13176,"▁anything?":13177,"▁eat.":13178,"▁laund":13179,"▁advanced":13180,"▁tiện,":13181,"▁reports":13182,"▁Such":13183,"▁husband.":13184,"▁portion":13185,"▁authority":13186,"▁destroyed":13187,"▁Recogn":13188,"▁lawyer":13189,"▁monster":13190,"▁ahead.":13191,"▁Jacob":13192,"▁Chuyển":13193,"▁Professor":13194,"▁Ờ,":13195,"craft":13196,"▁?":13197,"▁luyện.":13198,"▁kỵ":13199,"▁trán":13200,"▁Cover":13201,"▁Nàng":13202,"▁Bay":13203,"▁Hand":13204,"▁nóng,":13205,"ang.":13206,"illa":13207,"▁Dự":13208,"▁Light":13209,"▁Kéo":13210,"▁\"nh":13211,"▁this:":13212,"agg":13213,"▁(l":13214,"sey":13215,"▁Five":13216,"▁Form":13217,"▁intake":13218,"▁percept":13219,"▁grass":13220,"▁boot":13221,"▁10,000":13222,"▁chế.":13223,"▁sức.":13224,"▁decades":13225,"▁child,":13226,"▁happening.":13227,"▁Shut":13228,"▁maritime":13229,"▁music.":13230,"▁Spart":13231,"▁heart,":13232,"▁Rev":13233,"▁support.":13234,"▁artificial":13235,"▁laid":13236,"▁employees":13237,"▁order.":13238,"▁repeated":13239,"▁Determine":13240,"▁brave":13241,"▁Jimmy":13242,"▁dimens":13243,"▁moisturiz":13244,"▁jewel":13245,"o\"":13246,"▁tons":13247,"▁aer":13248,"▁chart":13249,"atom":13250,"anth":13251,"ison,":13252,"▁door,":13253,"▁trong,":13254,"▁Dầu":13255,"▁Life":13256,"▁ông?":13257,"▁anyway":13258,"▁clicking":13259,"▁talk,":13260,"▁owned":13261,"▁assass":13262,"▁guess.":13263,"▁prescribe":13264,"▁2011,":13265,"▁export":13266,"▁money?":13267,"▁depos":13268,"▁reason,":13269,"▁creates":13270,"▁armed":13271,"▁driven":13272,"▁khuynh":13273,"▁Colomb":13274,"▁buried":13275,"▁competition":13276,"▁kingdom":13277,"▁ancest":13278,"▁rabbit":13279,"▁innocent":13280,"▁phenomen":13281,"▁grandmother":13282,"SP":13283,"ixt":13284,"uan":13285,"▁ty.":13286,"▁city,":13287,"▁thối":13288,"▁na":13289,"▁bored":13290,"▁hire":13291,"▁lin":13292,"erry":13293,"▁pul":13294,"▁tràng":13295,"▁Nintend":13296,"▁Snow":13297,"▁Điểm":13298,"▁(su":13299,"▁plug":13300,"▁Ngược":13301,"▁trình,":13302,"▁''":13303,"▁carried":13304,"▁slip":13305,"▁player":13306,"▁studied":13307,"▁past,":13308,"▁brains":13309,"▁computer,":13310,"▁hurt.":13311,"▁corrupt":13312,"▁war,":13313,"▁tonight,":13314,"▁encounter":13315,"▁tasks":13316,"▁Prep":13317,"▁exhaust":13318,"▁Latin":13319,"▁Wilson":13320,"▁countries,":13321,"▁Social":13322,"▁neutral":13323,"▁guilty":13324,"▁April":13325,"ied,":13326,"àn.":13327,"▁ủ":13328,"▁súp":13329,"▁sẹo":13330,"▁bump":13331,"▁láng":13332,"▁vắc":13333,"▁cha.":13334,"inter":13335,"▁City.":13336,"▁Six":13337,"▁Bern":13338,"▁once,":13339,"cture":13340,"▁Loc":13341,"▁areas.":13342,"▁shy":13343,"▁cách,":13344,"ureau":13345,"▁thời.":13346,"▁ways.":13347,"▁arrow":13348,"▁190":13349,"▁chọn,":13350,"ney,":13351,"▁phẩm,":13352,"▁instruction":13353,"▁importance":13354,"▁deter":13355,"▁topic":13356,"▁lesson":13357,"▁stands":13358,"▁phim,":13359,"▁sư,":13360,"▁legit":13361,"▁hồ.":13362,"▁rising":13363,"▁lá.":13364,"▁viện,":13365,"▁data,":13366,"▁group.":13367,"▁tạp.":13368,"▁officer":13369,"▁Khoa":13370,"▁dye":13371,"-xa":13372,"▁CO2":13373,"▁institutions":13374,"▁nutrients":13375,"▁fascin":13376,"25":13377,"O.":13378,"TS":13379,"ko":13380,"ra.":13381,"▁tone":13382,"▁nest":13383,"▁bed,":13384,"▁lều":13385,"▁vỉ":13386,"▁vươn":13387,"▁gục":13388,"▁theat":13389,"▁khéo":13390,"▁triệt":13391,"▁far.":13392,"▁Thị":13393,"▁xá":13394,"▁dozen":13395,"ilize":13396,"▁Rest":13397,"▁Feel":13398,"▁emphas":13399,"umin":13400,"▁fears":13401,"▁feet,":13402,"00.":13403,"▁không?\"":13404,"▁clip":13405,"ogether":13406,"▁letters":13407,"encies":13408,"▁attor":13409,"▁gene":13410,"▁Quý":13411,"▁giáo.":13412,"▁cười,":13413,"▁color.":13414,"▁tàu.":13415,"▁tường.":13416,"▁cyst":13417,"▁fish.":13418,"▁Tốt,":13419,"▁Steven":13420,"▁button.":13421,"▁mirror":13422,"▁occasion":13423,"▁vulnerable":13424,"ius.":13425,"rot":13426,"ship":13427,"▁nơ":13428,"▁đạo,":13429,"▁bind":13430,"▁hạch":13431,"▁mớ":13432,"▁melt":13433,"▁dải":13434,"onin":13435,"▁input":13436,"▁giãn.":13437,"asm":13438,"▁ec":13439,"▁Hor":13440,"▁is...":13441,"▁on!":13442,"enth":13443,"▁anh!":13444,"▁heo":13445,"▁Gall":13446,"▁Fort":13447,"▁class,":13448,"▁Ngủ":13449,"ordinary":13450,"▁ngay!":13451,"▁kinh.":13452,"less.":13453,"▁viết.":13454,"airs.":13455,"▁eye.":13456,"▁passing":13457,"▁colored":13458,"▁politic":13459,"▁engaged":13460,"▁questions,":13461,"▁tĩnh,":13462,"▁voice.":13463,"▁Jackson":13464,"▁\"Bạn":13465,"▁clothes.":13466,"▁winter":13467,"▁wall.":13468,"▁Again,":13469,"▁exercise.":13470,"olution.":13471,"▁Serge":13472,"▁accident.":13473,"▁Better":13474,"▁Southeast":13475,"respond":13476,"\")":13477,"cour":13478,"press":13479,"son.":13480,"uit":13481,"ũa":13482,"▁đính":13483,"▁báu":13484,"▁palm":13485,"▁nhai":13486,"▁nhượng":13487,"▁troub":13488,"om.":13489,"▁Ath":13490,"▁Search":13491,"▁tak":13492,"▁Bat":13493,"▁sav":13494,"▁Dist":13495,"▁gìn":13496,"▁sovere":13497,"▁us!":13498,"▁space,":13499,"▁intense":13500,"▁action.":13501,"▁grade":13502,"▁Giao":13503,"▁happiness":13504,"▁boil":13505,"▁chiến.":13506,"▁big,":13507,"▁producing":13508,"▁courage":13509,"▁cat.":13510,"▁formula":13511,"▁word,":13512,"▁Okay.":13513,"▁correspond":13514,"▁mũi.":13515,"▁difficulty":13516,"▁card.":13517,"▁brother,":13518,"▁sorts":13519,"▁records":13520,"▁policies":13521,"▁concerns":13522,"▁dangerous.":13523,"the-c":13524,"▁não,":13525,"▁controlled":13526,"▁navig":13527,"▁contrast":13528,"▁toilet":13529,"▁surgery.":13530,"IM":13531,"ửa.":13532,"▁đòn":13533,"▁lun":13534,"▁lít":13535,"▁pra":13536,"▁trinh":13537,"iter":13538,"▁ngọ":13539,"or's":13540,"▁ros":13541,"▁rose":13542,"edul":13543,"▁xao":13544,"▁Mot":13545,"▁Merc":13546,"▁Hall":13547,"▁it...":13548,"outs":13549,"▁straw":13550,"▁Đâu":13551,"▁Vol":13552,"▁Veg":13553,"s,\"":13554,"▁Ey":13555,"▁(F":13556,"▁dehyd":13557,"▁29":13558,"▁2-3":13559,"▁tựu":13560,"▁prost":13561,"▁buýt":13562,"▁implement":13563,"enced":13564,"▁afterno":13565,"▁Alf":13566,"▁cổ,":13567,"▁8,":13568,"▁tích.":13569,"▁home?":13570,"▁month,":13571,"▁conclus":13572,"▁casual":13573,"▁oils":13574,"▁giản,":13575,"▁organized":13576,"▁conversations":13577,"▁250":13578,"evit":13579,"▁giường.":13580,"▁ngực.":13581,"▁Georg":13582,"▁apart.":13583,"▁Detect":13584,"▁consistent":13585,"▁organizations":13586,"▁Studies":13587,"▁vessels":13588,"▁Twitter":13589,"▁galax":13590,"ON":13591,"▁thiện.":13592,"▁nản":13593,"▁đàng":13594,"▁hars":13595,"▁gau":13596,"▁ped":13597,"onut":13598,"▁nhiệm.":13599,"isk":13600,"▁Cra":13601,"▁Bức":13602,"▁Mau":13603,"▁Man,":13604,"▁Lựa":13605,"▁J.":13606,"▁changes.":13607,"▁conserv":13608,"▁planned":13609,"▁2011":13610,"▁transpl":13611,"▁đá,":13612,"▁holds":13613,"▁option.":13614,"▁risks":13615,"▁sir?":13616,"▁expecting":13617,"▁Eliz":13618,"▁periods":13619,"▁Finally,":13620,"▁(và":13621,"▁ADH":13622,"▁swelling":13623,"▁acknowledge":13624,"▁pizza":13625,"▁grateful":13626,"L.":13627,"by,":13628,"dy":13629,"▁cối":13630,"▁crop":13631,"▁nan":13632,"▁hàn":13633,"▁gest":13634,"▁these.":13635,"▁nhả":13636,"▁Tam":13637,"▁Tăng":13638,"▁Tướng":13639,"▁Tạm":13640,"▁fib":13641,"▁Của":13642,"ash,":13643,"▁quot":13644,"▁Beck":13645,"▁that!":13646,"▁Must":13647,"▁Hop":13648,"utch":13649,"▁cho.":13650,"▁lives,":13651,"th,":13652,"urn.":13653,"▁Goth":13654,"▁Quyền":13655,"▁Phi,":13656,"▁scare":13657,"▁perm":13658,"▁gặp.":13659,"ency,":13660,"▁đoan":13661,"▁lập,":13662,"▁chỗ.":13663,"▁guit":13664,"▁kid,":13665,"▁hơi.":13666,"▁light,":13667,"▁patch":13668,"▁talking.":13669,"▁tested":13670,"▁kìa,":13671,"▁God's":13672,"▁Organ":13673,"▁shopping":13674,"▁treas":13675,"▁service.":13676,"▁sentence":13677,"▁sense.":13678,"▁Đức.":13679,"▁cool.":13680,"▁combat":13681,"▁bag.":13682,"▁annoy":13683,"▁occurred":13684,"▁application":13685,"▁decrease":13686,"▁(such":13687,"nge":13688,"▁cm.":13689,"▁thọ":13690,"▁sướng":13691,"▁bệ":13692,"▁mồm":13693,"▁vag":13694,"ino,":13695,"▁fung":13696,"▁ngắn.":13697,"ora":13698,"▁xước":13699,"imet":13700,"acing":13701,"▁khiêm":13702,"▁org":13703,"▁\"k":13704,"▁Nhóm":13705,"▁golf":13706,"▁outf":13707,"▁dischar":13708,"▁incorpor":13709,"▁tác,":13710,"▁asks":13711,"▁register":13712,"▁prescribed":13713,"▁entered":13714,"▁place?":13715,"▁tiết.":13716,"▁120":13717,"▁explore":13718,"▁levels.":13719,"▁miệng,":13720,"▁lost.":13721,"▁constitut":13722,"▁\"How":13723,"▁motor":13724,"▁century.":13725,"▁mixed":13726,"▁Glob":13727,"▁linked":13728,"▁spoken":13729,"▁warning":13730,"▁minimize":13731,"▁perspective":13732,"▁three,":13733,"▁adopt":13734,"▁thoroughly":13735,"▁Explor":13736,"▁channel":13737,"▁Besides,":13738,"▁tở":13739,"▁nạt":13740,"▁hill":13741,"▁mac":13742,"▁vườ":13743,"▁cham":13744,"▁chóc":13745,"inting":13746,"ret.":13747,"▁nhì":13748,"▁khùng":13749,"▁trói":13750,"ites.":13751,"▁Cục":13752,"▁Mèo":13753,"ames":13754,"▁stir":13755,"▁shame":13756,"▁Ron":13757,"▁Ren":13758,"▁Rinse":13759,"▁Andre":13760,"▁Andro":13761,"▁deck":13762,"▁Trust":13763,"asty":13764,"▁khoả":13765,"▁somewhat":13766,"▁tied":13767,"▁cơ,":13768,"▁units":13769,"ruption":13770,"▁Xét":13771,"▁smok":13772,"▁owners":13773,"▁possess":13774,"▁Marth":13775,"▁nhập.":13776,"▁avoiding":13777,"▁Drink":13778,"▁devices":13779,"▁Đông,":13780,"▁dreams":13781,"▁announced":13782,"▁Monica":13783,"▁Walter":13784,"▁Department":13785,"▁Street":13786,"▁equipment":13787,"▁unlik":13788,"▁sample":13789,"▁intellectual":13790,"the-counter":13791,"kin":13792,"ẹn.":13793,"▁thiếp":13794,"▁bìa":13795,"▁bẩn.":13796,"▁dare":13797,"▁tracking":13798,"▁troops":13799,"▁rash":13800,"▁Cung":13801,"▁inevit":13802,"▁Hung":13803,"▁người?":13804,"▁Đau":13805,"▁sac":13806,"▁Land":13807,"▁ate":13808,"opath":13809,"▁Fal":13810,"▁Khả":13811,"ries,":13812,"▁prison.":13813,"▁adequ":13814,"ogen":13815,"▁unkn":13816,"▁script":13817,"▁khuấy":13818,"▁life?":13819,"▁present.":13820,"▁listed":13821,"▁signals":13822,"▁lợi.":13823,"▁swallow":13824,"ricult":13825,"▁nổi.":13826,"▁phủ,":13827,"▁tuyến.":13828,"▁refuge":13829,"▁salad":13830,"▁delay":13831,"▁exclus":13832,"▁beautiful.":13833,"▁projects":13834,"arrhe":13835,"▁horiz":13836,"▁administer":13837,"▁gods":13838,"▁solutions":13839,"▁Texas":13840,"▁aspects":13841,"▁Identify":13842,"▁Febru":13843,"iable":13844,"nic":13845,"ềng":13846,"▁ướ":13847,"▁ủi":13848,"▁thính":13849,"▁vò":13850,"▁kìm":13851,"▁pip":13852,"onom":13853,"▁Tuyệt":13854,"▁Càng":13855,"▁giơ":13856,"ase,":13857,"▁Sơ":13858,"▁Sup":13859,"▁Bạc":13860,"▁xế":13861,"▁xưởng":13862,"▁Wi":13863,"▁Chạy":13864,"▁Đa":13865,"▁Đơn":13866,"oo.":13867,"▁cả!":13868,"▁loét":13869,"▁từ,":13870,"agger":13871,"▁goal.":13872,"▁Rập":13873,"▁Free":13874,"▁Health":13875,"▁buồng":13876,"▁Phi.":13877,"▁'l":13878,"▁hệ,":13879,"▁poet":13880,"▁consume":13881,"▁schedul":13882,"▁Or,":13883,"▁safe,":13884,"▁working.":13885,"▁186":13886,"▁nhiêu?":13887,"▁simple.":13888,"▁sufficient":13889,"▁extraordinary":13890,"▁nhóc.":13891,"▁adults":13892,"▁struggling":13893,"▁wisdom":13894,"▁column":13895,"▁grocery":13896,"▁false":13897,"▁Probably":13898,"▁Recognize":13899,"e's":13900,"▁đúp":13901,"▁ath":13902,"▁pim":13903,"ones.":13904,"▁to...":13905,"▁ox":13906,"▁Thống":13907,"▁HD":13908,"ides.":13909,"eler":13910,"elet":13911,"▁Garc":13912,"▁Fam":13913,"▁plain":13914,"▁needle":13915,"▁lên!":13916,"▁37":13917,"▁shoulder":13918,"▁nơi,":13919,"ances,":13920,"▁khuất":13921,"▁dân,":13922,"▁insist":13923,"▁chức.":13924,"atively,":13925,"▁while,":13926,"▁trem":13927,"▁forever":13928,"▁delic":13929,"▁cards":13930,"▁energy.":13931,"▁giỏi.":13932,"fully.":13933,"▁coffee.":13934,"▁pregnancy":13935,"▁ladies":13936,"▁inflammation":13937,"▁swimming":13938,"BT":13939,"bel":13940,"▁thi.":13941,"▁nations":13942,"▁đắm":13943,"▁sờ":13944,"▁trọn":13945,"orp":13946,"oral":13947,"▁H.":13948,"ama,":13949,"▁Chế":13950,"▁Change":13951,"▁ug":13952,"road":13953,"▁shake":13954,"▁death,":13955,"▁Head":13956,"▁sheet":13957,"▁Steph":13958,"▁everything,":13959,"▁disag":13960,"ical.":13961,"▁grant":13962,"ibility":13963,"▁assho":13964,"▁Uncle":13965,"▁foundation":13966,"▁\"Tr":13967,"▁kidna":13968,"▁seconds,":13969,"▁defined":13970,"▁America,":13971,"▁number,":13972,"▁visible":13973,"▁trùng,":13974,"▁memories":13975,"▁classroom":13976,"▁device.":13977,"▁email.":13978,"▁normal.":13979,"▁\"My":13980,"▁gradually":13981,"▁Cambod":13982,"▁authorities":13983,"▁pregnanc":13984,"▁Buổi":13985,"▁rubbing":13986,"▁allergic":13987,"▁apologize":13988,"▁yesterday.":13989,"▁Harvard":13990,"▁bướm":13991,"IP":13992,"ces,":13993,"ầy,":13994,"▁nè,":13995,"▁sườn":13996,"▁dict":13997,"▁diện.":13998,"reh":13999,"ener":14000,"▁ngọc":14001,"▁rủ":14002,"▁rạp":14003,"ashing":14004,"etamin":14005,"▁Bri":14006,"ima":14007,"iders":14008,"▁hoành":14009,"▁conven":14010,"▁You,":14011,"▁Ext":14012,"▁Econom":14013,"▁intend":14014,"▁agents":14015,"▁blad":14016,"▁'S":14017,"▁recru":14018,"▁chui":14019,"▁attitude":14020,"ock.":14021,"▁difference.":14022,"uprof":14023,"ology,":14024,"▁numer":14025,"▁foods.":14026,"▁trái,":14027,"▁numbers.":14028,"▁distinct":14029,"▁\"Con":14030,"▁Except":14031,"▁immig":14032,"▁activity.":14033,"▁medication.":14034,"▁infection,":14035,"▁along.":14036,"▁behind.":14037,"▁zero":14038,"▁attacks":14039,"▁rules.":14040,"▁surface.":14041,"▁gentlemen,":14042,"▁administration":14043,"▁Mom,":14044,"▁Korean":14045,"▁customers":14046,"▁invented":14047,"▁excessive":14048,"▁climb":14049,"▁molec":14050,"▁Boston":14051,"▁Einstein":14052,"▁uniform":14053,"▁remember.":14054,"-h":14055,"pat":14056,"▁→":14057,"▁ôn":14058,"▁đặn":14059,"▁bend":14060,"▁hid":14061,"▁chước":14062,"▁Tony":14063,"▁Cửa":14064,"ale,":14065,"▁Sáu":14066,"▁Best":14067,"▁Bry":14068,"▁M.":14069,"▁rely":14070,"▁Đàn":14071,"▁Đào":14072,"▁cá,":14073,"ilateral":14074,"▁End":14075,"▁(E":14076,"▁(W":14077,"▁worry.":14078,"▁tim,":14079,"▁intention":14080,"▁quá!":14081,"▁buông":14082,"▁How'd":14083,"▁recon":14084,"▁xuất.":14085,"▁sky":14086,"▁instinct":14087,"▁Anna":14088,"▁minute,":14089,"▁xúc,":14090,"▁humid":14091,"▁entr":14092,"▁sâu.":14093,"▁mái,":14094,"▁ants":14095,"▁Prince":14096,"▁election":14097,"▁electron":14098,"▁equation":14099,"▁thấp,":14100,"▁grandfather":14101,"▁London.":14102,"▁Jim,":14103,"▁Excel":14104,"▁Communist":14105,"▁tongue":14106,"▁Drawsk":14107,"▁scrub":14108,"▁chocolate":14109,"▁evalu":14110,"▁teeth.":14111,"reprene":14112,"▁Honey,":14113,"x,":14114,"▁lố":14115,"▁lầu":14116,"▁gear":14117,"▁gym":14118,"▁traum":14119,"ings,":14120,"▁Tác":14121,"esseng":14122,"▁Card":14123,"que":14124,"▁Thổ":14125,"▁Sure":14126,"▁lied":14127,"▁Lab":14128,"▁Kl":14129,"▁jar":14130,"▁Nhắc":14131,"▁Oft":14132,"▁Ur":14133,"ach,":14134,"ick.":14135,"▁back!":14136,"▁Emm":14137,"▁Conn":14138,"▁vụ,":14139,"▁Xu":14140,"▁20,":14141,"▁desired":14142,"▁assault":14143,"▁tục,":14144,"▁thúc,":14145,"▁luận,":14146,"▁general,":14147,"▁phiêu":14148,"▁sleep,":14149,"▁ruin":14150,"▁bụng,":14151,"▁khoá.":14152,"▁organic":14153,"▁Harold":14154,"▁closely":14155,"▁già.":14156,"▁government,":14157,"▁Áp":14158,"▁parking":14159,"▁loạn.":14160,"▁Vietnam's":14161,"▁tomorrow,":14162,"▁Maj":14163,"▁Billy":14164,"▁Pháp.":14165,"▁Kingdom":14166,"▁arrived":14167,"▁slept":14168,"▁inspired":14169,"▁refriger":14170,"▁Prepare":14171,"99":14172,"▁by.":14173,"▁hướng.":14174,"▁vất":14175,"▁dad.":14176,"▁nhủ":14177,"ana,":14178,"▁phác":14179,"▁Ni":14180,"▁Summ":14181,"▁Mất":14182,"▁Human":14183,"uốt.":14184,"▁Chàng":14185,"▁raw":14186,"▁Pier":14187,"▁loos":14188,"▁Ox":14189,"art,":14190,"▁outcom":14191,"▁Jong":14192,"▁fear.":14193,"ie's":14194,"▁had.":14195,"▁vậy!":14196,"▁sử.":14197,"▁incom":14198,"▁gone,":14199,"▁friend's":14200,"ative.":14201,"▁subt":14202,"▁\"In":14203,"▁community.":14204,"▁communities":14205,"▁supporting":14206,"▁damage.":14207,"▁boys.":14208,"▁infections":14209,"▁covering":14210,"▁Ừm,":14211,"▁ạ,":14212,"▁burned":14213,"▁privile":14214,"▁nutrition":14215,"▁silver":14216,"▁Guard":14217,"▁Morgan":14218,"▁\"Em":14219,"▁Joseph":14220,"▁cabin":14221,"▁hunting":14222,"▁inhib":14223,"▁folks":14224,"▁mutual":14225,"▁olive":14226,"▁Pomorsk":14227,"▁garlic":14228,"▁unexpect":14229,"EN":14230,"de":14231,"ne.":14232,"rast":14233,"ùn":14234,"▁bones":14235,"▁mó":14236,"▁lơ":14237,"▁welcom":14238,"▁gân":14239,"▁gập":14240,"▁yard":14241,"▁ngẩn":14242,"▁ngon,":14243,"▁rib":14244,"▁rót":14245,"▁Clear":14246,"▁Aut":14247,"▁beef":14248,"▁Mĩ":14249,"▁Màu":14250,"▁Gì":14251,"▁joy":14252,"aine":14253,"see":14254,"▁people?":14255,"▁pron":14256,"▁branch":14257,"▁scent":14258,"▁pre-":14259,"▁bàn.":14260,"▁address.":14261,"▁happens,":14262,"▁ideas.":14263,"▁calend":14264,"▁sâu,":14265,"▁tức,":14266,",000.":14267,"▁break.":14268,"▁băng.":14269,"▁Exerc":14270,"▁nạn.":14271,"▁continues":14272,"▁women's":14273,"▁classes":14274,"▁bại,":14275,"▁issue.":14276,"▁Common":14277,"▁Barry":14278,"▁Âu,":14279,"▁Độ,":14280,"▁hope.":14281,"▁Minecraft":14282,"▁occurs":14283,"▁neck.":14284,"▁nails":14285,"▁society.":14286,"▁physician":14287,"▁Raymond":14288,"▁illegal":14289,"▁Continue":14290,"▁relevant":14291,"▁Nintendo":14292,"U.":14293,"cus":14294,"t's":14295,"▁craft":14296,"▁threw":14297,"▁la.":14298,"▁vẹt":14299,"▁kitt":14300,"▁chẽ":14301,"▁dens":14302,"anut":14303,"▁oh,":14304,"▁rò":14305,"usic":14306,"▁Sở":14307,"▁Sức":14308,"▁tack":14309,"▁Mas":14310,"▁Manh":14311,"▁Đô":14312,"▁(7":14313,"▁(wh":14314,"▁(không":14315,"ument.":14316,"rah":14317,"▁peace.":14318,"useum":14319,"ized.":14320,"▁enab":14321,"ogg":14322,"▁xua":14323,"▁vui,":14324,"▁hug":14325,"▁instant":14326,"▁chí,":14327,"▁site.":14328,"▁experience,":14329,"▁nhẹ.":14330,"▁street.":14331,"▁profound":14332,"▁Real":14333,"▁Prom":14334,"▁breath.":14335,"▁capab":14336,"▁falls":14337,"▁trust.":14338,"▁businesses":14339,"▁cops":14340,"▁Sam.":14341,"▁iPod":14342,"▁Tuần":14343,"▁1970":14344,"▁depression.":14345,"▁referred":14346,"▁moisture":14347,"▁Otherwise,":14348,"▁(nếu":14349,"▁Afghanistan":14350,"▁uh...":14351,"▁Napole":14352,"▁rescue":14353,"▁Taiw":14354,"bble":14355,"▁sói":14356,"iny":14357,"▁trunk":14358,"▁Ted":14359,"▁Cầu":14360,"▁Book":14361,"▁Mah":14362,"▁Chơi":14363,"▁stress,":14364,"▁Đứa":14365,"▁liễu":14366,"▁raising":14367,"▁Die":14368,"▁PC":14369,"ifer":14370,"ife.":14371,"pped.":14372,"▁đây:":14373,"▁hay,":14374,"rypt":14375,"ogue":14376,"▁party,":14377,"▁down?":14378,"▁Therefore":14379,"▁chuyền":14380,"▁yourself?":14381,"▁trung.":14382,"▁10%":14383,"▁institution":14384,"▁awful":14385,"▁included":14386,"▁2008":14387,"▁homework":14388,"▁retire":14389,"rison":14390,"▁pressure.":14391,"▁thoát.":14392,"▁Blood":14393,"▁brok":14394,"▁warri":14395,"▁parad":14396,"▁Roose":14397,"▁Barb":14398,"▁operation":14399,"▁movies":14400,"▁hungry":14401,"▁England":14402,"▁marketing":14403,"▁expression":14404,"▁horrible":14405,"▁triang":14406,"▁attractive":14407,"body,":14408,"▁temporary":14409,"▁ngựa.":14410,"▁Germany":14411,"▁over-the-counter":14412,"▁bastard":14413,"▁analysis":14414,"▁teaspoon":14415,"rase":14416,"uild":14417,"▁́":14418,"▁nasal":14419,"▁lens":14420,"▁lặng.":14421,"▁kiện.":14422,"▁chinh":14423,"onic":14424,"▁ye":14425,"en?":14426,"▁Tem":14427,"▁Top":14428,"▁NSA":14429,"▁Chó":14430,"▁conver":14431,"▁Lan,":14432,"▁cảng":14433,"▁\"không":14434,"▁Pour":14435,"▁Nhiệm":14436,"▁Om":14437,"▁upload":14438,"▁tie":14439,"▁Store":14440,"▁score":14441,"▁downst":14442,"▁persist":14443,"▁flood":14444,"▁chuồng":14445,"▁clean,":14446,"▁suppress":14447,"▁assoc":14448,"▁tư,":14449,"▁creep":14450,"▁effect.":14451,"▁Spend":14452,"▁statements":14453,"▁reaching":14454,"▁Anyone":14455,"▁Putin":14456,"▁urine":14457,"▁beneficial":14458,"▁threaten":14459,"▁annual":14460,"▁throwing":14461,"▁crying":14462,"▁initi":14463,"▁tension":14464,"▁commitment":14465,"▁funny.":14466,"▁coconut":14467,"▁surveill":14468,"▁Chandler":14469,"▁House.":14470,"▁Savage":14471,"▁supplements":14472,"L:":14473,"hap":14474,"noon":14475,"ving,":14476,"ỡn":14477,"onents":14478,"▁o'":14479,"▁Tâm":14480,"▁Tàu":14481,"▁ngấm":14482,"▁ray":14483,"▁Cat":14484,"ett,":14485,"▁Bonn":14486,"▁Mid":14487,"▁MIT":14488,"▁nó!":14489,"▁form.":14490,"▁Chứng":14491,"▁Chuck":14492,"▁conference":14493,"▁loan":14494,"▁(R":14495,"▁Rus":14496,"▁outl":14497,"▁they?":14498,"▁Trộn":14499,"▁tiễn":14500,"icks":14501,"▁ourselves.":14502,"▁shoulders":14503,"▁coordin":14504,"▁offers":14505,"▁resolve":14506,"▁hỏi:":14507,"▁synd":14508,"▁believes":14509,"▁police.":14510,"▁giác,":14511,"▁entreprene":14512,"▁Clar":14513,"▁2009":14514,"▁tệ,":14515,"▁lạc.":14516,"▁moderate":14517,"▁protected":14518,"▁Blu":14519,"▁construction":14520,"▁behaviors":14521,"▁windows":14522,"▁technologies":14523,"▁stopping":14524,"▁Mean":14525,"▁Paris.":14526,"▁audio":14527,"▁dressed":14528,"▁garb":14529,"▁controlling":14530,"▁duty":14531,"▁suicide":14532,"▁Pakistan":14533,"▁boss.":14534,"▁Spanish":14535,"▁Myanmar":14536,"▁enormous":14537,"oke":14538,"zo":14539,"▁nến":14540,"▁hen":14541,"▁mép":14542,"▁lội":14543,"▁vamp":14544,"▁gender":14545,"▁dập":14546,"▁pages":14547,"ont.":14548,"re,":14549,"▁Tài":14550,"orith":14551,"▁Thể":14552,"▁Ther":14553,"▁Sản":14554,"▁nghẹt":14555,"▁Ven":14556,"▁cáo.":14557,"ste":14558,"▁sole":14559,"▁diễn.":14560,"▁adap":14561,"▁bless":14562,"▁'h":14563,"▁phát.":14564,"▁arter":14565,"▁evening":14566,"▁Đây,":14567,"▁inside,":14568,"▁string":14569,"▁hard,":14570,"▁lòng,":14571,"▁understand,":14572,"▁top.":14573,"▁xấu,":14574,"▁wrong?":14575,"▁videos":14576,"▁concert":14577,"▁rượu,":14578,"▁condition.":14579,"▁reasonable":14580,"▁biological":14581,"▁drives":14582,"▁precious":14583,"▁made.":14584,"▁Korea":14585,"▁colleagues":14586,"▁veterin":14587,"▁Children":14588,"▁Hollywood":14589,"P.":14590,"oves":14591,"ấng":14592,"ẩy.":14593,"▁gai":14594,"in?":14595,"▁pas":14596,"▁nhồi":14597,"▁T.":14598,"▁Nations":14599,"▁Aud":14600,"▁Mond":14601,"▁choosing":14602,"▁Chạm":14603,"▁Vết":14604,"▁(ng":14605,"▁thế!":14606,"▁justice":14607,"▁plate":14608,"ocol":14609,"ize.":14610,"pert":14611,"▁resid":14612,"▁'B":14613,"▁started.":14614,"▁cấp,":14615,"▁insult":14616,"▁fewer":14617,"▁72":14618,"rence":14619,"▁2009,":14620,"▁12,":14621,"▁chàng.":14622,"▁else?":14623,"▁thiêu":14624,"▁artist":14625,"▁step.":14626,"▁psychological":14627,"▁keys":14628,"▁etc":14629,"▁engineer":14630,"▁drove":14631,"▁purpose.":14632,"▁Felic":14633,"rastruct":14634,"A,":14635,"▁−":14636,"▁êm":14637,"▁nặng,":14638,"▁đục":14639,"▁hèn":14640,"▁mol":14641,"▁mắn.":14642,"▁lở":14643,"▁chuộc":14644,"▁dừa":14645,"▁C,":14646,"▁CT":14647,"eto":14648,"▁Az":14649,"▁tai.":14650,"▁choáng":14651,"▁rail":14652,"▁Greg":14653,"▁sulf":14654,"▁lo.":14655,"▁(5":14656,"elling":14657,"▁điều.":14658,"ude.":14659,"▁enable":14660,"▁Quyết":14661,"▁work?":14662,"ancing":14663,"▁20%":14664,"▁42":14665,"▁drown":14666,"▁biến,":14667,"▁region.":14668,"▁France":14669,"▁cụt":14670,"▁chóng.":14671,"▁cuts":14672,"▁Johnny":14673,"▁Frank,":14674,"▁identity":14675,"▁ships":14676,"▁town,":14677,"▁Build":14678,"burg":14679,"▁introduced":14680,"▁desktop":14681,"▁Chicago":14682,"▁algorith":14683,"▁habits":14684,"▁iTunes":14685,"list":14686,"ses":14687,"yt":14688,"▁cord":14689,"▁đới":14690,"▁lén":14691,"inate":14692,"▁trơn":14693,"▁fish,":14694,"▁Cost":14695,"cho":14696,"oman":14697,"quar":14698,"le?":14699,"▁quế":14700,"▁Meg":14701,"▁nàn":14702,"▁dose":14703,"osaur":14704,"▁Lock":14705,"▁have?":14706,"▁Pok":14707,"▁Ref":14708,"▁leak":14709,"▁spare":14710,"▁spots":14711,"▁whoever":14712,"▁office,":14713,"▁'H":14714,"▁hắn?":14715,"▁chuyển.":14716,"▁recall":14717,"▁ổn,":14718,"aze":14719,"▁blood,":14720,"▁cute":14721,"▁Sea.":14722,"▁Mẹ,":14723,"▁pursue":14724,"▁yên.":14725,"isms":14726,"▁landsc":14727,"▁company,":14728,"▁package":14729,"roduct":14730,"▁bacterial":14731,"▁disappeared":14732,"▁captured":14733,"▁lady.":14734,"▁stupid.":14735,"▁surrounded":14736,"▁injury":14737,"▁properties":14738,"▁Santa":14739,"▁antibiotics":14740,"▁Danny":14741,"▁shadow":14742,"▁Firef":14743,"▁accurate":14744,"▁convinced":14745,"▁https":14746,"▁basket":14747,"▁Roosevel":14748,"cend":14749,"hes":14750,"uct":14751,"▁craw":14752,"▁sương":14753,"▁mamm":14754,"▁lề":14755,"▁lấn":14756,"▁line,":14757,"▁pant":14758,"ones,":14759,"itarian":14760,"isol":14761,"▁ngất":14762,"▁IS":14763,"▁Cop":14764,"▁phế":14765,"▁giun":14766,"om,":14767,"ve,":14768,"▁Tho":14769,"▁Bad":14770,"▁xôi":14771,"out.":14772,"ada":14773,"▁Lily":14774,"▁loving":14775,"▁(like":14776,"olute":14777,"▁outer":14778,"▁see?":14779,"▁Ngu":14780,"▁which,":14781,"▁twe":14782,"▁twist":14783,"▁Holl":14784,"▁đủ,":14785,"▁invis":14786,"▁Sao,":14787,"otted":14788,"▁hardware":14789,"▁wait,":14790,"▁angel":14791,"coming":14792,"▁Roll":14793,"▁\"Hãy":14794,"▁winning":14795,"▁affects":14796,"print":14797,"▁measures":14798,"▁consumption":14799,"▁diseases":14800,"-10":14801,"▁Claire.":14802,"▁Oliver,":14803,"▁declared":14804,"▁restaurant":14805,"▁guarantee":14806,"▁omega":14807,"▁Clinton":14808,"ES":14809,"M.":14810,"▁bike":14811,"▁lự":14812,"erb":14813,"erk":14814,"▁ward":14815,"▁ngừ":14816,"▁ngẫm":14817,"▁Iv":14818,"▁rổ":14819,"▁rip":14820,"▁Nút":14821,"▁Mười":14822,"▁Hur":14823,"acc":14824,"▁Gide":14825,"▁soi":14826,"▁Est":14827,"▁(\"":14828,"▁Os":14829,"▁Jones":14830,"▁mayb":14831,"▁Nguy":14832,"▁bran":14833,"▁Phó":14834,"▁chứ!":14835,"▁sử,":14836,"▁twenty":14837,"▁'v":14838,"▁appet":14839,"▁compound":14840,"▁Giới":14841,"▁road.":14842,"▁crash":14843,"▁owner":14844,"▁plays":14845,"▁experts":14846,"▁quanh,":14847,"▁example.":14848,"▁Notice":14849,"▁extend":14850,"▁restore":14851,"▁move,":14852,"▁buildings":14853,"▁testoster":14854,"▁legs.":14855,"▁freak":14856,"▁187":14857,"▁walks":14858,"▁faced":14859,"ennis":14860,"▁emotions.":14861,"▁sense,":14862,"▁zone":14863,"▁danger.":14864,"▁attacked":14865,"▁Color":14866,"▁Columb":14867,"▁OK.":14868,"▁(Video":14869,"▁Benj":14870,"▁attracted":14871,"▁bóng.":14872,"▁(Music":14873,"▁hamster":14874,"▁toothp":14875,"▁roughly":14876,"▁launched":14877,"▁flavor":14878,"▁'Mình":14879,"▁platform":14880,"▁nè.":14881,"▁brilliant":14882,"▁ultimately":14883,"▁https://":14884,"nut":14885,"water":14886,"▁ấu":14887,"▁cộ":14888,"▁sọ":14889,"▁hiếu":14890,"▁lúa":14891,"▁gent":14892,"▁gly":14893,"▁dried":14894,"▁khiếm":14895,"▁tries":14896,"▁rig":14897,"▁quạt":14898,"▁Bull":14899,"▁Mack":14900,"▁Han":14901,"▁Hist":14902,"▁Hyd":14903,"▁really.":14904,"▁una":14905,"▁Lực":14906,"▁orient":14907,"▁Gửi":14908,"▁biết?":14909,"▁Od":14910,"▁Found":14911,"▁diarrhe":14912,"ments,":14913,"▁manif":14914,"▁disab":14915,"ical,":14916,"▁chú.":14917,"▁thịt.":14918,"▁describ":14919,"▁kỳ.":14920,"▁tinh,":14921,"▁importantly,":14922,"▁2015":14923,"▁begun":14924,"▁2008,":14925,"▁distribut":14926,"▁cheese":14927,"▁video,":14928,"▁considering":14929,"▁memory.":14930,"▁placing":14931,"▁phê.":14932,"▁\"Nếu":14933,"▁parag":14934,"▁Rober":14935,"▁suggested":14936,"▁period.":14937,"▁searching":14938,"▁dương.":14939,"▁Africa.":14940,"▁Guess":14941,"▁rubber":14942,"▁capture":14943,"▁maintaining":14944,"▁uncertain":14945,"▁thrown":14946,"▁daughter,":14947,"▁cooperation":14948,"▁\"It's":14949,"▁astron":14950,"▁Alternatively,":14951,"▁Manhatt":14952,"12":14953,"OR":14954,"li":14955,"ofield":14956,"right,":14957,"son,":14958,"▁ẩn.":14959,"▁đần":14960,"▁sed":14961,"▁vẩn":14962,"▁gy":14963,"▁khép":14964,"▁ngon.":14965,"▁rational":14966,"▁Care":14967,"ications":14968,"▁xi":14969,"▁Mind":14970,"▁Miam":14971,"▁hoan":14972,"keep":14973,"▁Vl":14974,"▁Lam":14975,"ourn":14976,"▁Fox":14977,"▁alive,":14978,"▁caut":14979,"▁We'd":14980,"ia's":14981,"▁Stalin":14982,"▁sản,":14983,"▁trapped":14984,"▁decade":14985,"▁dùm":14986,"▁open,":14987,"▁800":14988,"▁Clark":14989,"▁2013":14990,"▁2007":14991,"▁ears":14992,"▁name's":14993,"▁Getting":14994,"▁matter,":14995,"▁products.":14996,"▁supported":14997,"▁sắc,":14998,"▁reduced":14999,"▁storage":15000,"▁thai,":15001,"▁involved.":15002,"▁identified":15003,"▁receiving":15004,"▁riding":15005,"▁customer":15006,"▁Alexand":15007,"▁animals.":15008,"▁pushed":15009,"▁network.":15010,"▁Donn":15011,"▁examine":15012,"▁married.":15013,"▁farmers":15014,"Cloud":15015,"▁Hannah":15016,"▁dairy":15017,"▁withdraw":15018,"▁harsh":15019,"▁veterinarian":15020,"-T":15021,"house":15022,"lin.":15023,"▁00":15024,"▁tôm":15025,"▁cúi":15026,"▁award":15027,"▁bế":15028,"▁hái":15029,"▁lap":15030,"▁lọt":15031,"▁lưng.":15032,"er\"":15033,"▁chớp":15034,"▁dâng":15035,"▁nhóm.":15036,"▁trash":15037,"▁IC":15038,"▁Crow":15039,"eting":15040,"uster":15041,"▁Thức":15042,"▁Hạn":15043,"▁Chồng":15044,"▁stay.":15045,"osp":15046,"▁sail":15047,"▁Pret":15048,"▁1⁄":15049,"▁soon,":15050,"opher":15051,"▁Nhất":15052,"▁(6":15053,"▁(p":15054,"▁Fig":15055,"▁use,":15056,"▁alleg":15057,"▁Uk":15058,"▁sauce":15059,"ick,":15060,"arest":15061,"▁feeling.":15062,"▁gray":15063,"▁happy,":15064,"eah":15065,"▁afternoon":15066,"▁65":15067,"▁insight":15068,"▁facts":15069,"▁factory":15070,"▁healthy.":15071,"▁defe":15072,"▁mom.":15073,"▁án,":15074,"▁refuse":15075,"▁streets":15076,"▁Scarl":15077,"▁artic":15078,"▁advis":15079,"▁India,":15080,"▁containing":15081,"▁stealing":15082,"▁trứng.":15083,"▁volume":15084,"▁logic":15085,"▁murdered":15086,"▁harvest":15087,"▁Josh":15088,"▁Despite":15089,"▁disorder":15090,"▁attached":15091,"▁sót.":15092,"▁áo,":15093,"▁library":15094,"▁cừu":15095,"▁Council":15096,"▁unnecess":15097,"▁Supreme":15098,"15":15099,"DA":15100,"ping":15101,"uum":15102,"▁×":15103,"▁tươ":15104,"▁cin":15105,"▁cặn":15106,"▁cưỡi":15107,"▁thà":15108,"▁lụ":15109,"▁dow":15110,"▁pants":15111,"▁trace":15112,"▁trốn.":15113,"▁ngư":15114,"▁rưỡi":15115,"▁Cand":15116,"▁phông":15117,"▁Night":15118,"ush,":15119,"▁ST":15120,"▁Making":15121,"▁đói.":15122,"▁Chân":15123,"key.":15124,"▁ul":15125,"▁Las":15126,"▁Kam":15127,"▁loa":15128,"▁Fil":15129,"▁deploy":15130,"king.":15131,"▁leather":15132,"rich":15133,"▁spouse":15134,"▁someone,":15135,"▁luỹ":15136,"ach.":15137,"ial.":15138,"obb":15139,"▁tình.":15140,"▁resident":15141,"▁'E":15142,"▁tập,":15143,"▁peroxide":15144,"▁remed":15145,"▁tên,":15146,"▁dry,":15147,"▁infrastruct":15148,"▁serious.":15149,"▁decor":15150,"▁lot,":15151,"▁Quần":15152,"ologists":15153,"▁easiest":15154,"▁chó,":15155,"▁9,":15156,"▁second,":15157,"▁define":15158,"▁America's":15159,"▁đọc.":15160,"▁hồi.":15161,"▁economy.":15162,"▁technique":15163,"▁Prin":15164,"▁land.":15165,"▁dream.":15166,"▁Âu.":15167,"▁performed":15168,"▁iPad":15169,"▁cúm":15170,"▁Monic":15171,"▁irritate":15172,"▁celebrate":15173,"▁cowork":15174,"▁Muslim":15175,
[...]
